15
EF
00
09
00
F5
13
F4
04
09
11
10
F5
0F
12
08
F5
0C
EF
F2
0B
FC
11
04
0B
09
F5
F0
ED
05
09
0F
0E
07
07
EE
F0
FD
01
F3
F9
FC
F6
EE
07
F9
F3
FE
F0
14
F4
F8
F8
04
11
13
F7
F4
F3
FC
04
FD
15
F3
0E
F1
FA
0C
F0
FF
01
04
FB
F1
08
F1
0C
FE
F4
06
EC
EE
F3
03
EE
08
EE
15
00
01
01
0B
FE
0C
F2
14
EC
EE
0D
03
0B
EE
F0
12
13
F4
FA
F2
01
F1
01
FB
08
01
0E
0D
01
F3
F9
0E
0D
FE
06
03
F2
15
FE
06
0F
00
FC
FE
FE
13
ED
0F
08
F8
0C
0A
09
F7
EF
0C
F3
05
EE
06
0D
14
EE
FC
0D
F9
11
0A
02
10
F8
10
0D
0C
0C
F1
F2
F2
F2
ED
05
03
01
F5
FA
F8
11
F4
F4
FB
FF
07
F6
07
FE
09
10
0D
06
FB
FD
F4
FE
00
0A
FB
10
14
03
09
05
FF
FE
05
05
11
F7
14
F8
0D
00
07
01
09
FE
02
02
03
FA
02
F6
12
FC
FC
F0
F9
08
FB
01
F1
03
FF
09
F1
F5
04
11
10
10
09
ED
FB
FF
02
10
FE
11
EF
02
F1
0B
11
14
10
11
F2
F8
FA
04
11
10
09
0A
00
F4
FD
14
FE
16
FF
FD
0E
00
F0
F1
F4
03
EE
10
0C
F5
FA
0E
F1
FC
F5
0B
12
F2
00
0B
FC
09
FD
F9
09
0F
FA
08
F5
F4
09
07
00
05
02
07
F3
F7
0B
F6
0B
F3
F0
10
01
0B
FF
00
01
0F
0F
02
04
0B
FA
04
0F
00
14
0B
F1
ED
FF
FD
ED
F1
F9
F8
03
06
FF
FF
FE
0A
F4
13
F4
01
0F
F6
01
F1
FD
FC
F6
ED
09
08
10
0B
F5
F8
F4
FD
0C
02
F0
0E
FB
F7
08
16
F1
ED
04
0A
0C
13
F6
F3
09
F3
0C
F2
F6
0B
ED
F1
02
F9
FA
F6
0B
13
FB
FE
01
07
FA
FF
09
F7
FE
EC
F4
00
F4
0A
02
F3
FF
03
10
07
0F
FE
F5
F1
EB
ED
F6
05
F0
07
11
02
F0
0A
09
FD
02
02
F9
10
F2
0B
0E
F9
FB
F2
F6
0E
11
07
ED
ED
FB
FA
FE
09
0F
F2
0A
0B
F7
08
00
12
0E
F7
0D
FD
FD
13
0A
FC
FC
0F
EE
01
F1
F2
FF
09
13
0C
FE
FC
F9
F1
07
F6
01
FD
F1
01
0A
07
F5
0C
F9
F5
F1
FC
EE
0C
12
FA
0E
EE
08
F0
F1
0E
F6
10
F7
12
FE
FC
FD
FF
04
00
14
06
00
04
00
13
02
F9
FA
0C
FB
04
F9
04
F5
EE
F3
FD
F2
FF
F5
06
FB
13
EE
EC
FE
10
12
0A
11
0B
FD
EE
F0
06
0F
F8
FE
ED
07
FF
F5
0A
0E
EE
0B
F0
F8
03
11
00
01
F2
F7
F4
F6
FA
ED
08
F3
F3
FC
10
07
F0
12
07
0F
F9
FE
13
01
10
13
04
FF
10
0A
04
12
F5
F1
F0
F5
14
04
03
09
0E
07
0B
06
12
FF
0E
F2
F1
00
F5
07
0F
F7
07
09
0F
FF
F5
0E
F3
F2
FF
0F
10
F1
ED
05
12
0D
F1
06
FA
F2
FA
08
11
09
14
08
04
F7
EC
0A
FF
00
06
FE
03
04
01
FC
08
13
F7
FB
EF
FC
FF
FC
05
08
EF
ED
FF
FC
FA
10
FE
10
F7
0E
F8
0C
05
0E
F4
00
07
06
07
F8
0E
F1
11
0B
FD
0A
F7
F6
EE
06
12
04
01
F5
08
0D
05
0D
F1
F3
EE
0E
11
01
EB
08
10
FA
F3
FC
09
F6
EF
12
F9
0E
F3
ED
02
0B
10
F5
F2
02
ED
F5
06
0F
EF
00
FD
F6
F4
03
FB
F1
FA
03
12
F1
FB
09
10
FF
0A
10
F7
FA
12
F0
F3
F7
FB
0D
FC
05
09
EF
F4
07
EE
0A
02
FF
0E
11
01
02
EE
F7
FA
10
F6
FB
F4
EE
10
ED
F2
FA
0A
03
11
FA
0B
EC
10
01
F2
10
F3
06
01
08
FA
0B
11
01
F6
F3
F0
FE
09
09
12
0F
F7
00
10
12
0B
06
EF
05
F6
11
10
06
F5
12
F0
11
0D
0A
F4
04
F1
F7
F1
0F
06
EF
ED
00
EE
F6
F2
14
F9
09
10
11
F2
04
16
F9
FE
F4
0D
10
ED
F4
EE
FA
0D
01
F5
FC
F8
02
03
05
0F
03
FD
F6
FC
03
F8
EF
FB
ED
08
EE
01
F0
F8
0B
F7
FC
02
0E
FE
F6
0E
07
EE
0D
04
F5
F1
02
FB
08
F3
F5
FB
F8
11
0C
10
15
ED
0D
F6
FB
10
EE
0C
06
FE
05
F6
0A
FF
F2
F8
09
EF
0A
F3
11
05
F4
01
FD
FB
02
F5
09
0A
FE
04
14
F0
0C
FB
08
10
F1
FD
0C
FA
F8
02
F7
09
F9
F1
EE
FD
F4
FC
0E
00
13
FE
04
F6
12
0A
0C
10
F5
F1
10
F8
F1
07
F7
ED
02
EE
0E
06
ED
FF
12
11
10
F7
00
01
15
06
0C
FA
EF
FB
FE
EF
F9
09
FB
0B
09
F4
0C
FF
02
FE
F7
0A
12
0C
02
01
FA
F4
00
03
09
0B
FD
F7
09
03
00
09
05
F0
F4
F4
0F
EC
F1
FD
01
0B
F3
07
11
14
FA
0B
07
FF
F0
F0
05
F9
03
05
F1
07
F8
08
0D
01
10
01
FA
FB
F7
0B
12
14
F1
00
07
06
F3
F8
EE
10
0F
0D
F5
F5
F1
F1
F1
05
09
F0
12
EE
01
F3
F1
01
13
FA
13
10
0F
04
EF
0A
0C
07
08
F8
F3
FD
0B
0D
06
0F
F6
F9
11
14
12
F3
F4
14
F7
FE
13
03
0F
0E
11
0F
02
06
01
03
0F
0C
09
FE
03
0B
10
0A
FB
03
0B
13
F3
F7
03
01
0E
FB
0A
FD
EF
FB
EF
F6
02
11
F8
04
F5
10
FD
07
F9
07
09
07
09
F1
02
F3
0F
F1
09
F1
FC
F6
0F
11
F9
F9
13
08
08
EF
F6
EC
13
0F
FE
F3
FA
F0
0B
F1
FA
02
0B
0D
F7
14
0A
F2
0B
EC
08
01
F6
F8
F5
FF
F4
0B
00
06
02
00
0C
F1
08
F8
FC
08
10
F6
FD
FC
FB
F0
0C
F7
FB
FE
0A
FA
0F
13
02
11
10
0D
03
F1
10
08
F9
F9
F8
FD
01
FC
F7
F0
04
FE
15
00
07
FB
00
03
0B
F2
11
EA
F1
ED
08
F4
F1
10
11
09
0F
FE
ED
00
02
F4
06
12
EE
11
ED
0E
12
0D
06
0D
F7
FC
09
F8
0E
04
02
06
EC
F2
F8
F7
0C
F9
06
F6
EE
EC
07
FD
FA
10
0F
EF
F2
0F
05
FD
F5
03
12
FE
09
09
FF
FA
04
03
F3
0D
F3
0B
06
F9
00
FE
0F
F0
01
F4
FA
F4
FB
12
08
FA
05
FF
FA
0B
00
11
07
ED
F7
FF
FD
ED
02
F7
09
01
0E
0B
0E
0F
12
0E
F5
FB
0D
F0
14
FC
0B
EF
07
0E
04
F8
03
EF
01
01
06
FD
0C
FF
06
FF
FB
0A
F7
FD
F0
06
ED
0B
10
05
0B
EA
01
F0
08
02
FC
04
05
F5
0B
00
F7
FE
FB
0B
F9
F6
FE
13
0F
F0
0D
F4
11
06
FC
FA
0E
EC
F8
06
FD
F9
10
0E
0D
11
0E
F3
0B
EE
F0
F9
F5
11
14
F6
FA
EC
F5
17
F2
FA
0E
08
FF
F5
F3
FD
F7
F2
FF
F4
14
05
EB
E9
03
00
ED
FA
EB
00
FC
FC
F2
05
0A
00
F8
0E
F2
00
FE
03
F1
15
F0
0D
FA
F4
FE
F6
04
01
05
0E
04
09
06
11
0E
F4
F7
F4
0D
F1
0E
EE
F1
0B
08
09
F2
FA
00
F8
00
FD
0C
03
0B
F4
FE
F2
0C
F7
0A
F9
07
FA
08
F8
FE
01
F5
0B
0E
F4
08
03
FB
0F
09
F2
13
EE
0C
0C
FA
FE
F8
06
F4
F8
0A
0D
F8
F8
13
00
0F
FA
F8
0F
08
F4
F5
FE
F6
0F
08
0F
F2
0C
ED
F6
EE
0A
ED
F0
13
13
F9
05
04
FA
F5
08
F6
F6
0F
EE
0F
FA
F2
09
EE
EE
F3
0E
0A
FD
FF
F7
FB
F9
FD
13
EC
FD
F0
EF
F5
09
F0
13
08
04
F4
F3
06
10
0F
F0
00
03
11
09
0C
0B
F4
0A
F8
FB
13
FC
FA
09
0E
F9
05
FA
03
01
06
F0
02
F0
03
11
0E
EF
F2
F0
F6
0C
0D
F4
ED
F7
07
0C
F5
F6
F6
0D
FC
04
FF
F1
FC
FD
04
ED
ED
F4
06
04
F6
0A
FA
F7
09
08
FE
05
F5
F3
13
F1
F5
F8
11
EA
05
F4
0F
FC
01
FC
ED
F5
05
12
07
08
05
FA
F9
F5
11
00
0C
0C
FF
0A
05
01
F5
0A
0A
FB
F2
04
03
F4
F1
FB
F6
0B
FA
12
F8
F6
0C
F7
0C
FB
0D
FD
F0
F3
04
0A
14
04
0D
F5
05
ED
11
F3
11
06
11
F5
05
FE
0A
00
0A
12
0A
FE
F4
14
FA
F5
F9
14
0D
0F
06
13
FF
0A
0D
F1
F9
EE
08
05
07
F4
09
05
08
FB
13
00
EC
12
F6
0E
FF
09
0B
00
06
09
07
FC
0D
13
0E
0B
02
06
FA
FE
10
0D
09
F1
F4
03
06
02
0B
FB
09
FD
F4
0E
F6
F9
06
09
12
0D
F9
F0
F9
FF
0B
F0
FE
03
F1
F9
11
03
F2
FB
FA
FF
F2
F0
12
F1
04
07
EE
00
FF
06
EE
FC
10
0D
10
F3
05
0E
0D
F2
FF
09
F9
09
FE
F2
FF
F9
12
0F
01
02
02
0C
EF
FB
00
01
07
EF
12
FC
EE
FC
02
EF
F0
F4
04
FB
EE
F0
0C
07
08
EF
01
08
FF
08
F2
0F
06
F6
05
05
F6
04
FA
01
02
0C
FC
F3
10
FD
04
09
01
0E
F5
F6
02
08
EE
FA
0A
07
EE
F0
FF
06
01
FB
06
06
0F
FD
EE
ED
00
02
14
F1
FE
0A
F7
04
EC
EE
F5
FF
04
FE
F0
0D
0A
F8
F4
F5
12
04
15
EF
10
0E
08
F3
FC
FD
FF
0C
09
0F
09
FF
EF
0C
13
10
FF
05
0D
0E
F9
EF
0B
12
FF
FB
FD
F9
0F
10
03
09
F6
01
F7
EE
09
F6
04
00
EF
FE
FE
FB
0B
F9
F2
F2
13
14
FD
FB
F6
0E
13
03
04
01
F0
10
02
0C
0A
00
F0
0B
EF
0D
01
F4
11
EF
F2
FF
F2
F3
04
0B
08
FF
0A
11
12
ED
00
02
FC
04
ED
08
06
FF
00
04
F6
F4
0C
FE
FF
F5
FF
10
FC
F6
13
FB
14
FD
0F
EF
11
04
FE
11
FF
10
12
0B
02
EF
03
02
F0
F0
12
F8
FD
02
FB
10
01
F9
F4
FF
0D
F0
EE
FC
FD
08
FB
F0
F1
01
0C
FD
15
12
F9
0B
12
F9
F9
FA
11
0A
FA
FB
F9
FE
ED
F4
03
04
10
F6
EF
F4
0A
FD
FC
ED
FC
00
F8
0B
0E
14
0C
09
0A
09
02
0D
F6
F2
03
F7
EF
07
0A
FA
0B
07
0C
02
05
F4
FF
F2
FE
08
F4
F9
10
F4
12
0B
EF
00
14
F7
FF
00
EF
FE
F0
F1
FF
F2
14
F5
08
04
0A
FF
09
13
07
F3
03
F3
FA
0F
02
EE
0B
03
09
08
0C
F3
FA
F1
04
FC
EE
F7
FB
F9
ED
FC
EF
FF
01
09
FF
F3
F1
FB
09
01
12
06
12
0E
F7
12
F8
0D
0A
FF
01
07
12
F0
13
04
ED
FC
0B
0C
0B
F6
F6
F8
12
0D
F5
F0
09
0D
F3
10
00
FE
03
EE
F0
FE
0A
F0
12
12
02
00
0B
0C
07
FD
10
F8
0C
F8
08
F3
0F
EE
0A
0D
07
EE
02
00
FD
00
EF
0F
FE
F4
00
14
F4
02
FF
FB
FD
EC
F2
FD
0B
FB
FF
02
0E
12
FA
0E
FA
F6
0B
F3
F4
FB
03
0E
ED
0F
00
0B
01
08
07
04
F7
F5
F1
FB
F1
F8
FD
05
08
10
0B
11
F2
F3
F7
07
EE
06
FB
EA
00
FA
04
ED
10
FA
F1
0F
03
0D
02
08
EB
0D
00
04
F5
03
F2
FC
09
EC
08
04
06
04
F5
00
0C
0E
F5
08
05
0C
F4
FF
0E
F2
F8
FB
EE
EF
01
F6
F6
F1
07
11
13
0C
08
03
11
F0
F9
F4
12
01
01
F0
FE
07
FD
F9
01
00
00
FE
F7
F3
F3
00
0E
12
0C
FA
0C
09
12
00
07
F7
FF
F1
FF
03
FA
13
0B
F7
13
0F
13
08
FA
EE
F4
08
12
FB
EC
FD
0C
10
03
FA
EF
07
F4
FD
06
F1
F7
FE
F6
12
13
F4
10
EF
07
F9
F3
FF
EF
F6
10
0E
F8
0D
F3
FA
EC
F3
FD
F2
FC
F8
FE
0B
0A
00
F6
04
11
FF
04
F2
01
F8
F1
EF
F3
F1
FA
0D
0C
F4
F8
14
F1
FD
11
10
07
0C
11
11
F5
FA
FE
F2
F5
FC
FF
F2
ED
02
FD
F2
FB
01
13
F8
FB
0B
EF
01
0F
05
ED
12
07
F4
01
F6
0B
05
0E
05
0B
05
02
EF
F2
02
FD
10
F2
FE
05
08
F0
F3
EF
FA
F3
F0
12
F5
05
FC
0E
00
0E
0F
EF
0B
06
0C
03
0C
F0
F0
F2
0B
FB
03
03
03
F9
FD
06
07
0B
0D
09
13
FA
14
ED
06
06
F1
0E
10
0F
0E
ED
F0
F7
0A
F5
0F
00
11
07
07
F9
05
16
F6
06
F1
05
EF
06
11
06
F2
0C
FB
F4
EB
04
04
0D
14
F0
06
F2
05
06
FC
FE
0D
F5
EF
04
F2
04
11
09
F1
F0
F6
04
0A
04
01
F5
F4
0F
F3
F0
00
0A
F5
0F
06
F3
0D
16
0C
F6
04
F7
11
FB
F6
07
06
03
F9
F3
0B
F1
06
EF
F3
12
11
00
F9
10
F7
07
F7
FA
F7
F7
F2
07
0A
03
F4
06
EE
EB
08
F8
FE
14
06
EF
11
00
F9
F9
08
06
00
F8
0E
0D
07
0E
04
F5
F2
E9
0F
05
06
03
04
F4
0F
04
07
0D
07
08
FC
03
F7
FC
14
F7
03
F5
EB
F1
FA
0A
07
FA
FD
FE
05
F9
07
15
01
EB
FF
F6
02
F9
07
0C
0C
03
F7
09
F9
F6
0A
05
F6
12
09
FD
10
F6
F0
FF
FF
F2
F5
0D
F7
0C
0E
F7
00
04
10
FC
FE
17
F6
07
FC
0B
10
0F
01
08
FA
FB
00
FC
F8
FF
03
01
F2
FF
0D
05
F6
05
FF
FC
06
08
12
0D
0A
05
0C
FC
ED
06
13
F5
08
11
FB
00
F5
F4
FF
0D
0D
FF
0D
F7
10
01
0F
FE
0E
08
EF
FA
FD
F7
0A
06
09
F7
F4
02
0A
0C
12
F8
0B
0A
F9
09
F8
F2
11
FD
F2
FA
F6
F4
FB
0E
F1
FE
00
0E
06
0A
11
FD
01
F1
F4
F7
0C
FC
07
0B
F6
04
F3
11
F6
F6
EF
F4
0B
0F
FC
09
06
F3
0B
F9
03
0C
0A
EE
01
03
14
F2
04
01
F3
EE
02
00
06
0C
FA
0A
F9
F6
02
07
12
0E
0C
F4
0F
F5
0B
0F
0A
09
0F
0E
0F
0D
F8
04
FC
02
06
F2
FE
0F
F5
FD
EE
F0
06
15
0B
EE
EE
0A
EC
06
10
09
F2
EC
14
07
11
FB
F1
FC
F3
FA
EA
09
F3
F3
F3
0C
FE
09
01
06
0F
F1
05
F2
01
F3
09
FC
FB
07
FB
F5
0E
0B
FC
F9
03
04
FA
EE
F2
02
FD
F4
F4
F4
05
00
04
EA
0C
F0
01
FF
04
0C
F1
F5
F7
01
EC
07
F4
10
F8
FF
0C
F1
09
F6
FF
FB
ED
13
06
F5
03
F3
ED
00
EB
09
12
0D
02
13
01
EF
09
FE
F0
06
F5
FD
15
F0
FE
FF
F5
14
01
FC
FD
0A
04
F8
0B
FF
00
03
F3
F1
11
EE
EE
02
0E
FD
00
EF
F1
0A
E9
FB
07
FC
0B
FB
06
00
F3
F9
0C
FD
08
0D
EE
F5
06
FA
03
FD
03
04
04
09
F7
0A
FE
FA
02
0C
FC
10
F0
F6
06
F3
F9
0C
03
08
F8
F8
F5
0B
F8
F6
F1
F3
F0
F3
FE
0D
FC
05
F8
0A
EE
02
09
F6
05
12
0A
FB
EF
11
F2
16
05
11
08
0E
FF
FA
F5
FA
FC
02
F4
15
09
0D
08
F1
F3
02
14
02
F5
F3
ED
12
F0
04
FC
0D
0C
13
FF
05
F8
F9
04
FC
ED
04
0F
03
F0
FD
0A
0D
ED
EB
F4
09
08
0E
FC
F8
F7
F4
FC
0A
04
12
0D
00
0C
F4
EC
01
02
ED
F4
0D
FE
07
FC
02
F0
09
FC
0B
02
F5
F0
13
11
F4
EF
0F
09
09
0C
0A
FB
03
F3
0B
0C
EF
FD
F4
F5
EF
09
03
10
F9
10
F9
FA
FA
F1
00
F2
EC
FD
EB
EE
F2
F7
F3
FF
05
FA
02
06
F9
F9
EE
01
14
FD
FA
EA
0C
F7
F8
F1
09
03
FD
09
F8
07
08
0F
13
F9
0C
FA
03
F1
0B
01
07
16
ED
11
09
07
F8
F2
EF
01
11
F6
F4
05
01
0F
EE
F9
F4
FD
F7
01
F0
F3
08
01
FE
F2
FC
FA
F6
EB
02
F2
EF
FF
F7
0F
FC
FA
00
EA
F0
FC
F9
FD
EC
14
08
FD
0F
F5
F2
0F
08
F9
0D
0A
FF
F7
14
14
0E
FA
04
FB
F8
08
02
F1
0B
F4
02
F9
FA
F0
F9
05
FF
06
05
0E
00
FC
0B
FB
09
0B
15
0D
F4
07
F3
01
FD
FB
03
05
0C
F1
0C
FC
0B
07
02
0E
F6
11
F0
0A
F5
F4
07
00
FE
F1
F7
EE
01
F5
FD
01
09
0F
11
05
EF
F9
10
F2
10
EE
FA
09
03
ED
03
F1
0C
05
FE
14
08
FC
10
FA
F9
F5
12
0B
F8
F2
08
FF
07
EE
FE
06
FE
F6
FA
FE
EC
09
0D
FE
FD
03
F1
04
00
0E
03
EE
0E
0D
07
0E
0D
F5
04
EF
08
01
F4
05
02
F8
07
07
F1
0C
FF
FC
13
E9
0C
F4
FA
F7
07
F0
F6
FE
10
05
EF
06
02
F7
FD
F9
02
08
05
EF
FC
0A
FA
EE
01
0C
11
F2
00
03
00
01
09
00
04
FE
0D
13
FF
FA
F7
12
11
F0
11
02
F9
FC
0F
02
00
F2
EE
F0
EF
F9
00
F3
08
F0
03
01
FE
12
FF
01
08
F3
11
0A
06
00
11
F1
00
05
F7
F3
03
F1
EB
FA
04
07
F0
04
F5
FE
04
FE
01
0B
14
EF
13
FF
F3
08
09
F9
08
0C
F5
01
11
0B
EF
FB
04
09
F0
00
F5
14
FF
F1
F3
0C
13
0F
F1
0C
10
F0
11
FA
FA
02
FA
07
0C
FF
08
07
0E
F0
FD
10
02
10
0A
F9
04
F3
00
03
08
01
FB
0B
FB
04
08
F7
FE
0B
F8
EE
F7
09
F3
00
F9
02
09
09
EF
14
01
08
EB
F1
01
F6
EE
F1
14
04
F1
FC
F5
07
F0
0E
FD
F5
FA
FE
07
EE
14
0D
F4
0A
10
05
FC
07
FD
00
14
02
FB
01
10
FF
FF
F7
FB
FC
0B
09
FB
EF
0F
FB
14
06
06
F4
0D
EE
ED
00
08
01
02
EC
02
F6
F1
F5
04
0C
FB
FE
FD
04
06
10
01
0F
0E
07
FA
0D
0A
F7
F4
07
04
FD
FA
F5
FB
0F
08
FC
F7
E8
ED
02
FB
F3
EC
05
09
00
00
0C
04
08
F0
FB
F8
F1
06
F2
F6
13
0E
EF
ED
09
ED
01
09
F5
13
0F
F7
08
0D
07
F1
07
12
04
0E
06
07
11
07
01
F9
00
FB
F1
F3
F9
F1
FA
F7
0E
FA
08
08
06
00
02
11
0F
F8
FA
00
06
F9
0B
F9
07
FC
F3
15
F8
FF
E7
F7
0F
07
F4
00
08
F6
0C
F1
ED
0B
02
ED
0C
ED
00
F4
02
14
0D
FD
13
0C
13
15
01
F5
EB
0C
FD
EC
0E
02
09
F5
01
F0
07
02
F8
F4
F8
07
13
FB
EC
12
FE
F8
F3
02
04
03
0C
F4
F3
FB
0D
03
EF
0D
03
10
F8
F3
F3
FD
FF
0C
F4
F0
FF
05
FD
FE
02
16
FC
01
14
0C
11
F8
04
12
FD
FD
F4
F5
0E
0A
FC
EE
09
F6
FC
0A
F7
0B
10
F3
EE
11
0D
FD
00
03
EB
11
FF
08
FB
13
07
12
03
02
0B
F6
03
FB
F8
0C
01
F7
0B
02
FC
FF
0D
10
0F
07
0A
09
EE
05
00
F5
FC
08
12
EF
12
F8
00
FF
02
F7
02
F7
0D
EE
F7
0B
01
05
F7
FA
07
FA
00
F1
F1
FA
02
14
F6
10
FC
FD
07
0C
F4
03
F8
0E
02
F2
0E
07
FD
09
F4
02
F8
F7
04
F3
10
F7
FC
0D
F0
0E
0E
F5
12
0B
09
13
FD
13
F9
F3
0D
0E
0E
F0
03
F3
F9
0A
F9
13
FF
0F
03
05
08
04
14
FD
08
FD
0C
02
0A
F9
F0
F5
07
FF
F5
FF
EC
F3
F3
08
F1
0C
EF
01
FE
F2
0E
F0
05
F3
0E
F3
F2
F2
EF
0C
07
15
F9
01
F4
02
0A
F4
0F
0A
0E
FF
07
0D
0E
F9
0D
0A
01
FB
F2
0B
FD
F6
F5
F1
03
03
FC
0C
0F
0D
FE
F7
FC
14
EF
FE
05
F7
EF
11
EC
FD
17
01
FC
F3
F1
FF
FD
09
F2
F9
ED
F1
EF
F3
02
EC
F4
F7
FF
FD
FA
12
F6
00
11
0B
EE
14
F1
08
FF
FB
F1
F2
09
06
FB
0C
06
07
11
05
09
0B
06
00
05
00
FC
EF
03
0B
05
02
06
0D
08
0C
F4
EE
01
FA
0E
FE
FD
F1
04
05
F8
F0
04
F2
01
08
03
F8
11
F5
0B
08
F7
0F
10
02
EE
0C
0F
F1
00
00
0E
15
03
FD
12
F6
F8
06
FA
F7
01
F6
08
12
FB
11
0D
F7
0D
06
0D
FE
12
03
11
F1
06
F4
10
00
EF
10
13
FE
12
13
FB
04
02
0D
11
F9
EF
09
10
F6
05
10
08
F1
F6
F9
F5
F7
FD
FA
13
FC
EC
04
EF
01
F6
EF
FD
09
FD
ED
F2
04
12
F6
12
F3
0D
05
EF
03
13
F5
0C
EE
07
F2
0B
0F
12
03
F0
F9
0A
FE
05
EC
FE
08
05
FE
10
00
0A
0A
EE
EE
F6
EF
FD
F7
13
11
F1
F9
FE
F3
F9
F5
01
0F
0C
F3
F4
0D
F1
F4
0D
13
05
FC
F3
FE
FF
02
F5
FB
12
0A
04
0F
04
09
FB
F1
FD
F8
09
04
11
0D
03
00
F7
06
FC
F2
0D
F1
F5
F7
03
FB
F7
FF
FF
00
06
EA
FE
FF
EE
F1
06
04
FA
F8
09
0E
FB
13
F1
18
02
FA
00
EC
F0
14
10
16
FD
04
0D
FC
FE
13
02
F3
FC
03
02
EC
11
ED
10
FB
06
0F
F3
F2
F4
0B
05
F4
FF
01
F1
FE
08
FD
14
0B
07
01
11
F8
01
FB
07
16
FC
05
02
EE
F5
F6
09
F4
F0
F2
09
F6
ED
FC
01
03
EF
04
F1
0E
05
10
0D
EC
F6
ED
FA
F6
07
F9
11
F9
ED
F6
13
F7
08
15
F0
0B
00
0B
EE
0A
08
ED
06
F2
13
FA
F8
FE
F8
FC
F0
04
0D
F9
13
F7
F1
10
0D
03
F2
0C
F0
08
01
FB
F1
14
01
07
F3
04
EC
F7
0B
EC
EF
F2
FE
00
16
02
03
EE
07
16
0D
FF
0E
01
07
12
01
12
00
F1
FC
FB
EE
04
05
FB
F8
FC
FA
FB
0D
08
F0
08
01
F6
F9
FA
00
0F
F2
EF
0E
FE
FC
02
F2
05
04
F5
F1
FA
FE
FF
F3
13
EF
F6
02
FD
FA
F0
FA
FF
0E
02
F7
0B
FF
F2
FD
F3
F8
F6
F7
0E
0B
10
02
14
F1
0B
0F
09
12
FE
F1
07
09
EF
FE
F7
FA
FD
FD
F4
03
F6
12
09
F8
FA
FA
0E
FB
12
02
13
11
F1
0C
07
FC
02
FD
07
FB
FA
EE
F9
10
F8
09
FC
05
05
F4
F5
F2
06
F7
01
FB
F5
07
F2
07
F3
0A
EF
F3
0B
EB
01
04
F4
FF
04
06
F5
12
05
10
FC
ED
F2
07
ED
06
06
0E
10
0A
F7
0F
12
03
0A
0D
02
15
0C
15
FB
0E
FF
FB
10
F2
03
FE
F9
EF
12
0C
01
0D
08
F3
07
F1
0C
FB
F4
EC
F9
FA
10
03
F4
EC
01
05
14
FB
F6
12
FA
04
F2
F6
0E
05
FA
F6
FC
FE
FB
14
07
EF
08
F0
02
F7
02
0A
04
0E
FB
F3
FF
08
FC
03
12
14
09
F0
FE
01
F6
11
02
FA
F2
03
05
08
0E
11
EF
09
F3
11
F5
F2
FC
F7
0F
EF
FB
FF
08
13
F8
F3
01
0D
11
08
10
0F
0D
FC
00
F4
0F
F0
FD
11
00
03
02
F1
F9
07
13
12
F4
10
EF
11
0E
0D
F3
11
EF
F1
05
12
0E
06
10
02
0C
F6
05
FF
F9
F1
EE
11
02
11
EC
F7
06
13
F2
FA
0F
F0
08
15
FB
06
EE
F1
0B
F5
F1
F4
03
0C
09
ED
06
F9
F1
ED
FD
09
12
F3
FB
04
0B
06
0D
01
EF
0C
0C
00
04
F8
17
F8
07
01
15
13
FC
0B
11
FB
F6
F0
09
FC
F0
0E
FE
F6
FF
06
F4
F8
FC
0A
FB
F0
F3
01
F2
03
0E
F1
12
F5
EE
0A
11
08
06
0D
0F
05
FA
F9
09
10
05
17
F4
13
F1
F6
F2
14
0F
F5
02
03
0F
11
05
04
0B
F7
0D
FF
09
11
FB
F6
16
0B
F2
FD
F0
EF
05
F2
FC
F0
F4
F8
FE
11
08
06
12
F9
F3
FD
13
FD
0E
05
F1
10
F5
FC
09
10
08
F4
FC
0A
F2
07
06
00
F4
03
EC
0C
F6
09
EC
0D
FE
0B
FD
FB
06
01
F6
02
02
04
0A
15
F1
F6
0A
F9
00
F3
05
14
F2
08
08
00
04
04
F6
F9
EC
02
0E
10
F0
04
FE
0D
0F
FC
EE
EF
F4
F7
F4
11
FD
0B
F9
07
05
FC
0F
F8
0B
F9
04
F6
FB
03
0D
FF
FA
12
F6
FD
0A
FB
12
0D
08
FC
04
0C
F3
09
09
10
08
F6
F9
F4
0C
05
0E
03
05
FD
FC
FB
F2
02
F9
13
04
F8
0D
0A
F0
EF
14
03
06
00
FF
0C
EC
07
F6
12
FD
0E
02
0B
0B
F3
0A
00
02
FD
FE
0E
05
05
FE
14
00
0F
02
0A
F6
03
FE
F8
08
10
0A
10
F3
0F
0D
F9
F4
F9
F0
F5
F4
0F
10
0D
0B
F6
F6
06
F9
0C
0B
0D
F4
03
EB
FC
00
0B
0D
0A
EA
ED
F8
0A
0F
0B
0D
10
F7
01
FD
F0
FF
FF
F2
0D
09
F5
F2
F8
15
FE
03
09
03
F4
FD
09
F2
ED
FE
EE
FB
01
FC
F7
F6
F6
0C
01
09
EC
02
F4
F3
EF
F1
00
0B
12
07
FE
F4
EF
0D
06
FC
E8
EF
14
0D
EF
12
F8
FA
0B
01
F2
04
05
0F
F0
13
10
0F
FE
ED
F2
F8
0C
11
06
07
07
06
F2
02
0B
EE
F9
EC
0D
00
00
11
FC
03
EB
F4
F7
FD
03
0A
0E
06
FA
F8
FF
F9
FB
11
06
00
F6
13
F5
04
0B
00
0A
F4
02
F1
F0
05
EB
FC
FF
F3
0C
F5
EF
FA
01
0E
08
FA
0D
0A
0E
F5
07
F6
FA
F8
0E
0B
0B
F1
F2
0C
0D
03
FA
12
F3
11
10
06
09
FE
04
0A
F8
FE
FE
EB
FE
00
FF
0D
06
0D
0F
FF
02
0E
F8
EF
FE
00
0B
EF
11
03
F5
0E
08
11
09
08
0C
0C
F8
05
FE
0E
FF
13
09
F9
00
EC
F3
05
11
0A
0F
01
FB
02
00
FE
FF
0B
FC
FF
F6
11
0C
02
01
F9
ED
F3
EF
F5
F3
ED
F0
F3
FB
00
FB
02
F0
0C
F6
08
11
01
14
F0
F3
09
FB
03
0D
F6
0C
F3
EC
17
13
09
F7
F8
F3
F2
F5
02
12
0E
09
07
13
FF
13
0F
0E
EB
FD
FF
F5
05
01
F8
10
10
0B
0B
11
0B
06
0A
0F
FF
F9
07
EF
EC
EC
F7
0D
F8
0B
05
F6
F2
10
EF
EA
FC
F5
09
10
08
0D
03
0B
08
F3
FA
01
01
F8
EF
0E
06
F8
15
FD
EF
03
0F
07
0B
15
10
06
F4
0A
08
13
06
11
F1
04
01
FE
07
F0
0A
0A
07
F1
FB
F1
EC
FF
02
F1
EC
15
F9
01
0B
07
04
F2
06
07
02
FD
0C
04
F4
0F
05
F1
F4
0B
03
FB
ED
FC
00
FF
06
02
0A
EF
09
F5
F4
FC
FA
06
FC
0E
F6
00
F3
FF
05
0C
F9
02
F1
EF
0C
0B
0C
12
00
FC
F4
F1
EF
00
0F
11
11
0E
0B
10
EE
0B
E9
0C
0F
0E
13
05
ED
F5
15
FE
06
0F
FD
00
01
0B
0A
F5
F0
02
0E
0E
10
04
07
F4
0B
FF
ED
F5
00
03
F0
0E
0E
06
F5
0F
F2
F0
F6
F4
0B
EE
0D
14
F2
FF
F4
F7
F2
FD
F8
F6
F3
11
F9
F0
13
17
11
0F
F5
EE
FD
FC
FD
04
F8
06
F4
F8
0D
02
F2
00
F5
0C
FB
EB
F1
0A
01
F4
00
04
F5
0F
01
06
F1
F6
11
ED
F3
01
02
FD
02
00
0C
EC
0E
F7
EC
F4
0A
FE
F3
0A
14
EA
14
10
F0
F1
04
12
F4
FC
FF
08
F3
F7
0E
02
0F
03
F6
03
0D
06
0B
04
ED
0B
0D
FC
F1
0A
F4
F9
F9
0A
ED
12
06
0A
00
FC
FD
01
F3
EF
F1
09
F8
FA
F2
F4
EC
EF
F0
0C
F6
17
ED
F6
FC
F0
F5
01
01
0E
FA
02
F7
FF
FA
F2
03
F9
0C
0F
FD
EE
F3
F8
08
12
04
00
0A
F4
0F
09
0D
01
00
07
F6
05
0D
FD
EE
12
F4
F1
F5
01
04
09
10
EF
0A
FD
00
F9
EC
F7
0A
F6
FC
0B
10
FA
01
06
FE
07
F5
EC
FD
FA
00
0E
F6
05
FC
0E
EF
F8
F1
0B
EF
ED
F6
ED
ED
F5
F3
FD
08
F7
03
0D
EF
0E
EC
F7
0C
01
EF
09
0E
0A
00
06
F0
0D
F0
11
0B
FE
09
FA
01
F2
F3
13
F4
FB
F5
F4
F3
0C
0A
F9
0A
F0
F3
09
FD
01
04
06
FE
00
13
F7
FE
0C
09
ED
04
F9
12
F6
00
08
F8
00
EE
0C
09
04
EB
EE
00
F6
0B
F0
FC
04
F9
13
07
FC
FB
07
09
F8
F0
F6
F0
FC
04
F1
F9
00
0E
0A
F2
0F
0A
06
14
0E
10
F8
F4
F8
F0
0A
F1
10
F6
13
EE
10
EB
0E
0C
F1
0A
FD
0B
F0
FB
F1
07
F5
FB
0A
09
F3
12
0C
F3
02
04
F4
FD
EB
04
F0
EE
FA
08
12
F4
FC
0F
FE
00
03
F7
EF
06
FC
FA
08
08
FD
F2
F5
F4
05
09
0C
F7
0C
00
08
12
03
11
09
11
0F
0F
F9
FC
03
08
F1
03
0B
0F
0E
0E
0F
FF
03
06
10
FA
F3
E9
0A
06
F9
15
0A
F8
F7
F2
0F
14
05
0C
F4
EE
06
ED
F4
F6
12
F6
F7
0E
F3
0A
F7
FA
0E
12
05
F9
0A
F0
FC
FB
02
F7
0A
04
FE
0D
F5
14
FE
07
F5
F5
F8
15
F8
07
00
08
FF
EA
0B
F9
F7
10
13
F6
F3
FF
F5
EB
0C
FB
0F
F4
0C
0C
04
09
EF
02
FF
0B
05
F6
11
08
FF
0C
03
0C
FE
01
F9
FB
F6
08
ED
15
EB
F1
F8
FC
0D
11
07
FA
01
FA
01
ED
F8
0D
0F
FE
0C
10
F8
06
0C
10
08
EF
0D
F0
FB
FC
02
03
0F
06
0A
11
F9
F0
01
07
08
FA
F6
05
02
EF
0A
06
F5
0A
08
F2
EE
F5
EF
F1
09
08
FB
F4
0D
EE
0A
02
F4
F3
0E
05
10
FD
04
12
09
EE
10
0A
F3
04
F1
EE
09
F4
FF
06
01
0C
F5
F0
0F
03
F0
0D
0A
F4
13
F8
0E
0E
06
F3
FC
F4
F3
0F
F4
FE
F6
01
0C
F6
F8
11
F1
0F
07
13
10
FE
F3
10
FE
06
F3
F1
0D
02
F0
F7
0B
03
F7
10
08
EE
F5
12
FB
F7
EB
12
06
05
02
0F
FC
F5
02
11
03
0D
0C
EF
FB
09
EF
11
00
0D
0C
09
ED
10
FA
0B
0C
04
11
09
F5
F9
FF
10
04
F5
EE
F0
01
04
14
09
00
FA
EB
03
F4
0A
F9
02
08
EE
F9
F1
EF
FC
06
EF
FE
08
FB
11
0B
FB
F7
0B
10
EE
FD
05
F7
F7
FA
11
11
F5
0E
11
F3
06
13
EE
04
12
19
05
01
F8
F7
F0
13
F2
FB
F7
05
ED
05
00
F4
FF
02
F6
11
00
14
FB
09
0B
04
0F
FE
FF
F7
F7
11
03
0C
10
03
0A
F5
F1
EB
FF
08
04
F8
F3
07
F7
07
F6
F7
F7
0A
F2
05
07
FC
0A
EF
09
FD
F5
03
0E
0E
E9
12
00
FA
10
12
F4
08
F6
04
0B
0B
0C
03
15
FF
FB
10
17
F0
12
FC
ED
F8
01
03
10
E8
10
03
FA
EC
F8
00
FE
FC
F9
09
FA
FB
F3
FA
FF
F6
0D
FF
05
0E
11
10
FD
FB
09
06
08
F9
0F
04
13
09
FE
FA
FF
0B
FF
09
ED
ED
EF
F8
07
F4
0F
FE
EE
F6
14
FD
FD
0D
F3
F5
0B
0A
F4
05
00
FD
0B
FB
F1
01
18
FE
F9
EC
F1
ED
16
01
0E
F2
0A
0E
F1
02
EF
FB
FD
0B
FD
0F
FA
04
0E
F6
EF
F9
04
F5
07
F8
0A
FD
EF
F9
04
F9
0C
F2
11
F0
03
EA
EF
FD
F3
F2
FE
0B
FE
FB
04
EE
15
FC
02
F2
0C
0E
F2
0C
FD
F2
12
FA
06
EC
F6
FD
0B
02
F2
0A
08
08
F5
07
07
EC
EE
0A
EE
FB
FE
12
13
07
FE
03
0C
F0
F1
06
EB
F2
FA
F5
EE
FB
11
0D
05
FC
F3
10
0C
0F
01
F6
0A
FC
EB
0B
0E
F6
06
0B
0D
01
FC
03
0C
13
F2
F6
FB
13
F7
07
0E
EA
06
F4
ED
06
F9
03
03
09
F3
0C
06
06
F7
11
05
10
FE
07
05
0D
12
08
09
12
FB
12
EE
F8
FF
F4
ED
FE
F9
F4
01
F7
06
05
F4
FF
08
FE
F7
04
F6
0B
0D
FC
F0
03
04
06
F6
FE
FF
F3
00
14
E9
12
EA
11
02
10
F7
0D
0A
FC
07
06
05
F0
F9
F6
F8
0A
F8
0C
0D
FD
06
EF
09
0C
F0
FD
F8
FA
10
F7
04
F6
13
09
0F
00
12
F0
01
0A
F6
09
13
09
0C
FF
06
FF
0A
02
F8
10
16
FD
0E
11
0F
01
0F
10
FB
18
F5
0D
FB
0E
F3
16
F5
F7
0B
14
0E
EC
0A
0D
04
0B
05
03
FB
EF
F9
F8
EE
FE
ED
F0
0D
FE
F4
05
FC
00
F0
12
F6
08
09
05
F0
12
F0
F1
10
F9
FE
E9
0C
07
F2
03
FB
EE
FB
11
F3
01
F2
F7
0E
00
FA
11
0F
09
F4
EC
06
F8
F7
F2
12
08
FB
07
01
FB
05
0A
10
FB
FB
02
FA
EF
FA
F1
14
0C
00
0B
FD
00
F3
0D
02
01
F4
09
FB
F2
FF
0B
FE
0B
08
06
08
EC
F3
02
ED
11
F2
07
F9
FD
0A
07
F0
05
0D
FB
EF
ED
0C
0A
0B
06
15
FE
12
FC
02
F5
F8
F8
06
00
FE
FC
00
00
0F
FC
10
FE
07
15
03
EC
F7
FB
10
F4
0D
06
05
00
FF
0D
FF
FC
0E
09
0A
FB
0D
0A
FF
FF
FB
EF
F0
03
04
01
F2
F1
07
0D
F0
F8
07
F8
EC
F3
01
F6
10
0F
10
01
04
F4
12
03
08
18
09
EB
0B
0A
F9
11
F3
EC
0C
11
F3
F2
03
FF
0B
04
F2
10
07
0B
F3
F6
EF
FB
F6
0C
FD
F8
13
F7
F0
0B
ED
EA
EF
F6
08
F5
F5
02
F3
FD
0A
FE
06
0A
F3
0A
05
FE
0B
EF
10
0A
0D
FC
13
FD
ED
03
FA
08
0C
F2
FF
01
06
0C
F1
0D
0A
EB
F7
F5
09
FE
02
F2
0A
FC
0B
06
02
ED
0F
0A
F5
0C
F1
03
09
F5
02
0C
FC
F9
FE
01
04
F3
00
09
09
0B
F4
F4
00
00
F1
F2
FF
FF
FB
01
08
05
F0
09
FA
F9
FC
05
EA
F4
00
FC
F8
FE
FE
FE
00
0E
F1
EE
FE
14
07
10
F3
12
EE
0D
11
07
09
02
F3
F9
FB
EF
05
00
0F
0C
10
05
0B
FB
0D
09
FF
03
F3
F3
EE
FF
F0
FE
F1
ED
11
F5
F1
F9
F5
F8
EF
00
F9
12
05
04
F5
F8
13
FB
11
12
F7
FC
0D
F6
EA
F1
00
04
F6
10
08
02
01
F8
EA
F2
FE
FA
F6
11
11
14
EA
0B
FB
FC
0B
FD
F8
FB
10
09
FC
EE
F4
FD
00
11
10
0B
FD
04
F7
ED
0C
EF
07
F6
FF
F6
15
FA
FD
F4
FF
07
FA
02
EF
F5
06
13
F2
F5
F7
00
08
05
10
FA
05
0B
F4
F4
07
13
0F
0E
0E
00
03
13
F7
05
F2
00
FD
0E
FA
FD
FB
EF
0E
FE
0A
0F
03
EF
F9
FB
FB
F2
12
0C
0A
11
03
00
F2
12
F1
FC
0D
F3
F9
F5
F9
F9
02
FE
0C
0A
02
13
F6
F8
08
03
0A
08
06
0D
03
05
05
02
0F
EF
0E
09
0E
03
EE
0C
03
F0
F5
0C
03
11
03
0F
F5
0A
05
F4
0A
02
10
F1
FB
0F
0B
05
01
0D
00
0B
0B
00
0F
F3
F9
12
EE
FD
03
04
FC
0A
0C
02
0B
FF
0C
F8
F3
F2
F1
0C
F0
02
09
F1
ED
05
F7
F8
12
06
F0
FA
F3
F1
FE
0D
0C
EF
F9
06
13
0F
05
F9
08
ED
F0
F4
F3
FF
F9
F7
F6
FA
F1
11
F8
03
10
FF
02
F1
06
F8
0E
F4
04
F7
11
0A
F4
0F
FB
EF
09
0B
07
FF
09
F5
F0
13
FA
0B
F9
EF
05
FE
11
EF
EC
00
0E
FA
F8
FA
04
0D
10
EE
EF
08
FF
FA
F2
F8
11
04
06
FD
FF
F7
05
FC
EF
FD
F9
EF
FD
04
EB
F0
12
13
FF
07
F7
F2
0A
EF
01
F9
F9
F6
F8
F9
15
08
0A
FE
0A
EF
0F
F2
FA
0A
0C
04
FC
FC
EF
00
11
FC
FA
0A
02
F0
F4
07
FF
F5
FF
0D
F5
10
FE
EF
F8
F4
02
EB
0E
0E
F5
FA
03
F2
F4
0D
F7
05
FA
04
F0
ED
07
12
F3
F7
12
08
07
01
06
17
F6
0B
04
01
00
EF
F3
0D
F7
F4
F8
FF
F5
13
02
0A
10
08
F1
09
10
FE
FE
F8
09
04
01
F0
08
F2
F2
02
12
15
0C
08
F2
0F
0A
E7
F4
02
FD
FC
02
F9
0A
08
FA
F6
0B
11
FB
F3
F7
05
FE
09
0F
F0
0B
F0
F8
03
05
04
00
F5
05
02
F1
FF
0F
03
F2
F7
09
14
0C
F0
10
FE
0C
FF
0B
F1
F3
0C
13
EF
10
F0
12
06
EE
FA
05
F9
05
F1
06
F8
F3
0F
08
EF
F5
0F
07
F2
11
04
0E
FB
FE
F8
F2
FE
F6
0A
0C
EB
FE
F1
13
04
F0
EC
03
F5
FA
F4
08
05
05
02
F5
0C
0D
0E
0D
FB
06
EF
EF
EE
FD
0C
05
F6
09
F9
F6
0C
13
F5
10
02
F8
0E
09
F0
0E
0A
F1
F1
08
16
F4
08
06
0D
F6
F8
10
FF
0B
FA
04
06
F2
0A
F2
05
FE
09
F2
F0
08
F5
F3
11
F1
0F
FC
ED
0F
F4
F8
07
04
0C
0C
00
06
0D
09
0F
10
EA
13
ED
EC
F8
15
12
09
F0
0D
04
0E
06
0F
F9
0D
F8
0E
0B
08
01
FC
00
F9
00
FD
12
09
02
05
12
02
0D
FB
0B
FC
F8
0A
13
F5
FC
05
FF
04
FB
F6
00
F1
0C
06
0D
0D
FE
11
02
10
15
06
08
0A
10
02
F0
11
FF
04
ED
05
05
06
FF
00
FE
06
11
04
F4
03
F9
00
0E
F4
15
0B
ED
F7
0A
08
0C
03
09
0B
02
0A
FB
F0
01
0C
10
01
FD
07
EE
10
0D
EF
FA
EF
FC
03
F5
F9
0E
0A
EE
FD
F3
FC
01
F6
11
0E
F4
10
EB
F4
F5
0C
08
16
F0
08
00
FB
0A
F7
FE
0B
FA
FF
FF
0B
07
03
F2
15
13
0B
08
0C
EE
F9
EF
11
14
F5
06
03
FC
0D
00
FB
14
F0
FB
14
0B
F8
F1
08
F3
FE
FB
0F
0A
07
F1
EE
08
F5
F1
F7
FC
01
FA
F5
05
07
F9
F5
03
0F
01
05
F2
F1
10
F8
0A
02
F5
0B
11
F5
11
05
0A
EF
01
07
FF
FA
0A
0F
00
F4
10
07
EE
F2
14
F3
F9
F8
FE
07
F0
0D
FA
F2
0E
FE
0F
0F
F1
06
F0
FD
F0
FC
FE
F4
FE
E8
F9
ED
F2
09
0C
02
06
F5
FB
F8
F3
11
03
FE
F3
0F
F4
FD
F2
0C
F6
F4
F4
15
F3
07
14
07
09
F4
0C
07
F6
03
FB
0A
0D
FC
EF
FD
EE
00
F4
0B
F5
FB
0B
F6
07
F8
F2
F7
FE
F3
0B
F5
F4
0F
00
FE
FF
0C
EE
13
F1
F9
10
F1
02
FF
EF
03
FE
ED
0E
14
10
0C
F5
F8
F2
0D
F5
0A
F0
08
04
FE
F5
FF
FB
10
0B
07
0B
FA
F7
F6
09
11
ED
00
F7
FA
0A
06
F3
01
07
F1
F5
11
10
05
06
0E
FF
02
FE
10
0E
F3
0E
F9
13
0B
EB
FE
FE
08
FD
06
0F
EC
14
F5
EC
14
05
0B
01
F6
09
0D
11
F5
FE
FE
FE
0D
06
F8
FE
EE
15
EE
07
F0
02
F8
03
0E
FE
FB
ED
FA
EF
F1
07
11
12
F8
F0
F8
F5
10
03
FD
FC
F4
0B
12
F2
F1
13
F8
12
00
EE
F0
FB
0D
FE
F4
F5
F5
ED
F6
02
0E
03
F2
FE
EE
EF
13
09
EF
FE
F2
F4
F7
FE
F9
FE
13
F0
F6
EE
F3
0D
F3
0E
0E
F5
FD
01
0F
00
02
FC
F9
13
F3
F2
FF
13
0A
13
13
07
07
12
FE
10
F3
01
0B
02
F4
0B
F3
13
00
12
0B
F8
03
0F
02
F9
EE
F4
F9
08
FF
F5
ED
05
F8
F0
08
08
10
0E
0D
F8
02
11
FE
F9
08
11
12
FC
EE
F4
F3
0E
FC
09
FF
02
07
F7
14
00
0D
00
05
0B
F0
09
10
F0
03
F8
F7
FB
FF
EE
00
08
FF
0B
13
EE
05
0F
13
EE
FE
FE
05
F0
11
FD
FF
EA
FF
08
F2
F4
F5
0A
04
F9
13
FF
10
F4
F1
0B
0C
F4
11
12
FE
0C
06
EE
F8
EF
FE
FD
12
08
EE
EE
EE
12
12
04
F5
0C
07
F7
EF
0D
0B
F5
F9
EE
FA
F8
F2
03
09
FE
11
F7
EC
FD
FA
F6
0C
15
00
06
ED
ED
09
0C
09
FE
00
F5
0C
0B
F6
FE
0F
F6
F9
F3
00
02
EF
FE
F8
0E
EE
FA
F3
03
01
F4
11
FA
F9
06
F5
FF
F5
08
00
12
0A
0C
F0
F7
0D
11
FF
F7
FA
F8
0B
11
EE
02
0C
FB
11
0D
01
FA
EC
07
FB
01
0C
04
F8
03
FC
00
F2
04
03
00
00
0E
FF
02
00
03
03
F5
FF
13
FB
00
F5
FA
FE
EE
EE
0F
F8
11
FD
F8
01
01
F3
0F
03
0C
0D
EE
F5
EE
04
07
F9
10
03
F7
F4
FC
FB
FD
02
ED
F4
0A
11
0D
04
0D
05
00
10
0F
00
ED
08
EC
F2
FD
FD
F9
F5
F7
FC
0A
0A
FD
0B
05
F8
F2
FA
F5
F9
10
01
07
14
F4
04
FD
11
F6
0F
0F
03
F3
08
FD
12
07
00
EF
01
EE
05
FB
03
05
14
05
F8
F9
12
EE
07
08
FB
0F
05
F6
01
FD
F4
F0
0D
11
FB
09
0A
F2
04
FA
0D
0A
FC
F5
00
F2
FD
FD
F2
FE
02
FC
F8
F6
FC
02
FB
0D
12
12
04
F6
F5
FC
07
EF
03
F3
FA
01
0D
08
0B
00
F7
0B
0F
01
FF
01
0F
F4
10
14
F4
FF
ED
F8
09
0E
00
0C
11
08
04
FC
11
FD
11
01
FB
01
EE
EF
F3
08
FC
04
0B
F7
14
FD
F6
FD
0D
0C
0B
11
10
11
EC
EC
F9
0D
06
F4
0F
0C
F8
F7
FE
FE
FD
02
F0
12
0B
05
FB
06
13
FB
FD
EE
12
09
F1
FF
07
F3
06
00
FC
0D
07
F8
EB
0A
12
F8
0D
F6
FB
0D
0F
08
F7
F3
10
F9
FA
0B
0D
F6
FF
13
13
F3
F6
FD
F5
F6
0A
F4
F8
EC
01
FE
10
FA
13
09
09
F7
03
07
00
F9
F4
07
07
F9
EC
F0
F2
03
0D
FC
03
0C
FE
03
FE
12
F9
04
00
F7
F7
06
0D
11
01
EE
ED
08
EF
F6
0B
0F
0D
EE
F3
FA
FB
11
03
F7
ED
FF
EF
0E
10
F7
FD
03
F9
FD
05
00
0D
F5
10
00
F3
FF
FA
0A
EE
F5
11
F7
FD
02
F3
10
F5
12
03
11
FF
0C
F6
FE
FB
12
05
15
0B
0E
FF
F0
F1
07
EE
0C
F4
F2
0A
FB
FE
03
FB
FC
08
FD
07
14
0C
FA
F3
13
FD
06
F7
F3
0C
F5
13
04
0E
12
EF
F7
EC
09
13
0F
F6
04
FC
EF
04
F0
F4
F1
F7
F7
F7
0F
0B
03
07
FE
F9
FA
FF
FC
06
FD
EE
0C
FE
FE
EE
0A
06
FE
FF
F7
11
FE
FD
FE
12
F3
05
EF
0F
10
0D
00
FC
F6
13
EE
FE
0A
F8
0D
F2
F7
FD
12
10
F4
F5
ED
FD
F8
F8
F6
F2
F3
F3
F6
0A
EC
FA
11
03
04
FA
FF
ED
07
08
FF
F9
FA
15
EE
EF
08
03
FE
FC
EC
FE
ED
EF
FC
FB
09
0E
F9
EF
FC
F3
F1
05
09
15
09
FF
F9
F3
F1
0E
00
F9
EF
04
10
00
07
F0
F9
0D
FC
F7
0A
10
08
F0
10
0B
F6
0F
F3
0C
0F
EE
10
0D
ED
F4
F0
0C
11
FB
FA
0D
17
10
FF
05
F2
13
F5
08
F8
FE
FD
11
EF
03
F9
E8
0B
F5
F7
F9
11
EF
EE
FB
F9
F4
10
F8
03
08
EF
EF
12
02
04
05
FB
0A
01
F6
0B
F1
08
01
FD
F5
0E
F3
F1
F4
FD
04
FA
0E
02
F9
FE
0B
00
07
15
FF
FA
0D
0B
0F
FE
0D
06
06
08
FF
12
FD
EE
03
F5
0C
04
FE
EF
F9
07
ED
08
0A
0A
F9
FB
F7
0B
02
0A
FB
01
F9
03
04
FF
06
F4
FB
F0
FD
F4
09
00
F0
F8
F2
0A
0F
EF
F4
F6
FE
08
F6
07
01
01
0B
F6
0E
FC
14
11
EC
FC
FC
F2
FD
07
FA
05
0F
0B
F1
FE
0C
03
12
00
F3
F9
08
F6
14
0C
F8
F9
04
EE
EE
09
02
10
F6
F8
12
02
F8
F4
0E
FF
10
01
F6
F5
FA
00
02
01
EE
F3
F2
FE
06
F5
00
0D
05
0B
F6
0C
FB
04
05
F4
0C
08
07
F1
EF
08
06
08
06
0B
11
02
EC
F7
12
F5
FE
01
09
01
FC
FC
F4
0A
04
F9
FF
0D
F9
01
FA
EF
0E
02
F7
12
10
FE
F0
F6
F0
F8
05
03
11
04
F8
0E
F2
F8
05
F5
FA
07
08
13
F4
FC
02
0B
0E
F8
05
01
07
F7
F1
FD
0B
06
FA
0F
07
0F
14
0C
05
0B
ED
F3
02
FD
EF
06
F2
0A
EE
FB
0C
06
F2
00
04
04
0C
00
FC
03
04
ED
FC
0F
F4
11
EF
F3
F4
02
FE
13
10
F9
16
FD
FC
FB
F9
11
08
FB
F4
F9
10
F4
00
F7
04
FF
0F
F2
EE
F6
ED
F9
FB
05
FE
0E
F0
FE
F9
0B
05
EE
FE
06
F7
02
F4
0D
FF
00
08
12
ED
FD
F7
04
03
11
05
08
05
14
F8
0A
EF
0E
04
0C
06
07
02
F5
F8
0C
02
FC
00
F9
00
07
0D
F9
EF
04
07
00
0C
0C
00
F8
10
0A
11
F7
09
03
F5
12
F4
F0
04
F9
05
F0
F6
F0
0E
0B
EC
F5
F6
FC
08
F3
00
F0
03
07
FF
EF
EF
03
05
00
05
FA
FB
F9
0A
13
03
10
0A
09
0C
F0
F0
10
0D
03
0F
0F
EB
EF
0D
EC
0A
EE
0E
F5
F1
0C
11
F5
F8
FB
F1
F5
FE
F6
01
0C
01
0A
04
03
06
FC
FF
F4
F7
07
F9
03
0B
06
01
F7
08
0B
0E
12
0B
F8
F3
F7
0F
EE
03
FF
FA
03
06
FE
11
FF
11
F9
F0
0B
13
ED
0B
05
10
0A
F1
FC
EE
F0
F4
0F
F6
F2
13
FB
F1
FA
F8
F6
10
0B
09
F4
FD
F5
EE
FD
04
07
EC
17
F7
13
0F
0A
FE
13
00
09
FC
F8
0B
F2
F7
07
F8
F6
FD
FB
08
09
FE
EE
FB
0A
FC
F0
F0
F6
0D
F1
F4
09
0A
F9
0B
FD
0B
EE
11
0D
F6
F0
09
FD
FB
01
06
F0
0F
0C
06
F3
09
FD
F9
14
0C
FF
F2
FC
0B
F5
09
F6
0A
FD
01
EB
0C
EB
07
0F
EF
0A
00
F8
FD
04
07
0B
00
00
EC
01
07
01
F7
00
FC
07
FF
13
12
0E
07
F3
00
01
0F
0A
EF
FD
00
F5
02
EF
F3
10
0B
FE
13
06
13
0A
14
12
04
ED
FF
07
FA
03
EB
FE
FC
EC
0B
F2
F1
FB
10
0A
FC
F3
01
F5
08
0D
ED
10
E9
0C
EE
00
0F
F5
F1
06
11
EF
F9
0C
09
01
0D
F5
04
11
FD
EF
01
F0
FD
EC
0C
0B
FC
FF
E9
FF
F2
F5
F9
FA
0A
F4
FD
04
EF
EF
F4
F7
00
10
F8
FB
05
ED
06
F6
05
F7
ED
00
02
00
EF
09
F9
10
FF
F1
FA
04
09
F2
F2
FB
10
F9
EF
FF
0D
F6
F6
F5
F1
15
F8
EF
0F
F3
0D
12
0D
F2
0D
02
FB
11
ED
FA
07
05
EB
0C
F2
FF
17
00
02
0E
01
EC
EE
13
F4
F6
F2
0C
02
F3
01
F2
0A
F7
00
10
F4
11
FC
0B
10
0E
07
02
0F
06
06
0D
08
ED
F6
F8
06
FC
04
EE
0C
01
FA
FC
04
0D
EF
0A
F8
0C
12
EF
0C
FB
F7
FB
F8
11
F4
F5
0C
ED
EC
F9
00
0E
EF
FA
00
02
00
05
12
12
02
F9
FC
0D
FD
09
05
09
F7
0D
FA
07
07
09
0E
08
03
F8
FF
08
19
F3
F1
F1
03
F1
F3
F3
F8
EF
FE
0E
F3
F4
F8
0B
F5
0C
EE
03
04
0B
F6
F8
0F
FF
F4
F3
FC
08
F7
11
13
01
F1
FC
F9
F0
08
06
04
FE
11
F4
F4
0A
F2
05
01
05
03
08
12
FC
F0
09
EF
13
10
F9
10
FB
FD
08
02
06
09
FB
0A
F8
00
EB
08
F2
05
F3
12
09
00
F6
F1
EF
0E
0C
12
F3
F7
07
F4
02
0A
09
EE
08
F7
01
0D
05
F5
F6
02
FB
F6
F1
0F
F1
F9
06
02
FA
F8
0C
02
05
F0
0B
0C
FB
0C
F1
EE
05
00
FE
00
07
F4
11
FE
F2
03
F5
FD
0C
0C
F5
F2
F7
0D
FD
07
F4
0A
02
00
F1
FA
FE
FE
F9
F4
F4
F8
0E
0D
F2
0C
F0
03
ED
FE
04
FF
EF
13
F7
F1
FE
10
EA
0C
FE
F3
00
F2
FE
08
0F
EF
07
FE
03
0D
04
0A
F0
09
08
FD
05
F5
F6
11
FC
F7
FB
F9
FA
EF
06
06
0C
F0
06
FE
F9
F0
09
F7
10
03
05
0C
0E
02
07
03
12
06
FE
0A
05
F1
0C
FF
10
0E
03
F8
0C
01
03
0E
F0
0F
F4
07
0A
0F
08
09
11
F0
05
06
EF
F5
F0
0E
F9
F1
07
02
FA
EE
F5
FA
F5
F3
FD
FA
11
EC
0F
EC
14
0E
11
13
FC
05
FA
06
F9
06
08
11
12
00
07
F7
00
F7
EF
12
0C
ED
03
F6
0E
F3
06
0B
05
F0
00
0A
F1
ED
F9
FE
EC
FB
FC
FB
F6
0F
F5
0F
08
0B
0F
F5
F1
03
F1
0E
0B
F0
F9
F8
06
ED
F2
03
F7
11
12
0B
09
01
09
0F
F9
FF
FD
EF
F8
0C
13
F1
F1
10
FD
F5
F4
08
0D
EE
F3
14
0C
10
EC
EF
10
08
F0
14
FA
F9
0C
F0
ED
08
FC
07
FA
F3
08
0F
F8
05
F6
07
FC
F4
01
08
FE
0F
FF
12
11
F3
F0
06
03
05
EE
0F
01
0E
02
08
F4
FF
08
FC
0F
EF
0A
FA
FF
F9
EB
06
EF
F4
F4
0E
FE
06
06
0A
0E
F6
FA
0E
05
F2
0A
FE
07
0F
07
FC
FF
08
02
04
EC
0D
FE
00
07
0F
08
F9
0F
FF
FF
10
F6
F0
14
EF
11
FE
F3
0D
00
0B
F2
11
10
05
07
FF
F4
F5
F2
F2
13
0C
08
05
ED
F9
06
EF
F2
F0
0A
0D
0B
13
F1
F4
F7
F3
F3
F2
EE
05
02
F0
12
10
ED
F9
EE
F9
F0
F1
12
F3
13
EF
06
FB
10
01
04
11
ED
F2
F8
FE
FC
07
F0
F4
09
0F
00
F4
F3
13
F8
0F
F3
F2
06
FC
F6
FE
02
00
F2
F5
03
13
0C
0C
FE
05
F1
04
FD
11
F9
FF
10
07
FD
FB
00
00
02
ED
F6
FC
01
F4
F4
F2
F7
F2
10
0F
FF
F6
FC
EF
FA
13
11
10
09
0D
F8
0B
0B
06
EE
EC
F4
01
F4
EF
0C
04
F0
FA
FA
F0
01
09
FF
F8
04
00
0C
05
08
00
FC
04
10
0B
F8
FC
04
0E
0B
15
0D
12
FA
FF
FC
03
F7
F3
0E
0A
F4
F6
F8
0C
07
08
F6
0A
09
F1
02
FD
0D
0B
F3
F2
0F
11
F9
09
09
05
F8
FA
FA
FC
11
13
F4
00
F4
F1
EE
FE
FF
F6
02
12
FA
0B
06
04
F3
FA
00
FD
0F
EF
F7
FC
09
FC
01
F9
FB
F1
05
EF
F8
F7
0E
13
EF
F0
F8
FE
F3
FE
08
F9
11
F9
03
F3
F8
01
FA
06
13
14
10
14
0F
EE
F2
F7
05
ED
F2
06
08
08
F2
F7
0E
07
12
05
01
FC
0A
13
0A
08
F4
03
00
EE
09
ED
08
02
03
10
06
0A
F8
FD
F6
F1
FB
0C
FF
F6
0B
FA
10
0E
F8
FC
F1
09
04
0E
F0
05
FB
02
11
FE
10
03
07
0D
FE
FC
04
F7
0A
0F
EE
01
FC
02
0F
07
FC
EB
01
09
09
EF
EF
F0
FC
ED
05
05
F8
04
0A
EC
FF
FD
F3
F3
FD
10
F3
ED
FC
0D
12
0A
F3
FD
0D
0D
07
11
0D
0E
F9
F6
FE
EF
F4
09
FA
FE
07
10
FD
F1
10
EE
F2
FF
EE
F3
F8
EE
ED
0B
FB
F2
0C
EE
EB
0D
F3
0B
08
F8
F9
FA
F9
0A
EF
0A
14
EF
F3
03
0B
04
F5
03
09
10
0E
EE
0D
F8
0D
06
FA
F1
F3
0B
11
0E
05
FA
FD
FF
0C
0E
F8
F9
0A
0E
10
04
08
F3
01
08
FE
F4
04
07
FB
F4
0A
0A
0A
00
0F
13
0A
F9
0E
08
11
0E
0F
04
0F
0B
05
F1
ED
09
09
F3
F4
12
06
0E
FF
0B
0B
ED
F8
08
04
FD
F7
15
00
FF
F3
11
F2
E9
F0
F9
EE
0A
F4
F7
ED
F8
EE
00
F6
08
FB
16
F3
02
0B
EF
F4
05
FD
0E
F0
05
12
13
0D
05
F4
F5
05
FD
F4
06
00
F2
F4
EA
06
FF
00
F8
F2
F5
F5
00
07
05
FE
F8
0E
EE
F5
05
0F
0C
F5
F8
F7
F4
02
10
F3
F8
10
12
F1
FB
07
0A
EF
07
14
04
FA
F0
13
07
0A
0D
F2
FD
09
09
FF
F7
0B
FE
FC
11
FC
0E
16
0B
F0
06
F3
00
F7
0D
0A
FD
12
F3
F9
0C
09
09
FF
08
09
F6
0E
10
F2
EF
F4
03
11
F7
01
F3
05
08
F3
F7
0E
F6
03
FE
13
0B
11
10
06
07
0D
FF
09
F6
02
ED
09
14
FF
05
F9
07
01
00
0C
07
F9
09
12
0F
0C
F5
F6
F9
09
08
05
0B
F2
02
05
05
F4
FB
F6
07
F4
12
F7
10
F3
FC
10
11
0D
0F
01
02
F3
03
FD
03
EC
F1
F1
00
08
FE
F1
10
06
0F
0D
07
02
F2
06
12
F5
04
10
ED
0F
10
F5
09
12
F2
02
FF
04
09
0C
EE
ED
F0
08
FC
EF
0E
F5
F9
F7
0A
08
FE
0E
F3
F0
F2
F2
FC
F4
EF
0E
13
F3
08
10
F6
FA
F2
F7
F2
F3
F1
0E
0B
0F
02
09
01
05
FE
F5
0B
04
01
0A
03
F2
F1
03
FA
EF
0B
F4
FB
0F
F8
EB
09
F1
10
10
0E
12
EC
09
0D
11
F0
10
FF
F7
F8
0F
08
F1
FA
07
FB
10
FF
09
F9
0E
F6
10
F9
EF
05
FF
02
0D
0C
12
FA
08
F1
F6
05
03
0D
ED
F5
FA
08
EC
0B
0C
FC
F6
F5
0E
0B
ED
F3
FA
10
FA
F0
08
01
0D
05
F8
04
01
0A
11
03
06
03
F0
0E
06
F6
09
0E
EC
EC
0C
F1
F1
FE
0B
0C
FC
12
00
EF
04
05
F7
F3
05
05
0B
ED
12
0E
ED
FC
00
09
08
F1
08
F8
EE
ED
16
ED
EC
F0
EE
0A
F9
00
10
F2
07
0F
F7
EE
01
0F
09
01
0E
11
FC
F7
0C
00
03
FC
03
0E
0A
F8
F0
0A
03
FB
EE
F4
F9
EE
00
F3
0A
FA
06
EC
0E
F9
05
0D
F0
0C
FA
ED
ED
F1
EC
EE
01
F2
01
EF
FC
10
03
01
FE
04
06
F7
FC
04
FD
04
03
09
10
00
ED
F8
0A
FA
FB
00
0F
03
03
04
06
0D
FD
EE
0B
F8
EF
FA
0E
0A
13
FD
03
0D
04
EE
0C
FE
F2
FA
0A
02
EB
EE
ED
05
F6
F0
F2
F8
FD
13
F8
02
EF
FF
F3
F2
00
F5
0F
F4
0D
EE
09
02
F3
11
05
03
08
10
F5
07
F9
F5
F9
11
FF
02
14
10
0F
F9
FF
03
09
F0
0B
F7
EE
0C
09
ED
0B
10
EF
FD
EB
F8
09
FF
03
04
F4
09
05
06
0D
F6
0A
11
0F
0F
F0
10
0A
0A
F0
09
0A
10
02
FC
FB
FC
F6
0B
0B
01
EE
13
F7
13
F2
0A
F9
0D
04
F9
0B
07
0D
03
F8
F2
FA
06
FF
08
FA
04
0F
05
0D
0C
FD
01
0B
02
F6
0F
13
00
01
0D
F0
F3
02
03
EF
11
12
F5
00
02
FF
F8
02
EC
FC
EC
FC
F4
01
FE
0E
11
EF
F0
EE
03
10
0A
F5
F4
FC
05
FF
0E
FB
FA
0D
03
03
FE
0B
F8
EC
00
00
ED
0F
06
02
F2
0B
00
FC
F4
FE
EE
FD
02
0A
0C
F9
FB
0C
03
FF
15
F6
14
0A
FF
FE
FA
EB
04
09
F1
ED
11
02
12
EE
05
EF
F0
05
00
EF
F2
05
03
04
F5
F3
09
F7
06
FE
0D
0A
06
FD
08
0D
EF
EF
F6
07
00
F3
09
0F
11
EF
0F
0A
F6
03
EA
FA
0D
0A
10
08
0A
0A
0A
FA
10
FF
10
04
F0
0E
EE
F0
FE
13
FA
08
05
01
0A
08
EC
11
00
0F
0B
F4
F7
0B
09
FB
00
03
FB
FC
F6
05
FE
FC
F7
EB
02
0B
F0
06
0F
03
0E
06
F1
08
01
FF
0B
FB
0F
F8
F4
EF
F5
08
03
05
05
FA
06
F7
0D
0D
EE
0E
F9
06
10
FD
0B
F8
00
00
EE
02
F1
FE
F6
0A
12
F5
0D
0A
0C
F5
0C
FF
02
0A
FA
09
F7
11
EF
FF
FA
F0
09
F8
09
05
0B
FE
F0
01
09
FA
FC
F4
0D
F7
09
08
15
FB
10
FC
00
FD
0A
F6
F0
07
13
00
0F
F1
05
11
13
03
F0
0B
04
F4
EC
FB
0C
11
F6
00
09
05
F7
FE
FB
04
07
F8
07
0A
FC
F1
11
FF
F6
08
08
F9
10
12
05
01
F4
12
FF
0B
09
F4
F5
F4
F7
02
FB
0E
FA
08
F0
EE
03
02
ED
0E
F5
04
02
00
02
FC
11
EF
08
F5
F4
EE
13
0C
03
F8
F4
02
12
00
ED
F0
0F
FD
02
12
F8
02
FB
FE
10
EF
09
12
05
02
0C
08
06
FE
06
FF
11
06
FE
F2
F4
0D
F3
02
14
11
F3
10
EE
F4
F1
EC
F8
FD
06
F1
FA
EB
07
11
F5
01
FE
FC
08
FA
ED
F7
08
0C
05
0D
F6
EC
0E
FA
06
F6
F9
EE
EF
FA
0E
F0
F1
EF
F1
EE
13
F2
FA
0A
0E
0C
F9
06
F0
0B
05
F1
F1
0E
02
00
F2
08
04
FD
FB
04
EE
FB
02
09
10
F1
0B
06
06
F8
F0
06
11
F1
0C
06
02
F8
ED
08
ED
FE
04
FB
11
07
00
0D
0A
F4
08
F2
0E
FB
10
EF
0E
15
FD
F2
08
FA
0C
10
03
04
00
11
FB
F2
11
FF
EB
F6
F5
F6
F6
08
07
0E
FF
06
0A
08
0A
F8
0B
13
0A
F7
11
06
F6
06
04
10
F6
FD
F4
FB
09
F6
13
EE
00
04
0B
EC
11
F6
12
07
F4
F5
05
03
0E
F9
0F
05
0A
F2
03
F1
F4
FD
F6
09
0D
F1
03
FE
F1
03
F1
01
06
0E
05
08
04
F5
0B
F2
03
0F
FE
F3
F5
09
F9
FE
EE
F8
EC
01
F5
F9
08
FC
F0
F5
FE
0A
F3
EC
FB
0F
03
13
0C
F7
13
10
08
FD
F4
FE
F6
03
FF
F3
F2
EF
07
F4
F7
11
0B
09
01
11
10
0B
0C
13
06
FC
FC
05
FF
FC
13
0E
06
0B
F8
FA
EC
0A
09
F2
F3
0A
FB
FE
01
F6
F9
02
01
08
F0
FC
EE
12
ED
04
EF
0B
F3
EF
11
0A
FF
F0
FF
F0
FA
00
FF
07
FC
F6
01
F5
FF
F8
0D
05
F0
0A
FC
02
F4
F1
03
F3
0A
01
F9
F4
FD
FD
04
FF
F5
12
EC
F9
F3
FF
06
FA
FD
00
08
F6
FA
08
01
00
F3
01
F5
12
F1
FC
F6
06
FC
FC
F8
F1
EF
07
00
FF
0E
F8
08
F7
11
FE
F0
0C
07
06
08
EF
08
FC
F9
EE
F9
0D
07
0F
FB
EF
FE
0B
01
0F
FD
F4
F4
F5
09
F5
F3
F3
F0
F2
FE
FA
00
12
12
FB
FE
0A
09
0A
08
FB
ED
F0
0D
EF
EE
F4
F5
F4
ED
EE
FC
F8
EF
10
0F
F1
F0
10
03
F1
00
F9
0F
F6
FB
14
F1
08
F1
10
FD
06
F4
0C
11
0C
F4
02
F2
F1
0E
F4
F4
FD
08
10
14
03
11
17
05
08
F2
01
FD
04
0F
12
08
ED
FA
F1
FF
05
F9
F8
09
F8
0B
EA
EE
FA
FC
F8
F2
08
02
0D
0D
01
03
F6
02
F3
0F
F8
FF
F9
0B
F9
FE
05
05
14
08
03
F8
EC
F2
FA
FB
EB
0F
F6
16
FE
18
F4
0B
FE
FF
FE
F7
EC
03
05
F2
F1
10
01
E8
F1
0B
02
03
13
F3
12
FD
0C
0C
FD
11
0D
0B
0C
06
06
EF
00
11
F8
FB
0F
F2
FD
F0
FB
F6
F2
03
EA
F7
13
15
F7
06
0F
10
E9
06
09
FF
EF
0A
F3
00
EE
14
FA
05
0F
FC
06
08
0D
0C
10
07
06
F9
18
11
FD
F7
F7
10
F8
F5
0D
F6
0C
00
13
0B
F5
F6
EF
F6
00
F9
FE
13
0B
EF
E9
01
0C
0B
0C
08
EE
0C
0D
13
F7
F4
04
F6
0E
EF
ED
FC
FA
EA
F0
F7
F6
FD
FD
0F
17
05
EB
F7
09
F6
0B
03
13
0C
0F
0A
0A
0C
14
06
0F
FB
F4
03
08
F7
04
04
F6
F0
01
01
FB
F9
01
F5
10
03
FF
F9
EB
08
0B
FB
0F
ED
0F
FD
01
0C
FF
F4
10
08
F0
F0
08
06
FF
10
F3
F1
F0
F5
12
FB
11
0C
F7
ED
12
13
04
F2
10
0D
ED
FB
0A
F5
FA
01
F2
FA
F6
03
FD
FE
FE
F8
F3
0E
FF
FC
F5
0E
FC
07
FE
F7
05
FF
0C
0D
FE
07
08
F5
F6
04
F7
F3
06
F3
0A
FD
F4
FE
FF
ED
06
08
09
01
F3
ED
F9
FD
02
02
0C
FF
F7
0A
16
EE
07
08
F5
0F
10
FD
01
FD
F9
0C
07
0F
05
0B
FC
F6
F4
0B
0A
EE
10
EC
01
0E
13
FF
EE
04
FE
FB
F3
FB
F4
FF
ED
F6
10
10
FD
0D
F6
EF
10
03
F4
F9
F0
FA
FE
0E
FF
13
13
F7
FF
17
0F
0C
FF
0A
03
06
08
FD
07
05
ED
F2
12
F2
FD
02
08
12
F2
FC
08
06
07
FE
02
0C
12
FA
08
0F
F4
FA
04
11
FB
06
FA
FB
04
F4
0E
13
FA
13
EE
07
14
F9
F7
13
F8
F4
09
F1
10
FD
FA
00
01
F1
09
07
F2
F8
F2
F9
F5
12
F3
14
F9
F3
F3
10
00
0E
11
EE
06
F8
F2
EF
01
03
03
04
F5
13
F2
00
08
09
0D
02
EF
FC
11
03
0C
10
09
FD
11
13
0F
08
F4
F9
EE
0E
F1
F4
F2
11
13
F3
FE
ED
FA
08
F8
F9
01
00
FA
F4
00
02
05
01
F9
EE
F3
02
13
F2
0A
EF
00
0A
07
11
16
0B
04
EC
FB
03
01
10
FD
F8
11
0E
FB
10
F8
F5
08
07
09
05
EF
FB
FC
F5
04
04
02
F8
05
EF
01
00
F1
01
FB
07
09
F9
07
09
EB
0D
F3
10
05
07
12
0B
EF
F5
03
F5
08
F8
03
03
0C
EF
0D
FB
F2
FB
0E
08
05
00
EE
FA
01
05
FD
FD
12
F4
FE
12
F6
04
02
11
FE
F0
FB
FE
F2
F9
15
FA
F6
F0
F0
0E
ED
0B
02
F5
00
0D
0E
04
F4
FC
FD
0E
F8
FA
F7
0C
0F
03
05
08
F8
11
FE
FB
F1
15
FD
02
0B
15
ED
F5
F5
01
EF
06
0A
F8
12
FD
F9
0B
F4
FA
FA
EE
F2
08
EE
00
03
0A
0B
12
10
0A
05
F0
EE
0A
EE
FD
07
02
F8
11
07
F2
13
06
F8
0F
FA
07
08
0E
01
10
F6
0A
0A
F9
F1
01
07
06
11
F4
F1
F2
F1
0E
F7
F1
05
07
FA
14
0B
F7
EF
12
08
FE
FD
0B
03
F4
05
F1
F3
0C
FD
10
02
EF
F2
02
F6
F2
12
FD
F9
03
F5
F7
F0
02
03
08
F3
07
14
04
0F
EE
0A
FA
EF
F2
00
01
F5
FB
02
FB
F7
FD
13
09
F2
05
12
FE
FA
F1
03
F6
F9
09
FB
F3
F4
FF
F2
08
F9
06
1A
0F
FB
0E
08
0C
F9
09
F2
06
00
FD
F7
06
F0
08
03
07
0C
F0
FF
F1
FC
09
01
EC
00
F6
F2
EC
14
E8
F9
07
F4
F4
10
02
1B
03
FF
F4
FC
FB
FE
F6
0C
02
02
FF
03
F4
EB
0D
F2
10
0D
ED
FA
F0
F3
F2
04
FB
08
FB
F1
05
FE
04
FA
F7
14
07
0D
07
FA
FF
16
FB
09
F6
FF
F4
F5
E8
0C
0C
00
F1
0A
07
05
0D
07
0C
FD
18
07
F6
EC
F1
F9
05
0A
FE
FB
F7
14
F9
02
F7
0E
05
F9
0E
0B
14
00
12
F1
F7
0F
F3
0A
13
FD
0C
EE
FA
0E
F8
E7
FA
08
F3
13
E9
02
0E
04
04
09
FF
00
EC
F9
15
FF
FC
0C
FE
01
06
14
10
01
13
07
14
14
03
F3
F1
FD
06
F4
05
F2
FF
F0
F2
11
10
EB
F5
F9
13
FB
09
05
0B
02
08
F0
FC
FA
F0
F6
0D
FD
15
0A
EF
EC
10
00
F5
FD
0D
F6
EB
01
EB
0F
09
0A
02
EE
EF
FD
0F
09
04
FC
F7
EE
10
FC
01
EC
FE
FF
FC
10
EE
F5
FB
0F
F2
F3
FE
F1
09
FF
06
F3
F7
EE
07
F3
05
01
05
08
FF
F4
F5
F9
F1
FC
08
EC
F3
11
F4
FE
FE
04
FD
03
03
0A
11
03
FF
08
00
09
EF
03
17
F1
0F
FD
03
12
05
10
00
04
08
F1
0D
0F
FD
0A
FF
F4
11
F3
EF
EF
0F
F0
F2
08
13
0A
F0
11
04
ED
0C
0A
11
04
EF
FD
EF
08
F2
12
F0
0F
FB
F1
FC
FC
F0
F5
FC
0B
05
ED
0F
0A
0D
F5
FD
0D
09
10
01
08
F2
EC
F0
0D
F9
FB
F9
FA
F0
F0
F9
F7
F1
ED
F8
F7
11
06
F8
FF
03
07
00
14
07
F6
EF
EE
FC
EE
FE
F3
FF
06
10
0D
FF
01
02
FA
FA
08
F5
FA
01
FB
0F
F7
EA
07
03
FE
F1
F5
FB
F6
0A
00
F8
FD
FD
00
01
FF
06
04
11
10
07
0A
0D
0F
02
10
07
08
00
02
02
03
F1
F9
FF
03
FE
F5
FF
0C
F1
F1
06
EE
ED
FD
03
0A
F0
10
F9
F3
06
0A
07
F9
07
F5
F6
F5
0D
10
F0
FB
07
06
12
06
04
F4
0B
15
12
F5
04
11
F0
F4
FE
08
F4
0B
F3
FE
09
0F
0E
07
07
EF
0D
0B
FC
EE
F8
08
F9
F4
FB
08
F8
FA
10
08
13
ED
04
F0
05
F2
08
FB
14
FB
ED
F2
09
F1
00
EF
F4
0F
09
09
02
08
F4
08
FB
F6
ED
F6
FD
FD
04
05
F3
F3
01
F2
F3
0D
F7
0D
F8
FB
F5
04
06
EC
FB
0F
01
05
F7
ED
06
08
F1
FA
ED
07
FA
0C
0B
03
14
02
FF
F2
13
F1
FC
04
FC
13
F5
03
0A
03
F0
0A
05
06
06
0F
F1
14
03
FE
F5
F7
12
F0
FC
13
0F
0F
0F
F9
09
09
F2
11
FF
FE
EF
08
FF
F9
F9
0E
F9
EE
07
F2
06
14
FA
FC
F3
0D
FC
03
03
F8
0D
10
0D
F4
14
F9
10
FB
F2
F5
F2
00
0B
02
00
EE
FE
00
00
F8
13
03
0D
FA
0C
F9
0A
00
0E
F3
04
12
FB
FC
F5
12
05
F8
F1
EF
0E
EF
04
EA
F1
0F
F9
0F
F7
0A
F1
00
0A
09
F4
0D
F8
FA
F0
01
0F
F4
F9
F3
11
F6
00
F2
06
0C
F6
FC
FF
FC
07
F8
01
F0
F6
F1
0F
FF
06
F1
F0
04
F0
FB
F3
06
FE
ED
F3
03
F0
EB
F5
F0
0D
05
F2
07
08
0B
12
04
06
08
0A
F5
0B
14
05
FA
0F
FD
0E
E9
0D
FD
09
07
F6
FB
FF
FC
FF
F9
FF
F9
0A
0E
FC
EE
15
03
08
04
09
0A
FD
0F
FE
F6
FF
10
0A
FA
F2
F6
EE
11
00
0F
0D
F3
F8
04
0A
FB
02
13
EC
FC
03
FB
03
05
F8
08
0A
F8
03
0A
FC
0A
FD
15
04
05
F6
04
FD
F2
FA
0E
EF
F6
FA
11
EC
ED
EE
FA
F4
0C
FC
FF
04
F5
F2
03
0F
07
F8
03
FD
02
FB
F9
0A
FC
0C
F6
EF
F7
09
01
04
F0
FB
13
F9
0E
11
F7
06
00
09
FA
06
EF
07
14
03
F2
04
0C
09
13
0B
F2
0A
02
EE
0B
FE
F0
EF
09
01
10
12
F9
FD
00
F6
0A
FB
EC
10
11
F4
F9
01
ED
FF
FE
F8
F4
F5
05
F4
F1
F7
01
05
F5
0D
00
F9
0E
04
F4
FC
FA
F4
16
FA
FC
0C
F9
07
0A
FE
0A
12
0D
F2
02
EF
06
06
F1
09
0E
0E
F3
F1
07
03
F9
F0
FF
00
04
F6
ED
FC
09
EE
0F
02
14
F6
15
FF
0B
02
F5
F8
13
12
0E
13
0C
F5
F2
FE
0D
0A
F4
F9
EB
F4
F6
EF
F8
EC
F6
03
03
F6
06
EB
09
08
FB
0A
01
12
FC
EE
06
F7
FA
0B
07
0A
10
F6
09
0E
07
01
EF
F0
06
0D
F1
10
0D
09
EE
F5
0B
FF
03
0B
0B
0A
0D
14
FB
FA
FE
0B
09
F9
FB
FF
0C
03
FD
0D
EF
08
10
12
F0
FA
0B
F1
09
F0
FB
11
EC
FB
09
FE
09
0D
F9
05
14
EF
0D
05
EE
F1
03
FA
12
12
0D
08
03
12
FF
07
F9
FB
00
10
F2
08
F1
FA
F4
02
FC
EA
0E
0B
10
09
0C
FF
01
F0
FD
FC
12
FB
0B
FE
0D
0C
F8
ED
06
0D
F1
FF
00
11
F1
10
05
0C
ED
EE
09
06
00
ED
EE
11
F4
EC
FC
11
F7
F8
F4
F2
ED
14
FE
0F
05
00
03
06
ED
0D
EF
13
01
FD
09
07
03
FD
ED
FA
F7
F4
01
10
0E
12
ED
08
F1
06
05
09
09
ED
0A
05
00
0F
EE
F0
F1
F7
04
FC
08
10
03
0B
F2
01
10
FA
06
EC
F3
F8
02
F3
F6
01
02
00
10
F5
FA
08
14
04
F5
FA
FB
12
14
F4
12
08
F9
04
F4
03
EF
F1
EB
EC
0A
FF
FC
ED
F8
F9
F7
FD
F8
04
FA
FB
EC
F3
F2
0B
0C
EF
03
04
F0
06
F0
FB
07
12
13
F0
10
FF
F7
EF
F2
14
0F
FA
0D
F3
F7
F8
FF
06
05
0D
12
FA
13
01
10
05
F4
0F
09
09
00
EB
0E
07
FF
0C
EE
EC
00
EA
13
0E
F4
FF
08
F1
02
0A
F8
EF
0E
04
F5
F4
F1
07
EE
ED
FB
06
10
07
13
12
F8
EF
04
F0
03
0F
F8
FB
00
F7
FA
00
F9
EF
0B
06
15
EB
FF
01
04
12
FB
F9
0E
13
02
0E
FC
0A
EF
09
08
EF
0D
F0
01
0A
ED
02
F2
0E
FC
FA
06
FE
EF
FC
0A
04
F1
08
0B
FE
ED
09
01
0E
FD
0F
F0
FD
06
14
FF
F3
0D
FF
F9
00
FB
F1
14
05
EB
07
05
FC
03
12
ED
FA
0D
06
09
0F
EF
F9
F2
04
10
09
FB
01
0F
F1
FD
F9
F0
10
07
01
08
06
EE
00
0B
EC
10
F7
EF
F1
F3
EC
14
FF
00
0D
00
0D
FC
F0
F1
13
05
F0
09
04
F6
F4
FE
05
F3
02
F6
06
F6
FE
06
08
10
FB
11
08
04
04
06
FF
FA
0A
F7
09
F6
07
F7
F4
F5
10
F7
02
15
FF
07
00
EA
EE
F9
F2
EA
0C
05
08
FB
F5
0F
07
E9
10
05
F3
FD
F0
03
ED
00
15
F9
0A
F7
0D
FE
0C
0E
13
05
05
FF
0A
F3
04
0D
F5
01
F9
12
05
08
0B
03
0E
06
03
05
0D
07
10
F8
0A
F6
FA
F6
F2
EF
03
F0
FF
F5
06
FF
05
F4
07
F5
F5
10
0F
F4
F0
FE
0C
0F
05
00
FF
F7
FF
0F
13
0F
04
FE
F0
F7
0E
EE
F9
0A
F5
08
FA
0D
0D
08
14
F9
FF
FA
F5
03
13
F7
F1
EF
04
06
EF
F5
0C
06
FC
FA
FD
F7
13
F3
FA
04
12
09
09
0A
04
08
FF
FD
03
F4
06
06
FF
11
02
0C
0B
0D
F3
0B
0E
F6
F5
17
FF
0C
F2
00
10
F2
05
0C
0F
F6
0F
0C
F9
00
01
FC
0B
0B
F0
EF
FC
F1
13
EE
04
03
EB
F1
FD
F6
01
07
0E
02
08
ED
04
FF
EF
FA
F6
F0
13
EE
EA
F2
0E
FB
0A
F8
F5
F9
FA
14
13
09
FC
F7
0D
0B
0B
FF
13
FB
F0
F0
F7
F1
ED
FF
13
EF
F8
F4
0D
F8
0E
FF
0F
F6
07
F1
F8
F3
00
04
08
09
ED
F2
05
02
0A
06
0C
F2
FE
00
13
11
F4
12
F8
0F
0A
00
EB
F0
F3
FB
EE
0A
06
06
0E
EF
F3
EF
02
04
F0
0B
FA
F5
0A
13
FC
0D
EF
F5
02
03
03
FE
03
01
0C
10
0F
0E
FC
03
F5
07
F4
0F
11
0A
12
15
0F
F7
EE
04
15
F5
FD
08
F1
ED
09
0B
0E
FB
F8
02
08
0A
11
0B
05
FE
0F
F3
F8
FA
06
0A
F3
FD
12
08
08
0C
FC
EF
07
00
0C
13
0A
00
EB
FC
00
FB
F5
ED
0A
06
0E
0E
04
FC
F5
09
05
10
07
FF
EC
04
FA
02
EA
13
FA
F4
FC
FF
05
EF
13
0A
0F
FA
0A
F1
F2
F0
FC
F7
F8
04
08
0C
11
08
0E
F2
F3
FA
0C
F3
03
F8
07
FE
F8
F3
10
0D
0F
F5
FD
F0
11
09
F8
EF
02
F4
05
FC
FE
00
FC
ED
FD
03
0E
09
F3
FB
12
0C
11
11
05
FF
10
FA
14
F8
FE
0F
F4
EF
07
03
0A
F9
0C
05
F7
FC
07
03
F2
F1
03
FB
F0
02
F6
F2
FC
F2
0A
FE
16
0C
F0
01
02
FE
F4
FF
11
F7
02
F0
0E
EF
F1
F1
FE
EA
12
07
FB
0D
08
F5
12
F2
03
FD
11
0E
0B
03
11
E7
0A
04
09
03
FA
0B
FD
E8
FF
F5
0C
01
10
F1
0B
F9
F6
F7
F2
12
F4
0D
0B
F4
FF
0A
10
04
02
FC
EF
03
04
09
0B
F4
11
FE
09
F1
0D
03
07
F3
FB
F1
F8
01
FC
0D
E9
F3
F5
13
F3
14
FE
14
F0
0E
09
11
01
FF
F0
14
14
08
0A
0C
FF
E7
ED
04
05
F4
07
FC
17
F2
04
07
01
EE
0D
FB
0B
EE
0A
F5
06
0A
FE
FA
EC
F0
FE
FF
0D
0C
F3
05
FE
F4
F6
F0
08
F2
00
14
0F
06
01
0C
04
F3
08
F6
0C
F1
F1
03
06
03
09
00
F6
07
EC
FE
FF
0E
F7
0B
0C
FE
0E
F5
03
0B
0B
01
0C
FB
ED
F0
02
FD
0A
F8
F1
0D
00
FF
09
0A
15
EE
12
0B
11
06
0E
02
00
08
F4
FC
F7
F8
F0
12
02
07
03
12
00
10
F2
F9
F2
F4
F4
02
05
FE
0F
04
F4
0B
03
06
0A
ED
04
10
F4
FA
0A
08
0E
F5
F1
F2
13
03
EF
F8
05
FC
FA
0E
02
08
0D
11
F3
EC
F1
09
0D
F6
08
07
05
F7
0E
F5
EF
0F
EE
FC
F7
01
F1
FB
09
FC
09
12
0F
FE
FA
EE
13
F2
11
07
F9
FE
FD
0E
F7
FD
EE
F2
12
F3
F8
FA
07
03
FF
07
F8
00
F7
06
13
12
F6
0B
00
00
FA
FA
EE
10
0C
0E
05
0B
F9
09
0F
FD
10
0D
08
0C
ED
01
0E
04
0B
13
F4
F7
F8
FA
EF
0D
10
0B
06
0F
11
FB
FB
F6
F1
01
06
EE
F0
EE
FB
06
11
09
0B
07
F0
0F
01
06
F0
EF
03
FC
0B
FA
05
F4
0B
FB
09
0B
0D
F7
13
F6
04
F2
FC
FA
F6
11
08
04
F0
F4
10
09
EE
FF
07
10
0E
11
FB
09
F4
FA
F5
0E
14
03
06
05
08
FD
08
04
06
05
03
FA
03
0C
06
0A
14
FA
0F
13
0E
FA
FB
07
EE
0E
11
F5
F0
F1
0D
11
12
01
FF
F5
F7
FD
09
F1
F0
07
10
0C
0C
01
FC
EF
FE
FD
F3
FB
EC
0D
05
0B
F9
08
02
08
F9
00
0D
09
F5
15
0B
12
F7
15
00
FE
0F
F5
F6
FB
F7
FD
EE
0C
08
EB
0D
15
01
F4
0E
F3
03
07
02
F2
07
F6
08
FA
0E
0A
F0
FA
F3
12
EF
11
0F
03
FB
14
FD
F5
0C
F5
F7
0A
16
EF
0E
FE
F5
F5
05
00
FB
05
0A
F8
FB
F6
02
0B
FA
FF
0D
F0
F2
12
F3
08
FF
08
FB
0A
0E
13
EF
12
F2
06
0A
15
11
FB
07
13
ED
00
EE
09
04
F0
08
FD
18
08
12
01
05
EF
ED
0B
F0
FB
F7
0D
09
F1
F1
FA
0E
FA
FF
11
F1
FB
EE
0B
FF
0E
0E
0A
FE
F6
FA
13
F7
0B
01
13
FA
13
12
FA
00
00
F9
0B
F7
02
FE
F4
EE
FB
12
02
F4
FF
F1
03
FB
0E
0B
05
EE
01
06
12
F8
0B
FE
FE
0F
00
F8
EA
0C
F5
02
EC
02
FF
05
EF
FB
15
F4
0B
F2
05
F8
F4
12
F7
12
12
F4
FE
0A
0F
04
F0
F5
E9
0C
0A
EE
03
F5
14
ED
F7
02
EF
06
F0
FE
EB
09
0D
FA
0C
F4
FB
03
11
F7
FF
F1
07
0D
12
02
F5
07
04
EE
F0
03
FF
01
F6
FF
FB
EE
F2
FF
0F
F8
F0
11
FB
13
0C
FA
FE
F9
14
EF
0B
EE
F9
0E
13
05
FD
FF
F7
FB
0D
F8
FA
08
0D
0A
03
09
05
F8
F5
EE
F6
0A
F3
FF
F7
0C
0C
ED
FA
0F
09
EB
0A
F3
FE
F1
0C
FA
F2
ED
07
F0
00
0D
EE
FC
F7
F0
04
FF
FF
0A
F3
15
FD
F3
EC
03
0C
FE
EE
04
F8
06
F5
0A
0E
FF
06
F8
06
00
11
F4
F9
F4
FE
ED
F0
0D
0D
FC
0D
EF
12
FA
02
FF
FD
0E
F4
10
F1
0A
03
11
EE
FF
0E
FE
FE
F3
01
FF
F1
04
0A
08
EE
ED
FC
F7
F4
0C
FD
06
F6
F6
01
0D
EF
00
F8
F6
ED
FA
09
F4
F4
FA
F6
F0
FA
11
02
04
0D
0F
FF
F6
03
03
0B
F8
F6
11
EC
09
F3
EA
15
07
F1
0C
12
F0
08
0B
F9
0F
F0
EF
FD
03
F9
EF
09
02
13
F5
F1
F3
FD
09
0C
F8
02
FC
F9
F0
F6
FC
F1
0C
F9
F7
0F
FF
EF
12
F0
F8
F9
F6
F2
06
0B
00
00
FB
10
FF
0D
F5
06
0D
EE
0C
10
F8
0F
03
FC
FC
FA
FD
F8
08
0C
FD
FD
FB
F3
F7
0D
FF
EF
0B
12
0A
EC
03
12
FC
F4
0D
09
F4
05
0C
EB
03
13
FD
FE
F2
13
02
0E
0F
09
FB
0F
00
0C
03
0E
F9
FE
FF
F2
F6
F7
14
12
10
EE
F9
F3
05
F0
FE
F3
03
02
FB
F2
0B
F7
F3
07
03
FF
01
03
03
F2
F9
FA
0D
07
0A
FD
0D
FD
04
FE
FE
06
F4
10
0F
07
01
02
03
0E
F3
F5
0D
04
FD
F7
07
10
EC
F6
01
EA
0A
0A
14
11
16
10
F9
FA
E8
0F
09
03
09
EE
0E
F1
0C
03
F9
FF
FE
12
F2
0C
F9
F5
E9
02
06
FD
0A
FE
16
EE
01
EF
F6
08
F1
0A
08
18
F3
F3
EE
FA
14
01
10
F4
FB
FC
FE
0D
08
F9
02
07
07
FB
05
F3
16
FF
FF
F8
1B
E7
F9
F5
09
FF
0F
ED
F1
09
FA
FC
01
00
06
10
FC
11
11
03
F4
F9
03
0C
F2
F7
06
ED
09
09
0C
F1
ED
FC
11
F5
FF
05
00
00
F5
0E
F6
EC
FC
EB
01
F3
F4
FB
FD
FD
F3
03
F8
04
F0
0E
10
0C
0A
F9
F1
FD
F6
08
0E
02
F8
FA
FB
01
FA
FA
01
F1
FE
EB
FF
08
F6
01
01
EE
F2
05
FA
F0
07
08
F1
0B
0A
0F
F7
07
03
02
FC
EB
10
FD
F5
0C
05
F4
EC
04
FC
11
04
F7
EB
02
02
02
11
F2
09
11
FC
EC
0D
0C
F8
EC
ED
02
03
16
FB
00
F2
F4
FF
0A
FA
F6
0E
00
08
F7
17
F9
EE
F3
02
F9
00
F5
15
04
16
FF
FA
F9
08
02
FB
14
01
08
07
12
F5
00
0D
05
FB
F9
EF
F4
F2
F6
F9
FC
0E
FA
12
01
FA
FE
06
12
08
FE
EE
F2
0A
F6
FC
05
14
0B
0C
0C
02
06
F9
F5
0D
02
F7
F4
EB
09
11
FA
F0
04
06
03
F2
F3
FB
0D
10
F9
0E
FD
0A
05
0A
16
FA
14
03
0D
10
F8
06
02
F9
F2
04
F8
03
FB
0C
0B
F3
0F
FA
04
0A
F2
F0
09
F8
00
F5
04
FD
F6
EF
0A
0E
03
FE
F1
0B
F4
09
EE
12
00
0D
12
12
E9
13
EC
0D
FD
EF
F2
0B
F8
0A
0D
04
00
08
01
F5
09
00
FD
F1
0E
F4
01
F2
10
11
F8
F0
04
EE
F8
00
0B
F8
F9
0D
FF
10
FC
FF
F2
0A
ED
F7
11
F7
06
F9
F2
F5
F9
F9
F0
F8
EC
09
F5
0E
FF
F4
0D
02
0F
FB
01
15
F6
13
01
07
08
06
16
04
F7
07
0D
04
05
07
FB
06
FE
F7
03
03
F9
F0
F3
F6
F3
01
03
12
FF
EB
0F
00
08
09
FD
0B
FA
0D
F2
09
F0
12
13
F9
13
FC
F4
0D
F7
F2
03
09
02
01
0F
12
0A
04
05
FE
F3
12
F8
F2
ED
02
07
06
F1
F8
02
13
F8
00
F2
0B
FF
FB
0A
EB
04
13
FA
0E
FD
01
0C
02
EE
FE
0E
0F
FA
11
EF
09
EF
F5
10
0D
