03
02
07
04
EC
FA
FE
F9
F8
F2
12
ED
0F
14
FF
10
F4
FA
0D
0A
04
0C
F5
0F
F5
08
F5
04
F5
FD
04
F6
05
F1
F5
F9
FE
06
0E
F6
F1
01
06
FD
F5
0C
EF
ED
00
08
0B
12
0A
11
FB
FF
F5
F3
0B
F7
0F
FF
10
FD
0A
03
EB
FF
F5
00
03
F3
FB
0C
F0
11
EE
08
0D
08
13
FE
04
0B
EE
0B
0D
F9
07
09
F0
F5
0B
FA
F2
FD
01
FA
FC
F4
EC
0F
15
FD
F5
F3
FC
04
F7
05
F0
F3
10
06
F8
06
FB
0F
F4
F4
05
F5
FC
0F
FD
FE
0B
FD
F2
F9
0A
0A
EE
12
F3
EE
F5
05
FF
ED
F0
F5
FE
F4
FF
02
13
FA
FC
F7
F3
EC
F8
F1
11
08
FF
EE
06
FA
11
FA
0F
F2
F1
10
F5
00
FD
01
F9
03
FA
EE
03
07
0F
06
FB
01
F9
00
18
F0
F7
04
F5
FB
EF
10
F3
FF
14
0F
F6
03
12
F4
FC
0D
12
FF
0F
F0
0C
FC
FD
EC
08
F4
F9
F2
12
13
10
FB
0A
F2
06
07
10
F8
13
0B
F7
F4
09
03
09
0D
F6
01
FB
FB
02
06
0A
F3
11
0D
0F
11
FA
F8
F2
F7
FD
FB
02
0A
0F
09
F8
F2
07
EB
F3
F3
F6
F6
03
F4
F9
F9
FB
F7
FB
F8
01
05
F8
F4
0A
06
0D
11
0D
03
F7
07
08
10
FB
02
F8
F8
10
FC
ED
FC
F9
FF
00
F4
0B
F7
F9
FF
07
12
EB
FA
0B
F7
F9
F4
0A
12
12
FC
00
10
06
FA
0E
0B
06
06
F8
0E
EB
02
ED
04
F4
EC
04
F1
03
F2
0E
00
12
12
F7
F9
F6
13
F3
F0
F1
0A
FF
05
05
EE
FC
11
EE
F2
05
09
EC
15
01
EA
04
00
09
0A
13
0A
ED
F5
04
FA
0E
EA
06
F0
0D
0B
0E
F3
F4
01
EE
EC
07
F7
11
0D
E9
F5
0A
F6
F0
FA
0D
06
06
02
0D
11
FE
05
FD
10
FB
04
FB
FB
10
05
0F
F5
F2
0A
0A
02
11
F9
10
12
F4
02
0A
14
F5
EE
0E
00
F1
F6
0C
10
F9
FF
01
F2
0A
F4
ED
F5
F6
0C
13
F7
0E
04
11
07
FB
11
10
11
01
0C
07
F3
0D
FC
11
F4
E9
10
F5
ED
12
05
F6
F7
0A
01
07
02
04
0E
FA
0A
07
0A
0B
0B
0E
10
EF
EF
07
07
EF
EF
FD
0D
FB
09
F4
0B
F7
EF
FF
F7
F5
02
ED
00
F0
0A
07
01
0D
FE
FE
06
0D
F4
F3
03
F9
10
F4
09
EC
FB
09
02
00
FC
0B
F3
EC
FD
14
04
F2
14
0F
10
FC
0A
F6
F3
10
FB
F3
02
F6
F9
FF
FF
13
0C
EF
04
0C
01
0E
14
08
14
F6
FD
00
13
FD
F7
10
01
F5
08
08
F2
F9
FB
09
0F
F0
F3
F1
F4
EF
F7
0B
F3
03
F9
ED
04
05
EC
E6
FC
17
11
0A
F6
F9
EA
FA
13
0B
16
F2
12
F7
11
04
F2
FA
FE
FD
F9
09
F2
06
FC
F0
FA
F2
FF
F8
FC
00
FC
0A
F5
06
07
EF
0B
EF
F3
13
03
F9
FE
07
0E
02
07
EE
0D
F5
0E
11
F6
F5
06
07
FE
F0
FF
00
EC
06
FC
09
FA
02
0B
F0
F0
F3
FB
10
01
F1
13
00
14
02
0C
FB
01
15
0A
F5
F2
F3
FB
0C
04
06
05
F5
FD
FF
06
F6
EF
F2
F9
FC
F9
FA
EE
0C
03
12
F6
E9
F4
00
F1
0C
F5
FF
EF
F2
05
04
FC
F0
F0
00
02
10
FC
08
09
0D
F6
FE
07
F0
FC
03
08
FB
EB
01
FD
F8
F1
00
F6
02
F6
F2
09
07
0F
11
09
0E
F5
F3
ED
FC
F8
05
01
00
15
0F
F3
F0
FD
0D
FE
F7
17
0E
EB
06
EF
0C
03
F7
02
07
14
11
F7
FB
0D
02
F2
EF
F5
F3
01
04
05
05
03
F5
F0
13
FF
FB
F1
F5
09
FC
11
0C
08
0B
F4
09
11
F6
F7
04
0E
0B
0C
FD
F3
00
FF
FF
FD
F1
FD
F4
15
0A
ED
F0
11
04
F8
FD
0A
0F
0E
00
0A
FF
F5
FA
15
F2
F5
FE
FA
FC
15
F8
F4
F9
03
0E
0B
05
EA
F8
05
F1
0C
05
11
0D
10
01
08
F8
03
F7
ED
F6
F0
FA
13
FE
F7
FD
0B
FB
03
06
F2
07
FA
0A
05
0A
07
F0
F3
FF
F8
F3
0F
04
0F
FF
05
F7
0E
0A
FB
EC
F1
10
FB
F6
01
15
00
EF
0D
F7
08
04
FE
13
FF
01
F1
02
09
F9
0C
F9
07
07
08
FD
09
FF
0B
02
F1
03
0B
00
F1
12
F3
F3
F4
12
F4
F4
00
F5
F3
F8
FF
EB
13
FD
07
F7
F5
01
F3
11
0E
F9
12
F0
F9
10
FA
07
FA
FD
00
12
10
EE
F3
F7
06
F8
02
FC
F3
08
02
EB
FD
08
FF
05
F6
02
EF
02
F4
0F
F7
0B
F0
FA
04
FB
FB
0E
05
F2
08
FC
F9
14
FC
04
ED
F5
FC
0D
F4
11
F1
0E
FA
11
F6
0F
03
FA
F5
EC
F7
0E
F8
04
F8
0C
0B
10
03
F2
FD
EC
F9
FA
0F
07
FA
11
FA
0B
07
F2
FC
FC
EF
04
06
00
F7
FC
F4
F9
06
01
F0
11
12
06
04
14
FF
F6
EC
0B
13
07
07
01
EF
F4
07
13
EF
F6
0A
F3
03
FF
F5
F3
FF
FE
F7
06
0A
F0
EE
06
EF
0C
02
F8
FB
FE
EC
0D
00
10
FF
13
11
FD
EA
F0
F3
FE
F9
0F
EF
0F
02
00
14
10
F2
0D
F3
FF
FB
06
FF
FE
FD
0F
FB
F4
12
08
0E
F5
F8
F3
EF
F0
F6
0D
FE
F6
09
F8
F4
0E
FA
F7
0E
FE
F4
FF
03
FF
EE
F5
12
F1
0C
FB
08
F9
F0
FE
00
ED
00
15
FF
0C
09
02
EF
F6
F8
F2
FD
01
09
0D
0F
F8
F1
04
F5
F6
0E
F3
01
07
FB
F7
F5
F5
F8
EB
09
12
EE
09
08
F3
0C
16
0A
0C
F7
FF
F6
10
08
F2
F8
FF
01
06
F3
F2
07
E9
0C
01
0C
EA
FB
0A
04
F7
00
03
F1
0C
F2
12
0B
FD
02
F6
10
F3
F0
FE
EF
11
01
F6
F1
10
F3
0B
0D
02
14
0F
F1
07
EE
0B
10
FC
0B
F5
06
F2
FA
F1
F7
EF
0F
FC
EE
EC
F4
04
0B
08
F0
EB
F7
F7
F1
10
11
02
F7
0E
04
03
F7
FB
FC
FF
01
FB
05
F5
0F
F1
00
09
EC
F3
F8
EF
0C
03
05
01
0D
04
F7
12
FF
F9
0E
0F
10
FC
07
F8
F7
F4
09
EE
00
05
F5
FB
F8
EF
F8
FD
0B
FC
12
12
0A
EF
EB
02
13
FF
0E
01
0A
0E
12
00
11
02
0A
15
12
F1
FD
11
05
13
07
13
EE
F7
F1
0F
FF
FD
01
12
FA
F7
FD
F8
13
EB
04
EF
01
EC
FB
FD
0D
08
FF
01
EF
03
0F
FA
F4
06
EF
0D
12
EC
ED
04
0B
F4
F1
10
EE
EF
09
F0
FD
04
F2
FE
FC
F2
FC
EC
FD
0D
14
04
F3
06
0E
13
F4
FC
FA
09
F7
FC
0C
07
01
F8
0E
F2
FA
EB
FD
F8
13
0C
13
FC
13
01
F5
0F
05
F9
F5
F6
F9
FC
F6
0A
00
12
02
00
FF
01
0F
EF
0C
F0
00
F2
07
0E
FF
12
05
0F
0B
F5
09
FF
F4
04
F2
F0
02
F5
01
14
F2
05
F3
15
0D
03
02
F8
14
E8
F9
F6
06
F3
0C
F0
13
F4
14
EF
F3
FF
0A
04
0E
01
F1
00
FB
F7
13
13
08
03
FF
FB
FE
06
EE
EF
F0
0F
07
04
11
00
0C
05
EE
FF
13
F2
EC
02
03
F5
0F
01
06
10
0C
06
12
14
07
EE
15
EF
08
06
FC
01
EF
F3
12
FC
F9
FA
F8
F5
03
FE
F8
10
09
02
FE
F3
FC
0D
0A
FC
F9
13
F9
11
FD
F5
07
F2
F3
09
01
0F
06
0F
0B
0E
01
FB
0C
F4
F3
04
0C
EE
FA
F8
F6
06
0A
F0
F7
11
0C
03
F7
0C
F6
F9
05
02
EE
FC
12
FE
08
03
00
13
05
01
FD
0B
0C
09
0F
0B
F4
01
F2
F4
F7
FD
FE
FF
05
0C
16
12
0D
F1
E9
0C
05
10
07
08
FB
FE
FF
FD
FB
F1
14
F4
F3
F0
FF
FE
FB
08
11
FC
EB
15
FB
F7
0B
10
F5
FC
02
F3
0B
0B
02
E9
05
FF
FC
F3
02
14
F6
15
F3
0F
07
0C
FA
09
EF
11
08
FC
F4
00
0B
FC
F9
F2
ED
0F
09
F1
F0
FF
02
FA
12
12
F7
11
FC
F9
FB
F1
FA
10
01
12
02
F4
0C
EA
FD
04
01
0B
EE
02
08
FA
F0
FA
06
14
F6
09
03
07
0C
12
13
F0
FC
EF
F4
03
FD
06
F2
0B
FB
0A
06
FD
06
EC
ED
F3
FF
F9
01
F8
FA
F2
0A
04
F8
05
02
12
00
F2
F5
F4
F7
09
F1
12
02
10
07
EE
FB
0D
08
11
FE
F5
F9
0F
12
0F
F2
FE
FF
F1
13
FC
00
0E
F0
F7
ED
03
F8
FB
0A
11
04
F4
F8
04
12
01
0D
07
F6
FC
F9
F1
0E
06
06
FD
00
F0
04
F8
02
FD
F9
ED
F7
14
FC
0E
0E
F0
FF
F0
11
06
10
0B
0B
01
FA
EE
0D
15
04
00
F8
0D
EC
01
F7
F1
03
FD
0C
0D
09
03
FA
F7
03
F3
07
EF
F3
FC
EE
FD
F5
FE
12
0E
FD
10
F3
07
07
F6
F5
11
F0
03
F9
FD
03
11
03
01
00
0E
08
0E
09
0F
03
EF
08
09
F5
F5
F4
04
EE
F8
00
12
09
11
F3
F2
FC
05
EE
12
08
06
0D
04
00
00
07
F7
EF
FE
F9
F4
F3
EE
0E
FA
07
0B
F1
F9
09
F2
0D
05
F8
01
04
0E
05
0B
0F
F0
0F
FC
F7
F0
02
FD
07
EF
14
0E
FC
ED
10
09
12
F0
0B
02
EF
FA
F8
16
10
13
F5
06
F3
05
0F
F5
F4
08
FA
E8
F5
00
F1
04
F6
0C
07
FF
00
0B
10
F7
EE
FD
03
01
09
06
09
00
FC
FD
05
EF
0B
F7
00
16
FC
09
FD
FF
FF
03
02
09
07
13
15
F4
FF
FB
10
01
0A
11
0A
06
FA
0D
11
FE
FF
FD
FB
F3
F5
09
13
0E
FA
09
01
FE
07
EE
FD
F6
09
FC
01
FB
F8
06
11
13
ED
08
05
06
F2
07
07
FC
00
F1
FE
11
EE
05
04
F1
0F
01
01
0F
F1
0C
F8
F0
FC
F7
0F
0B
FE
08
FE
06
F3
F4
06
FE
F6
F6
0B
04
0B
00
0F
0F
0A
08
F1
FB
09
0D
06
F8
F8
F0
ED
02
13
01
F1
00
0A
11
0C
FF
0A
FD
01
F9
0A
0F
EE
0F
F0
F3
0F
FD
04
09
F5
F1
EE
FF
EC
0A
F1
EC
0E
FF
0E
11
08
0A
06
15
0D
FA
08
FB
EE
07
0E
F2
0F
01
F1
F7
FC
06
FB
14
F7
14
EB
09
07
0F
F4
FC
F6
09
00
01
EF
05
14
F3
FC
F6
04
0F
0F
03
0F
ED
12
05
F1
10
FF
0E
0A
EE
FD
F2
0D
11
10
F6
FC
ED
15
0F
F1
00
FF
0B
01
F5
07
EF
0E
06
02
FB
15
08
EF
F4
0F
03
F5
FB
0D
FF
F1
08
03
ED
10
11
09
00
02
FA
F0
06
F1
07
02
05
11
06
EF
FB
E7
FC
13
F8
F6
09
08
F2
10
05
16
0D
ED
F1
11
ED
0B
FA
16
14
FA
F5
0B
0E
06
FE
F7
04
00
ED
0B
05
00
07
0A
F4
04
F6
FF
F0
10
02
0C
F1
12
ED
FD
FC
F7
04
FC
03
EF
FB
02
08
0E
09
0D
F4
FE
0D
0C
F9
05
FF
F3
02
04
02
04
0D
F2
F3
0A
02
0C
03
EF
F2
04
08
F1
13
12
FD
0E
0E
FC
F9
03
F9
FC
FC
0B
01
12
F8
FC
F0
06
EC
12
11
0E
F3
F9
E7
F4
08
0A
F7
F0
F7
E9
03
EC
F3
EC
0A
09
F4
FF
14
0E
16
0E
FF
0A
F1
F6
08
0D
FB
11
0E
F2
07
E5
F7
03
06
0E
12
F2
F4
F4
EE
F2
0C
FF
F1
F7
03
F5
10
14
F8
FC
F2
0C
0C
F3
02
04
03
0A
15
08
F2
FA
F9
16
0A
00
0F
F2
F5
F1
08
ED
F9
EE
F8
05
0B
FA
EF
01
FB
FE
F2
F3
02
EC
03
ED
12
F2
09
0A
0D
01
F1
04
0C
00
05
08
0B
0E
12
0C
10
10
00
F6
EE
07
09
F3
FD
F6
0A
09
0D
07
0A
F6
FC
EC
F7
02
08
14
FE
07
0E
09
F0
0B
10
FC
FB
F7
F5
F4
12
0F
07
0E
01
06
14
0F
FC
0B
0F
F0
02
EE
0F
07
05
F3
F0
0B
03
15
05
FC
F2
EF
01
01
07
FE
EE
FF
12
FD
0D
F6
00
10
08
F9
0D
13
F1
05
00
00
F5
04
04
13
F3
12
FB
F7
08
FB
F3
10
0A
00
05
EB
F7
14
00
F6
05
0F
00
12
05
02
FF
FD
F1
EF
0E
F6
0E
08
F9
08
02
0E
FA
EE
F7
16
05
02
F3
F4
F3
FA
EE
08
05
F9
0F
0F
09
F2
FD
02
FA
04
02
0F
F6
05
F6
F9
0E
0C
EE
EB
F7
F2
0B
F2
F3
03
0C
0F
00
01
EE
16
11
12
F3
08
FC
F3
0A
EE
0F
14
12
0A
06
EF
06
0B
03
F5
F8
09
05
EE
04
F6
FA
FC
03
F8
0D
F7
FB
FF
F1
F0
08
11
0A
F4
16
F5
F2
FF
0B
09
F3
F6
02
F8
FC
ED
ED
0A
F1
F4
0E
FD
F1
09
06
0A
05
FF
07
FD
05
00
F9
F3
0E
03
F0
10
14
ED
EF
FD
F2
F0
F3
03
11
F6
FD
05
F9
EB
F5
0E
F5
F9
F3
10
01
F3
12
F6
FF
F4
05
F7
08
12
FE
FE
10
13
EE
10
F5
12
F8
0E
F3
0D
F3
FC
01
F4
09
0D
06
02
0B
EF
0D
F6
09
FC
F5
01
F3
EE
01
FF
12
11
09
F1
FD
F8
F3
04
0F
00
01
01
03
0A
FB
01
EE
11
0C
05
0C
07
FC
F6
F5
0C
0F
F0
0A
F1
06
08
13
05
0E
F5
FC
13
0F
0C
09
F9
06
F2
F8
06
05
FD
08
0B
05
FC
07
0D
FE
F1
0C
03
F8
0F
0F
F0
10
08
03
12
01
0E
FB
05
02
FB
0C
F1
08
07
FB
FD
FE
04
FE
FE
01
0B
00
FA
08
07
FF
F1
0E
F2
08
F1
ED
0F
F0
00
FE
FA
F6
F2
0E
FE
05
FA
0A
F6
FB
0D
00
0B
FC
F4
01
0D
02
F2
F7
FE
16
F5
FF
F7
08
0C
06
F4
0B
0C
08
F0
03
00
FD
F9
05
16
0F
F5
FC
F5
F6
0D
FC
03
0C
EE
12
FA
ED
F9
05
0A
F4
F6
17
0C
FB
01
01
F4
FC
13
FD
0D
00
F1
F2
02
F1
FC
0D
0D
13
03
F2
ED
F3
09
F0
00
0E
FA
FC
F6
F7
FC
EA
F0
0E
EA
09
0D
10
F7
FD
08
F6
F1
0E
F2
F4
FE
07
F3
F7
F4
00
F7
FA
03
F5
08
03
F2
07
FE
06
F5
12
01
F6
ED
F6
0C
0E
02
0E
F6
0A
F1
F1
F5
00
F1
12
0A
0C
03
04
FA
00
0B
00
FA
01
05
11
F9
F8
FD
F8
03
10
F0
F1
04
F4
00
12
03
13
03
EE
F4
F7
12
04
0F
F6
F0
FF
02
12
07
FA
02
0C
F7
FE
15
0C
FA
F4
F8
F8
EA
F3
EC
FA
09
0B
07
0B
FD
F7
00
0D
F4
0D
12
0D
09
02
13
04
0B
FF
F0
FF
F0
11
11
F5
10
11
0D
FF
0D
11
13
01
07
F8
0B
EB
03
FD
F0
FB
EF
F4
F4
05
F5
F0
F0
FC
F7
F1
0E
04
EE
FA
EF
0A
14
13
F1
FF
10
F7
FB
12
07
02
14
EF
12
13
0F
F4
04
ED
FB
09
F5
F7
FB
13
F9
F6
F8
05
F0
12
0E
08
02
0B
FC
07
F4
FE
FA
F1
F9
07
0D
FD
FF
EA
EC
00
FA
FE
0C
FB
06
05
EF
FB
F5
0F
05
03
F6
FB
FF
01
0A
03
00
F7
03
11
F4
FE
F4
07
01
F3
06
F2
F5
05
F8
01
07
F2
EE
05
FF
EE
0E
EC
F4
FC
0C
F8
FF
F6
07
FD
0A
0D
F3
12
06
12
00
F8
F6
11
10
01
00
07
F6
0D
FE
02
FE
0F
04
00
00
FA
EF
04
FA
02
F4
11
F1
FE
12
EE
EF
F7
F5
F8
0C
12
FD
03
14
F6
0D
05
FC
10
F5
F8
F7
F5
F2
FC
EE
ED
F3
11
09
F5
F9
F3
F4
F9
FF
06
11
F5
0F
ED
F2
07
FF
F0
11
FB
F5
03
07
F3
F8
05
F9
12
F1
01
F3
0B
F9
03
FF
07
FA
13
F5
F9
0E
FC
0C
04
01
02
F1
EE
14
06
F8
04
0E
FB
FB
F7
0E
F4
0A
10
11
F6
F2
F1
F6
02
0A
F7
0B
FC
06
07
FE
EF
F8
03
FF
F8
F1
F4
F7
FD
F6
12
0B
FE
12
0A
01
04
10
F5
F7
02
00
02
02
F4
F3
00
FB
0D
03
F9
0A
0B
0C
0E
08
FD
FF
01
09
02
00
FB
FF
09
0D
11
0E
00
F3
F0
EF
F6
FE
04
02
FF
F9
06
03
FC
F8
F7
06
F7
FF
F5
0B
F9
ED
0A
11
F4
0D
FE
0A
F8
0F
EC
FE
0E
08
EF
F6
0F
F9
10
03
0E
07
EC
F2
F6
0D
09
0B
12
ED
F9
FF
FD
02
F0
07
FE
04
FD
EF
04
14
F2
0C
EE
04
F7
05
0B
FE
03
F5
00
EA
EF
FF
13
EE
F0
EF
00
F8
FD
0B
14
08
03
01
FE
0F
EF
08
F4
F8
F8
0C
FA
FE
FC
F6
FE
0D
0F
0E
02
F6
0E
FF
FF
0B
11
0A
FA
0C
EC
F2
F6
05
F7
09
12
0F
F4
0F
F3
0F
F6
EC
07
0C
0C
0A
14
08
10
07
11
F9
F0
16
F6
F5
0E
F5
E8
F4
02
FB
FB
F8
FF
F3
F8
EF
FF
12
FA
EE
0C
07
0E
EE
07
0F
04
02
0F
F0
12
04
08
06
F2
0B
15
0C
0A
FE
07
F7
17
F2
FE
0D
FB
0E
08
F6
E9
F1
05
F6
10
0B
FE
FB
03
ED
0C
08
FA
F1
EA
FB
02
FA
FC
0A
06
EF
06
EF
FC
EE
F4
05
15
FB
01
EE
14
F0
00
07
F7
F0
F4
F2
0C
EE
12
06
0D
F0
07
0B
0D
FF
0E
09
0D
FD
FB
EB
EC
F5
F1
12
04
01
01
F1
07
FB
08
FB
0F
0A
F6
07
F9
F8
10
FC
06
0C
06
01
0E
0D
FA
05
F7
F4
16
F9
FE
11
0F
F0
0E
F2
12
0C
F8
F8
07
0C
F9
11
05
01
04
08
01
ED
08
F4
15
FB
FF
F7
F7
0F
FB
FC
07
FE
F0
FE
0D
09
0A
0A
0C
08
12
F6
11
17
F0
03
01
F1
F0
FB
F0
0D
F6
13
12
0C
F0
F8
F4
F7
EE
FF
16
F0
0A
11
F2
F2
07
FF
EE
10
EE
01
13
05
12
0C
0F
02
08
FE
FB
09
FF
F3
08
F8
10
FB
0F
08
FF
F8
09
ED
02
F3
05
EC
07
0C
04
06
11
EC
12
EC
13
F2
EA
FF
ED
0F
EC
F2
ED
08
0A
FF
01
F7
07
0A
00
F9
06
0F
F7
0C
F7
FE
F1
01
0E
01
11
0B
09
06
F2
0C
0A
FC
10
EC
EE
FB
0E
FF
08
FE
08
F4
06
18
FE
EF
FD
F2
09
04
EF
08
09
0A
0B
0E
F7
FA
EE
FE
F0
EF
07
FC
13
0D
EE
14
06
FB
FC
FA
0C
F2
0C
F6
05
0D
FC
0D
F3
06
F8
F9
F1
F6
0F
03
0C
F9
0F
0A
F3
08
F2
0C
F9
FE
F2
02
0C
06
F4
F9
01
F0
F2
FE
02
FA
ED
12
11
0B
F3
FB
F6
04
F4
F2
02
F9
0A
02
13
F3
10
FE
07
F7
F0
FE
FA
11
15
FC
F4
EE
FC
11
0E
08
06
FE
08
F0
F9
02
03
F5
FD
0D
14
00
F0
FC
0E
15
F3
0D
F4
03
EF
F6
F9
ED
0E
0F
0A
0C
00
F9
FA
06
09
FC
F5
11
F4
07
0E
FF
FC
00
07
12
FC
03
EC
FD
F4
0A
F3
08
F6
FA
F2
0F
F5
F8
0A
FB
10
0F
03
EF
09
08
FA
EF
07
0A
FF
02
11
01
0B
12
0B
FC
0F
EF
F2
11
F1
04
0B
F5
FC
F3
01
F5
11
11
FA
F1
0F
0F
15
F1
FB
F1
0F
FF
07
F4
00
04
F1
EE
0C
FC
10
FA
E8
05
FC
11
F0
F0
FC
E8
02
F8
06
06
FC
EE
F3
0B
F3
FF
F2
01
FF
F5
FF
08
10
EE
0C
11
FA
03
05
FB
0F
FC
F4
02
15
EC
09
13
F0
FF
F1
F8
04
F6
0D
0A
12
00
FE
E8
0E
07
12
F0
0D
ED
F3
03
FE
FD
F2
FE
F5
02
12
14
13
11
02
11
11
FC
F3
09
0D
09
10
F4
FF
00
FE
F4
11
10
0E
05
F7
12
05
07
F8
03
F1
02
F2
08
FF
13
08
FB
0C
0D
01
03
12
FB
FE
FB
ED
FC
F1
11
F8
EF
00
01
05
12
12
07
0E
02
FA
0D
06
11
EE
F8
05
10
10
03
FD
ED
03
03
0C
ED
08
09
0F
FB
03
0B
08
FC
0A
0F
03
06
F0
05
08
0F
04
03
F5
EE
17
10
02
F7
0B
0D
02
01
16
0E
07
EB
1B
F8
F3
15
F0
12
0B
EC
F6
17
FB
F5
03
F8
EF
14
01
08
08
F4
F5
F4
EF
F2
0E
08
EF
16
0D
06
F3
FA
EB
FD
08
FA
02
EC
11
FE
13
F1
0C
07
14
F5
05
F1
12
07
09
01
09
11
ED
F7
14
FF
ED
FD
FF
06
0F
F2
07
0C
14
14
03
F3
10
06
0E
0F
FC
04
FF
17
14
12
0E
02
14
05
F2
F2
F8
04
FD
EC
FF
EC
03
00
09
F6
0B
F5
EE
FC
F7
F8
FA
05
09
10
09
F0
0C
04
F9
F7
05
0A
0C
12
0C
03
07
04
12
F8
F6
F8
00
12
EF
10
12
F0
02
07
01
F2
03
EC
08
FA
08
0B
02
0A
EA
04
F6
ED
0D
EF
F3
F8
0B
F0
0C
06
03
F1
F3
ED
07
F5
09
EC
0C
03
F6
FF
02
08
0C
07
F8
ED
0A
15
EF
EE
02
EC
F8
05
13
01
0A
F2
FB
01
14
FA
08
F4
F0
08
F1
07
F6
F1
19
0C
0E
F9
F5
F6
F1
F8
08
FB
06
0E
0B
FB
12
0B
08
02
FA
0C
EF
03
EC
11
15
0F
05
02
F4
07
04
04
09
FC
14
10
F0
ED
FA
05
ED
F7
0D
F5
13
0E
09
06
0C
F7
10
11
F0
FB
01
03
F5
FC
F2
08
11
FC
00
0F
0C
EC
05
F5
EF
00
F0
FD
10
05
F1
14
10
01
F4
F8
EF
FD
EB
F8
12
02
FB
01
11
06
FB
ED
F4
0A
0D
13
FE
FE
13
F9
02
01
07
02
F1
EF
FD
02
FA
00
11
FC
11
14
F3
FE
F1
F7
02
F8
F0
F1
03
EE
11
00
11
0D
F5
06
05
F0
FC
EE
03
00
FF
F7
0F
0B
00
ED
FB
F2
0A
F3
12
0A
0B
07
F4
02
F0
10
F7
F8
F7
F8
FA
FC
07
03
F0
10
03
F2
10
04
F5
F2
F9
0E
F0
0C
03
EC
F8
11
FA
05
F6
03
FE
FA
09
08
00
FC
08
03
05
FD
EF
EE
FC
00
ED
17
07
EF
0D
EF
04
0C
EF
FD
08
F7
F4
FE
F9
FF
04
FF
EB
F4
0F
EC
09
12
F5
F2
FC
F0
FD
FA
0C
F2
FD
F8
FF
FD
F9
EF
10
FD
F1
0A
14
00
F0
FB
0A
07
F3
EE
06
05
FF
FC
0D
F7
F2
FA
05
F8
F3
EE
FA
E8
F9
FC
08
F3
F1
F0
F7
02
00
F2
03
F8
01
0D
0D
EE
02
FC
FD
FF
0A
11
ED
F7
ED
FA
F6
0A
F1
F2
F2
16
ED
02
F3
FA
F4
0B
10
F7
F4
03
11
01
0A
00
0D
FC
EF
06
0A
02
11
F8
0D
11
0A
08
0F
F1
0E
EF
08
FB
EF
F9
0D
F0
05
F7
F5
F8
F9
F1
12
0B
01
00
14
05
FB
12
01
0A
ED
EE
EF
09
F3
F2
0D
FB
FF
01
02
0F
07
05
11
F0
08
08
04
F9
FA
06
FE
F9
EF
F5
10
09
F7
F8
02
0E
09
F4
EC
FE
FB
F3
F5
F4
F9
F7
00
0D
10
F5
0B
0F
F6
FF
F3
12
FC
F4
FC
15
F7
00
0B
11
F6
17
01
01
0C
EF
08
04
F4
07
F1
12
00
0D
FF
F3
14
EF
14
EE
F7
F3
0D
08
07
FD
04
FF
FC
FF
F0
F7
07
02
0D
0D
F0
F6
0D
14
05
00
FE
F2
F1
0E
0A
F7
EE
F2
FA
13
F7
F8
F0
02
05
02
0C
FD
F8
16
FD
11
07
FB
0D
EB
FD
01
06
10
F9
EA
07
F6
FE
04
06
F3
ED
EC
F3
FC
04
13
F2
13
FD
F8
03
11
06
07
02
16
F5
F6
F8
FC
EF
07
F1
F7
13
0E
F1
F3
F4
FD
04
09
F8
13
0E
EA
F6
F6
09
F0
06
FF
F8
16
08
06
EF
F2
02
F7
FE
F0
01
F6
06
15
0A
0F
F5
EF
11
F4
EE
EB
02
0F
FF
04
F5
FE
01
F2
0D
01
0F
FE
12
0D
02
F6
ED
FC
01
FE
0D
0F
0D
14
F9
FE
F6
09
EF
06
F6
FD
F1
0A
F2
11
F7
02
0A
F0
F8
05
F0
04
07
08
F3
F6
FB
10
0C
EF
0C
01
FD
F6
0D
F5
FC
FA
EF
12
0E
03
0E
12
F8
06
FA
0A
EF
EF
11
0B
F8
13
02
0D
00
15
FF
02
04
14
10
01
F2
07
03
F0
F5
0F
FF
F0
0E
03
F5
10
13
F4
14
F6
FA
ED
FB
0B
F3
F6
F3
02
11
08
0A
F0
10
01
14
13
0C
F4
F9
03
00
14
05
FB
F4
01
10
02
05
0E
FD
F3
10
08
01
0A
04
F1
0F
08
03
13
F2
0F
12
13
F6
0C
07
F1
02
EF
FC
0F
F9
0F
02
FE
0E
F1
F1
F6
FA
FE
EE
02
F5
EB
08
09
F4
FE
FA
F5
0B
F2
0E
10
0D
00
02
03
FE
0E
FC
09
11
02
02
F6
FF
EE
04
ED
13
06
F4
10
ED
12
0C
10
FA
07
F8
EF
0C
FC
0E
11
ED
FB
05
ED
F4
13
0B
0E
04
10
FB
12
EE
FE
F3
FC
0C
EE
F5
F0
F6
FA
F4
05
FD
F4
05
FC
EA
EB
F8
EE
F1
0A
F6
FC
F7
FC
0E
04
FA
FE
F9
F0
FD
F3
FF
03
15
12
EC
F5
08
F2
EA
F5
F1
FC
0E
04
F4
10
EF
08
F6
F7
F9
F1
F8
0E
FF
00
ED
FB
F6
EB
FE
F1
EF
ED
01
0A
F7
0D
10
18
08
09
FF
07
F8
00
F8
F4
12
EF
FA
F9
EE
05
00
FD
F2
02
F2
ED
F8
F9
F6
0A
F7
12
0B
0E
FE
03
07
FF
F6
13
06
0A
04
F7
09
08
EE
FE
01
FF
FD
08
F6
F3
F0
F5
F0
0A
08
11
F8
0B
FC
F0
03
02
0E
0E
FD
FC
11
F6
ED
02
06
FE
FA
F7
12
0D
07
F2
04
0C
F5
0B
EC
EF
05
E8
FC
01
00
ED
F6
F6
01
0A
0A
02
EE
FD
12
01
FA
F0
FF
0F
13
07
07
0C
01
11
0A
0F
04
EB
06
0B
ED
FA
12
02
0E
0E
F3
0E
FF
07
F0
EF
0D
FF
FE
EF
FA
05
14
FD
F2
F1
06
0E
05
0A
F9
F4
02
ED
10
FE
FE
FE
00
ED
F7
F3
0B
08
04
F2
F9
FD
FF
FF
F0
F5
01
04
01
FA
0C
F9
F9
FE
F9
01
05
05
F0
0E
0C
03
13
13
13
0A
0A
04
EF
13
F4
0C
0C
02
08
05
02
FE
0E
14
FB
13
01
06
FF
EF
EB
11
01
06
09
F6
F3
0D
F1
06
EB
02
F2
03
FC
12
F3
06
FC
F8
FA
FE
01
FC
F3
11
03
0C
0D
10
EC
05
03
F5
00
12
FB
ED
09
07
12
F0
0B
FF
02
01
F7
09
0B
EC
0E
0B
F1
F7
FA
EE
0E
FC
08
F3
F9
01
0E
F2
EF
12
12
0B
F2
FE
11
F2
F2
F8
ED
FB
F0
0F
F7
FF
F6
01
F3
FB
F7
F4
EC
0D
0A
ED
01
F0
02
04
04
F9
F7
F5
08
F8
0A
F4
02
0A
ED
FF
14
09
06
FD
05
0A
07
F7
F6
EE
0D
10
04
FA
F2
0D
10
01
00
15
F2
0D
18
FE
F1
06
0E
13
FC
10
F3
10
0A
ED
04
00
FC
02
FD
0D
FB
0F
EA
14
12
EE
0D
F0
F6
F7
FC
05
0F
01
0C
F4
04
F0
EF
15
FC
FB
06
06
F2
11
0A
0F
11
EF
FD
F2
03
0E
13
0E
10
0F
F4
14
0B
EE
0E
12
15
F2
0C
ED
07
F5
08
09
EE
10
EE
0D
EB
F2
EB
09
FF
12
F1
08
0A
06
02
F1
08
F7
05
EE
FE
F4
0A
0E
03
0D
FC
F6
F5
FF
06
03
00
FE
01
FB
FF
0E
0A
0C
EC
F6
03
F1
F5
06
13
FA
FD
F1
0E
EB
EB
EB
F3
0E
07
0A
EE
04
02
FA
0C
F2
04
09
07
01
ED
FD
F1
15
EF
F3
F4
03
FC
11
F2
F1
FA
F9
0A
F8
F5
06
F4
04
FE
08
0C
F4
F5
F8
0D
02
03
EB
F3
F2
01
10
03
03
00
02
06
0F
FF
F7
0A
F0
0D
07
F7
14
F3
0E
04
F3
0C
F7
06
FC
02
11
FD
F2
06
00
EB
F3
EC
01
0E
0F
F9
0C
F3
F2
0F
F7
09
11
EC
FE
01
FB
07
FC
ED
0F
0D
FA
06
F0
F5
0C
F4
F9
0D
0F
08
0A
02
FD
FB
02
F3
F6
06
FF
F2
0F
06
02
13
FB
12
F5
06
FB
F6
03
FC
F4
F6
00
01
F5
04
F6
03
05
F5
02
0A
11
11
0B
14
02
FA
12
EE
00
EB
00
15
F9
F2
0B
F4
F5
00
FB
F2
0E
FB
07
EB
0B
F5
00
04
0E
F2
EF
FC
03
EE
FF
0B
FF
02
14
F4
06
11
0F
F7
F6
0F
02
F4
0C
0C
FB
04
F6
08
01
13
FC
13
F7
03
F6
10
0D
EB
F9
02
FE
08
09
0B
F1
FE
14
EE
01
F3
00
FE
FB
01
F5
EC
F7
F2
FA
06
0D
FC
0B
FC
07
02
FE
F2
F4
03
10
FC
03
15
F8
F5
ED
0E
F5
F6
F3
01
15
EF
EC
08
00
FE
F9
16
02
08
11
F7
F7
F1
08
01
0A
FD
FD
FD
EE
03
FE
F3
F0
EF
0E
01
03
F9
F6
08
0C
F0
EF
FB
F0
0D
F2
02
F3
00
11
0E
F9
FD
F8
FA
F4
EA
13
0D
F8
F5
EC
08
09
F7
04
13
10
EF
EC
F6
12
F4
FE
01
06
03
00
F1
F0
F5
03
12
11
0C
08
F5
EE
EE
07
02
0E
FA
ED
EE
F4
0A
F0
09
0E
F1
F1
F5
EE
FF
F9
13
08
06
F3
0F
FC
10
F2
03
EF
0D
F0
11
FA
09
0F
F2
FD
0C
F3
EF
00
EE
EC
FB
0F
12
11
03
12
F9
F6
F5
ED
05
06
09
F9
0B
FB
F0
F0
FC
EF
09
03
EB
FC
0E
09
F5
03
FA
07
F6
FA
FA
F4
08
0B
0F
EE
F8
00
09
0B
F0
0B
F5
FC
0E
FC
00
FB
EE
F2
00
0C
0D
EC
F3
F3
F5
EE
00
EF
FF
01
F6
03
F8
0A
F9
FA
11
14
FE
F0
FB
01
FA
0E
EF
F6
FD
0A
F8
11
0B
F2
13
FE
0F
FE
03
F5
F1
F1
03
F6
F1
FF
0C
F8
12
F7
0B
04
FE
F2
07
05
09
01
EE
EC
0F
F3
02
F0
0D
EC
13
07
F0
F3
F5
F4
08
EF
FF
F7
FD
02
0B
FF
FE
EC
0B
10
06
0E
06
0C
F3
FC
FA
07
08
10
EF
00
F5
09
FF
12
00
08
F4
16
F7
F1
FD
0F
16
F6
0F
ED
12
EB
07
F4
05
FD
11
FD
FC
F6
F8
0F
0E
0B
FD
F5
16
F3
F3
F0
FE
F9
F4
09
FD
F1
00
0A
02
01
05
10
05
07
F5
14
F6
F4
12
FC
FC
0C
F5
F2
FE
0B
FF
EF
FB
0C
EB
FF
EC
04
F5
FE
11
07
FC
FE
EA
09
FA
07
0A
14
FB
09
FD
0F
0E
01
F9
07
F2
F8
F3
0B
02
EC
F3
03
0C
F9
F9
FE
07
0C
F4
ED
F9
FF
FD
08
04
0E
F7
0D
F4
0A
02
05
0A
13
15
F2
14
F4
F1
12
05
0D
FC
0E
02
F7
F3
FE
11
FA
10
FB
08
FD
0D
FA
F5
0E
F0
EF
04
0C
FC
0E
13
F7
F4
ED
0A
F7
EE
F0
F4
F7
FD
0E
FA
05
F2
0F
07
EE
08
12
01
09
00
ED
15
FD
09
F9
EB
0C
ED
0F
FC
0C
F3
EE
12
04
F1
F0
09
FD
0D
F6
04
F4
02
EF
0E
03
12
F7
F4
04
0C
F2
FA
0A
0B
EF
0E
0C
F6
F3
12
01
11
F7
06
00
12
06
EF
02
FA
0D
05
01
ED
F5
07
0D
01
F1
06
F0
F3
0D
ED
06
14
08
FE
FF
14
01
05
0F
EF
0E
F8
0D
09
F2
F4
02
06
FC
0E
F0
01
12
01
FE
0D
FB
F3
0A
F2
FF
11
F6
03
F1
FE
0A
EF
FC
FD
FC
F4
F6
0A
01
FE
F5
0A
F4
03
FA
0C
FF
01
00
04
F4
08
ED
F7
F5
0A
FF
0B
FA
15
0B
F1
F4
FD
FB
07
03
13
FE
F1
0B
12
15
F9
F4
EE
EF
08
09
EF
F0
F7
F3
EF
F6
06
04
01
FC
FF
EF
FC
0F
FA
F7
01
0F
F3
08
0F
FE
FE
F9
0F
07
0B
F5
FD
FF
06
F1
06
F1
FA
F4
F2
06
FB
0F
01
F4
13
EE
FF
F9
0F
03
01
EE
FD
F0
FE
F7
F9
FF
06
10
01
02
03
11
0C
F3
00
FC
F2
08
FC
13
05
F8
FF
08
FB
FE
0C
05
F5
0C
FF
F5
00
F1
16
0F
EF
EE
08
00
EE
FC
07
ED
FB
0E
EE
F7
0D
F3
13
F9
08
07
FB
06
FB
FF
F3
F0
FD
11
F9
04
ED
04
F3
FA
06
11
FA
0F
0C
F5
F8
06
FD
FC
FB
F8
F6
F7
12
F7
FB
0E
F2
09
F4
FC
01
14
00
FA
F2
07
F3
F2
EF
EF
F2
FB
04
05
08
12
FC
12
04
0D
F3
EC
0D
05
FD
FE
EF
F5
07
F6
EC
EF
FC
EB
07
F4
06
04
F1
FB
10
FC
12
0F
0D
09
EC
13
04
F7
F9
F3
08
F3
F1
F0
ED
F0
01
F9
F0
04
06
EA
08
FF
14
10
10
03
FF
08
0A
F5
11
FA
FD
02
FD
0C
0B
08
13
06
17
10
10
10
F5
EF
FB
0D
E9
12
F1
F1
EE
F4
F6
06
10
F6
F1
0A
F4
FA
FC
F6
F0
F6
09
08
F2
F1
ED
11
0E
0B
F4
FF
0E
01
F5
13
0E
FE
0F
ED
ED
10
09
09
0C
12
0C
0A
F1
02
F7
FE
10
F2
ED
FA
05
0D
01
F2
F9
04
FE
0D
FE
FA
0B
08
09
07
FA
FB
03
07
07
0C
F8
06
13
FD
F8
F7
0F
F4
0B
FA
F3
0D
F7
10
0C
FF
17
F1
EE
F2
FE
12
F0
0E
F6
08
FF
F8
FB
F2
00
01
F5
FF
01
F9
07
F8
FA
01
12
0E
13
0B
F6
F2
0D
FC
F0
FF
EC
FF
09
F7
F1
08
F1
EF
FE
0E
FE
13
F3
0A
01
F7
F7
EE
F9
13
F6
F8
F4
02
05
09
0E
00
F3
F0
F0
EA
15
F4
FB
12
0E
0E
0D
FD
03
F2
EF
0D
0E
14
EC
06
10
F9
FE
F3
02
F4
00
FC
F8
00
03
11
09
04
EE
F3
10
06
ED
F5
0F
0E
13
15
F8
F6
11
0C
05
10
FA
EF
F0
01
02
0B
F2
FB
0E
FC
02
05
11
FA
F2
08
01
14
F7
FF
F6
F7
00
F3
0C
F5
10
0B
F8
FA
F7
FD
F3
ED
01
EA
0D
FF
13
FF
0E
0B
10
FA
0B
F2
12
04
FE
FC
F0
0E
F6
0C
05
0A
F7
F0
FB
03
10
FA
00
F3
10
F6
F4
FB
10
F3
0D
06
03
FB
0C
0A
05
0A
F3
EA
0A
F4
0D
F7
13
F1
FC
04
FE
02
00
07
13
EF
14
14
00
06
FA
FD
F2
F9
F9
0B
05
11
0C
FD
FD
10
07
ED
0C
EF
F1
F0
07
FD
0C
13
04
14
EC
03
05
0C
01
F9
09
FF
0F
FC
0D
0F
F4
08
FA
F8
EB
02
FA
11
15
12
06
10
05
F2
01
F4
0E
09
0F
ED
FA
0E
F2
0A
12
0A
13
0D
F2
F7
F5
FA
FD
F8
15
F5
0B
02
EE
0E
0E
EF
0D
F0
F5
F9
F2
F6
FA
0E
FA
F4
F5
04
05
F4
0D
FB
16
F1
11
FB
FB
F0
FC
FE
05
01
08
FC
13
02
FB
F7
EE
0C
08
FD
09
02
08
09
00
F9
11
EF
F4
F3
03
F1
12
09
F5
F8
FB
07
EF
05
EF
01
EE
FA
F6
06
11
ED
0B
09
0B
F5
FE
F5
EC
00
F7
F6
02
08
F3
02
F3
07
F2
F0
FD
0D
FE
0B
08
0F
06
F5
FC
F9
05
0A
09
FE
F2
0E
08
FF
08
15
F3
ED
FB
F0
F0
EC
0B
0D
EF
02
14
10
EB
FD
F2
0E
F9
F6
F6
11
F7
F3
F4
FE
10
11
03
FA
F5
11
0A
0A
0F
FF
F9
EE
0F
14
0F
01
0D
02
13
0F
F7
0E
EE
02
F9
F4
FB
06
03
F5
00
0E
FA
05
FE
01
16
F5
0D
14
F5
EB
03
01
F0
F7
EE
EB
ED
07
F3
04
07
EC
08
18
12
05
14
00
F5
0B
16
00
F9
08
0D
F0
09
F1
0F
FF
15
07
03
06
F4
FD
07
ED
00
08
11
FC
EE
FB
F7
EA
ED
0B
02
F6
F1
02
04
F6
F6
FC
F1
0B
0B
F5
F4
05
0E
F0
F0
EF
01
FA
F6
F6
03
FD
09
0F
05
ED
FC
F5
0E
F4
0D
F4
F7
ED
02
FC
F4
F7
ED
02
0F
FA
F6
03
02
F1
FD
FF
F4
03
F6
EA
15
EF
F3
13
FE
EF
0B
08
F4
F2
06
15
13
17
02
FF
0F
09
05
07
09
09
0D
0E
FD
F5
05
F2
FC
09
FB
FC
15
02
F0
03
09
08
F6
06
F4
15
F9
0F
F7
FC
0E
0E
F7
02
FC
06
07
F1
F0
09
00
01
EE
07
11
EC
15
02
10
02
04
06
11
0C
FE
F4
00
FB
FA
FC
11
EE
02
FB
FC
14
10
0C
13
F8
F1
0D
FE
03
ED
09
13
FF
0C
F9
0A
09
F0
FC
10
F3
EF
0D
FF
04
0B
0B
11
10
F6
0B
0E
12
08
FB
09
FA
F4
ED
02
03
08
04
0D
F5
11
EA
F4
F9
F2
0E
00
12
F0
06
01
FB
06
03
F1
05
13
07
04
11
FB
07
00
0B
05
10
0E
0A
F0
0F
07
F3
0F
EC
0E
03
11
F7
F7
F9
04
F6
FF
07
FB
0B
06
0F
ED
03
F8
11
03
FC
FB
08
0C
0C
03
02
0E
EE
EB
FF
F7
F9
F2
F8
F6
06
FB
F5
FC
FF
EE
17
01
F9
EB
02
04
04
0A
02
01
0F
F7
07
FD
F9
FD
0B
F6
FC
16
F3
12
0C
FE
01
04
FD
10
12
FD
FF
FF
0A
0F
F9
FA
04
06
0F
0C
06
FF
FD
EB
0A
07
F3
05
F9
08
FF
04
0E
0A
FD
04
F3
05
F4
F2
ED
07
FC
EC
EF
11
02
05
13
01
0A
02
FB
03
08
11
EE
F5
11
10
EF
05
16
09
F1
ED
EE
03
F0
05
06
0B
04
FA
0D
FE
0A
F9
EE
F0
FB
13
F6
F2
F5
09
09
08
0F
F6
0A
F4
02
0D
06
F1
11
FF
0F
F9
04
FD
F4
09
FA
0C
08
06
F8
15
0C
FB
FC
16
0B
08
FA
14
F9
FB
09
0B
0A
EC
F5
F6
0B
01
0F
FB
10
FA
F8
07
00
09
04
EF
F1
F7
F7
F2
F7
F5
0E
EF
0E
F9
F5
FA
FA
06
FD
FE
F7
FC
F4
F6
0D
12
EE
FF
04
EE
F9
FB
04
EE
0F
0C
FF
FD
F4
F6
0C
FC
FE
0D
06
08
00
09
09
FD
0F
01
FA
12
F8
F9
10
F4
0B
03
03
12
01
F5
0B
04
FA
00
F0
0D
EF
ED
0D
12
0E
F8
0C
EB
00
F1
0C
04
F0
0D
ED
EF
EE
07
05
12
0B
0A
F8
09
F3
FC
05
F8
09
F5
FE
F9
FA
08
13
FC
02
FB
02
0C
F3
F5
06
13
10
02
0E
F9
0B
F7
FA
10
09
01
F4
F1
FA
02
15
0A
00
06
FA
ED
FF
EE
0B
F5
EF
06
F3
FB
F5
03
F9
03
F0
F3
10
06
F7
0B
F1
FE
EC
F9
0F
FB
12
0A
08
02
FB
F5
EB
F5
13
08
EF
0A
F3
EE
0A
0D
0A
FE
13
EC
F0
08
F5
0E
12
ED
02
ED
0B
F8
0C
07
EF
0A
0C
FC
02
F6
0F
F2
F8
00
11
0E
F1
FE
F9
02
FE
F0
05
F3
FE
FF
0B
05
12
F0
FA
15
F1
04
0B
08
FE
06
0F
F5
F6
11
0B
F4
EB
EF
F9
F7
F1
F4
F5
03
F9
06
F4
0C
F2
FF
0E
F1
F3
01
F0
FF
0A
F5
F1
F8
ED
11
F8
FB
F7
0C
F3
F6
F6
ED
FC
F2
03
F9
FA
02
07
F5
09
FD
ED
F1
FC
0D
FD
14
08
F7
F2
F3
F1
EB
0F
FE
F2
0F
FD
FD
EE
10
F4
EF
F4
FF
F1
0B
05
0B
12
0B
0F
12
EF
00
F0
0F
F0
0C
0A
F6
F0
05
FB
0B
04
04
15
F1
02
01
0A
04
F4
F0
FB
FC
0B
FB
FC
F3
F3
03
F7
13
02
F1
F9
03
0C
EF
10
14
08
EF
FC
02
10
0C
EA
FC
F9
01
15
F9
06
03
12
0A
09
F4
06
0B
08
FF
FD
03
03
F8
EF
02
F3
0B
F4
0D
FD
F2
03
10
F9
0E
01
0B
02
10
08
06
04
01
0A
11
09
F5
F2
FA
FC
0F
F7
FB
0C
03
05
00
0E
13
F3
02
F3
0A
F5
06
0F
F4
FC
08
04
F6
FE
FD
F3
03
0C
FC
04
02
09
15
0A
FD
0B
0A
02
F1
09
EE
0D
0A
0F
FA
F6
FB
FC
F2
14
10
06
F6
04
F0
09
FC
FA
0A
F6
00
0E
F0
02
F3
F3
F4
03
FD
01
F6
0D
F3
F6
00
03
EA
07
FD
0B
EC
0C
14
F0
EE
FB
02
EF
FF
17
0D
F9
0A
F0
05
F6
15
03
F9
F7
F3
0B
EC
FB
13
FD
0B
F4
03
FC
EE
09
F5
F6
F2
03
F0
01
F3
08
F4
F5
EE
03
01
12
F6
04
0C
F8
01
0A
10
00
ED
08
0D
FC
EE
0B
0B
F0
0A
0F
FA
F0
F9
FC
EE
0B
04
12
04
00
0D
04
0E
F6
0E
F0
00
EF
0C
04
F1
FE
0E
EF
F6
09
05
F1
FB
0D
13
EC
0F
EF
0A
08
EF
09
F8
EF
F0
11
13
07
EC
F3
F9
EF
EE
01
F8
F7
06
05
FD
F1
F4
07
F9
06
EA
F4
0B
0A
08
07
17
ED
EB
02
0F
01
02
0C
F5
02
F5
0A
FA
FB
13
ED
0A
FE
11
FA
F2
0A
0C
0E
0A
0E
0A
08
0F
F8
03
06
10
06
14
09
FF
F2
ED
10
ED
01
FE
EF
13
14
FB
EF
02
EA
FA
FF
F0
12
00
04
0B
11
EF
08
0D
ED
F2
FD
F5
EC
0B
FC
ED
F4
EC
F9
EC
F0
F4
07
FE
F5
F3
F8
F8
F9
F8
F3
FD
11
F1
0D
0F
F1
FC
FC
0C
13
0C
10
11
F4
F5
FF
EC
16
11
F1
01
15
EF
04
09
07
F5
FF
FD
FC
07
ED
03
0D
02
07
F8
06
12
08
04
08
F9
F7
09
06
0F
FF
FF
F8
08
0A
F4
F6
FA
0B
00
F7
FF
0D
EF
0D
0F
F1
F1
FE
FE
FB
00
07
04
16
FC
F3
F9
EE
FB
F5
0F
03
F0
EF
03
0A
F7
0D
04
04
0A
0B
F3
F5
10
F0
F6
F8
00
FC
FF
0B
11
08
05
F3
07
F5
07
FE
06
EF
FF
02
F5
EE
10
F6
03
02
FD
F5
FD
FA
FC
08
0E
00
09
01
03
01
FB
03
0E
00
13
14
F9
00
EE
09
0D
FF
0B
0C
0E
F8
0E
F9
00
06
F4
13
03
FD
EE
09
07
FF
FD
FE
0C
F4
FA
09
F6
0C
13
07
F3
FE
0B
11
F4
09
0A
03
00
EF
F7
F6
0B
03
FF
FA
0B
12
0B
12
0A
09
FA
09
FB
F6
04
FA
07
0F
0A
02
06
04
F7
FA
0C
FA
02
F8
0A
03
06
EF
EB
FD
F9
11
0C
07
F8
EF
FC
15
14
F7
0F
F7
FE
06
0B
EC
12
FE
09
06
02
FF
F5
F0
05
FA
08
F1
09
FF
08
EC
07
02
F0
F5
01
0F
F3
0B
00
ED
02
FA
F0
F1
F8
F1
03
EF
14
ED
01
FD
F5
F4
FE
05
F6
0C
F3
FF
FB
FD
FC
05
FD
12
14
EF
EF
FE
06
13
EB
F5
0E
F2
EF
01
08
ED
FA
0D
F9
F6
0A
06
FB
FF
F7
FF
0A
F5
08
FE
F4
F2
FB
F3
F6
03
F6
ED
08
FC
EF
0E
0B
FB
00
F7
FC
06
ED
FC
F2
0B
15
F8
F0
0A
10
00
0A
FB
13
FB
F6
09
0F
01
F2
FA
09
EC
0A
0A
EC
FE
F3
0C
F1
03
F2
16
EE
E9
0E
EA
FC
0A
06
F3
F3
F2
F7
FC
0F
FA
06
13
10
09
09
09
0B
F3
0F
01
F5
04
0C
F4
F5
F6
09
F9
ED
FA
11
EB
F2
0B
04
FC
FC
0E
F4
05
F0
02
07
0A
F4
F5
0B
0C
EE
05
03
06
F7
06
00
00
F9
F7
05
F5
FB
11
FB
0F
FF
F8
08
FF
0D
12
09
EC
07
12
FC
F2
04
08
06
0D
FB
09
F1
F9
05
00
08
09
06
0A
F8
09
02
0B
EE
07
01
F5
F3
00
00
F2
0C
F9
F0
F6
F1
04
0E
F0
F3
F5
05
F8
F1
02
FB
FF
F9
00
FA
0A
0C
02
FC
00
EC
FB
12
FD
12
FA
F3
0A
FF
FF
0D
F6
FE
EB
0A
F2
0A
0F
EC
F1
F3
F6
03
F9
F6
14
FD
0C
01
09
04
FB
F5
0F
FC
0B
F7
14
F7
F4
FD
06
0C
12
FE
F1
00
06
F1
01
06
FA
13
07
05
0D
F0
0A
01
E9
FE
EE
F4
F7
F0
FF
EC
FB
09
01
06
F6
0A
01
0E
F7
F4
F8
03
EF
F6
12
EE
F2
13
F8
F6
0C
0C
11
FD
07
FC
05
13
0D
EE
07
FA
0C
FF
FC
07
0A
FF
0E
0F
F1
0C
01
00
02
F0
F5
F1
13
FC
F3
00
FC
FD
FB
FF
F2
F0
FD
FC
0E
FE
F0
EB
07
F2
0B
F6
F5
F4
06
06
EB
FD
09
F2
06
F8
10
F8
0C
00
EE
F1
13
F8
00
FB
EF
FE
FB
05
FD
06
03
FE
0F
FF
10
F4
EF
10
F1
12
F7
F4
F1
F5
F4
F3
EF
10
F0
F2
F3
F5
06
0C
00
0F
FC
FA
12
FF
F5
00
FA
09
0F
0D
05
FE
15
0B
FB
F9
FD
FE
10
0C
FA
FC
F3
FD
0E
05
01
FD
10
0E
12
0E
F0
F0
04
09
0B
F0
F5
04
03
0B
F3
EE
F8
F6
F3
0C
F8
FA
F4
EC
FA
02
F1
F1
FA
06
0E
F4
F9
FA
02
00
0D
10
06
F3
FA
FF
08
11
FA
FD
12
02
0D
FA
14
08
F1
F8
FB
13
13
06
01
F5
03
16
16
F2
FF
05
03
F9
FA
0F
F8
F1
F1
F0
11
0D
08
0A
F8
06
F8
10
13
10
05
FE
F4
13
11
08
0E
09
FF
0E
FC
EC
12
07
FB
02
F6
03
FB
08
04
0A
F0
FD
FC
EC
0E
FE
EC
F2
FF
EC
0D
EC
FA
03
EC
08
0B
07
10
12
FF
03
F0
FE
FF
EB
FE
0B
F4
06
F7
0C
0B
FB
FF
11
F8
12
F4
03
EF
09
F5
0B
EF
F1
04
F0
01
FE
0C
08
F8
00
FD
12
FE
F5
F9
FB
16
F8
07
0E
F8
F5
F0
F5
03
FE
FD
F3
15
08
14
F4
F4
F3
FF
FB
FF
FB
01
FD
EF
09
10
06
FE
FD
F6
05
0A
F5
FD
02
00
12
11
ED
FB
F4
0C
FD
F5
ED
04
06
F6
F9
EE
0B
09
F8
0F
11
F1
0B
05
09
FC
F3
0B
0D
F2
EE
F0
01
0D
EB
F1
F9
F9
F8
FB
07
0A
04
05
0E
05
F0
FF
F5
08
FC
0B
09
F1
06
FA
08
ED
08
F5
F9
0B
0B
F0
08
FF
F1
F4
08
14
0E
FA
02
15
FE
02
0F
EF
F0
F5
FC
F4
F5
F3
0C
EC
0D
0B
0B
03
11
F3
09
FE
0F
FA
10
09
0E
FD
F1
0D
0A
0F
12
08
13
EC
F2
04
F7
01
00
FB
0E
F9
08
F6
F6
F6
EE
10
F4
F6
ED
FA
0B
F2
0B
EE
01
F3
0D
FE
07
FC
06
FA
0A
05
FF
12
EF
F4
03
FE
0F
0D
FA
F2
02
FC
F4
F4
F1
05
08
F4
12
09
EF
FB
F1
03
05
00
0C
FE
0A
10
F2
11
0F
FC
F2
14
F8
F7
EE
F8
10
08
F7
FA
F3
FD
0C
F8
09
0A
FE
FF
0E
FF
01
F6
12
0E
FC
0B
0C
0A
FD
14
F2
ED
F3
EE
11
F4
14
02
05
0D
ED
00
0B
12
01
F0
02
FD
EC
0D
04
04
03
F7
FE
EC
EE
F0
11
EF
F4
F8
FF
FB
0F
EF
F3
FD
0D
06
ED
FC
0D
F8
FC
F1
F2
05
F5
10
11
0F
EF
09
FA
03
F4
0A
08
F8
08
F3
FC
0B
0C
F5
FD
FA
00
FC
05
12
09
04
F1
0C
11
EF
08
F4
12
08
F4
01
0A
0C
F1
0A
04
0A
09
F0
F1
04
F2
14
F7
0A
0F
03
04
FB
FA
11
FD
FC
F0
10
0D
F5
0D
05
04
04
14
11
0A
0A
F4
07
02
13
00
00
0F
FB
FD
01
F9
F1
ED
10
10
0C
05
03
F4
02
07
10
0B
06
F1
FF
EF
F2
04
08
F2
13
FF
FC
FE
12
04
06
F1
F0
0A
FB
F9
F1
FF
F7
F7
FC
00
0F
FE
13
FE
FD
0E
12
FF
0E
0B
0D
11
FB
FB
11
0E
10
FC
F5
00
F7
F1
06
0C
09
F4
F0
09
08
10
FC
ED
01
12
00
F0
10
04
08
0D
F4
EE
FF
EF
01
ED
EE
01
F7
EF
FD
F0
F9
0B
01
FB
F4
F6
FE
F1
FF
07
0D
11
FD
F2
FA
F2
F3
03
EE
FB
F6
EE
0D
FF
0D
0D
0D
EF
F2
0D
0E
0C
FB
0B
0D
11
F7
0A
0A
F5
F7
0D
05
07
EB
04
F9
EE
F9
F9
FA
0A
04
10
FD
F0
02
FD
F0
00
F1
F7
0F
02
FC
ED
EF
0D
07
FE
FE
F6
13
FE
02
09
00
F5
0D
FF
0C
0A
F9
0A
F0
F5
09
03
F8
F3
F8
EC
11
EB
0C
08
14
10
0B
F6
03
F4
09
ED
FD
0C
EF
F3
02
FE
FD
F7
FC
02
FC
0E
EE
0B
05
FD
FD
0E
0E
F0
F2
FD
F0
EE
FE
FF
10
F3
08
F9
10
EC
06
F4
05
F0
0C
13
03
EF
10
FF
0F
14
14
F2
16
0A
FD
0C
F9
FD
10
FA
F4
03
01
0F
09
E8
03
04
00
03
F9
EF
00
F8
F7
FA
F5
03
FF
F6
FA
04
03
F4
03
FD
04
00
F1
11
11
F8
F8
F5
FA
F6
F9
04
F7
F5
03
07
FF
EF
F3
F2
07
0D
F1
FE
EF
EF
F2
FF
06
F4
F3
F6
EF
0D
0F
F5
0E
07
05
13
FC
EA
FA
ED
F4
FC
F7
F7
0E
09
02
EB
0C
EA
EE
08
09
0A
FD
0C
FC
F0
F8
F0
FF
12
0B
0A
FB
10
08
F7
FB
F3
0A
FD
F5
10
F7
16
FC
F7
15
16
EC
05
FB
03
FE
F1
F2
08
FF
14
06
0A
F8
05
EC
FE
03
ED
F3
08
FB
01
F2
F5
0C
12
FA
0B
11
F1
EE
F2
F2
FD
00
F4
EB
F8
F8
12
12
FE
10
F3
00
06
0D
0D
02
F5
06
F2
08
F7
F1
03
0C
F0
0C
07
FD
06
0E
FE
0A
EF
0F
F8
0C
02
10
00
11
F9
04
FE
F8
12
F8
0B
F4
EA
F4
FC
FB
08
EF
FD
0C
08
04
04
FF
05
06
11
01
03
01
09
F7
0A
00
03
00
09
F9
FE
09
08
02
EB
F4
F2
F2
F2
FF
11
08
09
15
F4
0D
EE
0F
09
F0
EF
F0
FC
07
01
0C
F8
FF
F9
11
F2
0C
00
0F
F5
F5
11
12
10
FA
12
0C
F8
11
00
0F
00
F6
ED
05
F0
F8
0E
12
10
FF
11
F5
09
0D
F7
13
0D
02
F5
FD
07
F9
F0
09
FA
EF
0B
F4
0C
FE
F7
F2
F8
ED
03
F3
08
F5
01
F3
0C
03
FE
02
05
F4
11
F2
11
ED
08
04
0B
07
FF
10
05
EC
0A
EF
E9
FC
0E
F4
EC
F2
FA
EF
03
EE
FA
07
FC
05
07
F6
EE
11
FF
EE
FE
0C
F1
FA
F5
07
02
F9
01
0D
08
EF
07
F5
FD
F4
F7
F3
00
03
FE
0A
06
F9
06
F2
FE
F1
F2
F0
F7
10
F1
F3
ED
EB
F2
FF
0E
FC
08
F0
F9
07
F6
10
04
09
10
00
F4
04
15
0F
F4
01
F2
F4
FA
0D
12
F3
F8
10
10
0B
02
0B
02
04
ED
FE
ED
0A
0A
07
F3
F4
F1
09
EB
F4
EC
FE
F4
05
00
0C
F4
F6
FA
08
EC
04
F9
04
F8
05
0C
01
F7
0B
FD
09
08
07
FA
FF
11
F9
EB
08
03
00
F1
FF
EF
0F
FD
F6
06
13
FB
F3
FD
FC
F7
F0
09
F0
F3
F2
15
10
00
EE
05
0D
F6
0C
0F
00
0D
F4
0C
11
ED
F6
0A
FC
02
EF
FA
F1
12
EC
0E
F6
FF
08
FB
FB
09
05
FB
10
06
0D
12
FA
09
11
09
F3
05
F7
F2
09
04
04
0F
07
05
15
FC
0F
F8
F1
EE
03
08
11
0B
F6
FD
F8
03
F2
09
00
0B
12
F1
FA
10
07
F6
03
14
F3
0A
0A
0E
FA
F4
0E
FC
0F
FA
F2
EE
F6
EE
ED
12
F0
F3
11
04
F2
F9
F3
F2
F3
F8
FB
0D
EF
07
0A
01
F0
FB
F7
ED
FC
06
08
0C
F1
ED
01
0D
11
0D
F6
0A
F1
02
FC
F7
F7
05
0E
FA
FB
F1
05
02
11
F4
F5
0A
F9
0F
FF
F4
05
01
F2
06
0F
0A
09
EB
F5
0E
03
0B
0E
F5
F9
12
FC
F7
01
F4
F5
0B
F6
05
09
FD
F2
FE
00
FE
FA
FA
FA
08
10
EC
FD
EE
F3
11
F4
05
FF
F0
F5
EB
06
FA
00
F7
FE
0D
0C
0A
0D
F7
F4
F2
0A
EC
F1
11
10
FF
15
FB
F8
13
FE
F1
F4
0B
FF
FD
F5
03
04
04
03
05
F1
10
F9
05
FD
05
13
F5
FB
04
FC
0E
FD
FD
01
02
01
00
01
13
10
0E
07
F0
01
0E
11
FE
09
03
F8
F2
10
FC
FF
0D
0D
04
03
FD
FD
FC
0C
F1
0C
13
0B
EC
EE
12
03
02
0E
EB
0D
EC
07
0D
ED
06
FF
0B
10
0C
F1
10
0A
EC
03
F0
EF
0A
00
07
EE
F8
0D
FD
F8
02
FD
F7
F2
FA
F6
F8
F5
00
F2
0A
EE
FE
EB
EE
FF
FC
0F
EF
F1
FF
FE
F2
EF
13
11
FF
EB
0B
F8
F4
F6
F3
11
13
F2
0D
F1
F4
02
06
EE
F1
FD
00
EF
F3
FD
F2
05
ED
0D
0D
EA
F8
E7
0F
F8
09
FF
0F
F0
F4
05
11
0E
0A
EC
02
FC
EF
F9
0E
F9
0A
FC
F1
01
08
FE
FC
12
F8
F8
FF
01
0B
01
0E
12
F4
0F
F4
F4
08
17
17
FF
FE
0F
F1
FE
06
FD
0F
09
F3
07
FA
13
F5
05
06
F6
12
11
14
03
F7
0B
0A
F6
16
FE
0D
06
FA
04
F9
0B
14
09
08
02
FB
F7
00
ED
0B
F1
F1
0B
FD
FB
0F
F5
09
F0
02
00
EF
FF
06
F0
09
F6
FF
ED
09
00
07
10
07
0B
EE
08
F3
02
12
11
F8
0E
08
F8
F9
FC
EC
07
F6
F7
F4
02
06
07
FD
05
ED
FF
F0
08
0E
EE
02
09
06
FC
FD
05
10
03
F2
F0
EA
F9
02
0C
F3
FB
0A
01
00
0B
09
FD
09
05
FC
F5
09
05
FC
F9
09
14
EF
02
11
0C
F2
FD
F2
F7
05
FC
13
0D
0E
00
0C
F4
02
03
03
0C
0C
05
F7
0C
F1
F6
F0
F5
FC
09
F0
01
05
EB
FB
15
F9
FB
06
15
FA
13
0C
08
EF
F0
F0
09
F9
01
10
F8
F5
ED
07
0B
09
02
FC
FC
EF
0C
07
04
07
FA
07
0C
14
10
07
06
F5
FA
F0
02
10
02
00
0A
02
02
06
F4
FF
FA
FA
FD
F4
EE
EF
06
EF
F7
FA
FB
F7
05
F3
01
0E
F5
0E
12
F1
FC
F0
0C
F6
FE
F5
F9
0F
F2
F2
F1
F5
06
05
FA
01
F8
06
EE
F7
06
0A
13
FE
F3
F7
01
FF
10
01
F7
FF
11
F5
05
14
0D
06
F2
0F
F8
0F
0E
F1
F4
EE
02
0C
FF
FD
03
FB
FE
F4
00
15
0B
05
F1
FD
17
F8
FB
EF
09
09
0B
02
FB
02
EF
02
FB
06
10
F8
05
00
F8
EA
ED
0C
F8
FE
10
0B
0C
0C
F1
FC
F9
04
13
12
0F
EF
FA
0A
F5
01
F5
FE
F2
12
04
EE
03
0D
EB
0F
01
F3
0B
0E
01
F0
F7
13
02
F4
01
05
F8
FA
FB
F4
FB
02
04
12
14
F8
11
0F
06
F4
08
07
FE
F4
F6
EE
FB
FF
F7
08
02
09
03
F1
FB
F8
FE
05
0F
08
F4
0D
FC
FE
04
FE
05
03
03
09
F7
F3
01
02
FF
F6
FE
FA
F6
05
05
0B
00
11
01
02
0B
11
F7
FF
FD
02
0E
0C
10
FD
FF
FB
00
FC
F8
F2
0A
08
06
10
0E
01
F8
FD
14
ED
11
FD
FD
02
14
F6
F4
04
F5
04
0B
0A
00
07
09
F8
03
FF
FD
F4
14
0D
03
ED
09
F2
F2
0A
01
EF
0E
0E
FA
08
02
F7
F6
13
FF
11
07
F9
ED
FF
EB
05
14
F9
F3
0F
0C
F7
00
F1
EF
0A
FD
17
FE
FD
E9
11
FB
01
F1
F3
05
00
0C
F1
F8
10
0E
F7
01
ED
F5
F2
FF
FA
FB
F2
00
0F
EF
0D
F2
FD
F0
F8
F9
FA
00
EB
10
F0
15
04
EE
11
01
FF
F6
EC
F6
0A
FA
11
0A
F9
08
0D
EF
EB
02
07
11
08
FB
15
FD
0D
EE
FD
03
16
0E
F3
0E
ED
02
07
0A
0A
EB
F1
16
FC
0F
F1
04
F4
0B
FD
FA
F1
08
F9
00
F9
FC
F7
F5
F9
F0
FD
FB
0F
F3
FC
0C
0D
07
03
02
02
FA
06
0B
08
FF
01
0F
F9
0C
FA
12
11
F6
F0
0A
02
10
F5
0B
0B
F4
09
0E
0C
FA
03
0C
12
15
14
0F
F7
08
F0
06
0D
F1
00
FB
0F
0E
07
03
00
F4
01
08
FD
F3
0B
08
F2
13
FF
EF
0C
02
F6
0F
F5
F2
05
F1
FD
04
09
10
F3
08
0C
F7
11
FE
F8
FE
07
0D
0B
F6
0A
13
EF
12
F0
00
07
00
0C
08
10
03
10
EE
F3
E9
F3
08
FD
EF
03
FE
12
0D
F4
00
10
FA
0F
08
F8
0C
0E
03
F0
08
05
0F
0A
F5
F2
0A
F7
03
F2
11
F5
F5
F7
08
10
09
10
0C
F0
0E
0B
06
04
07
F1
F9
F6
03
FE
F2
03
F2
11
F6
0A
09
13
F6
F8
0F
F5
F1
03
02
F9
00
0D
00
FE
14
EE
FD
F8
F9
F5
02
F4
F3
0D
09
0F
08
10
0E
05
ED
EF
ED
0E
04
08
FD
F5
EB
09
EB
08
F7
F1
FB
04
01
EF
08
10
0D
F6
FE
F3
06
F3
14
04
FC
00
12
0C
FB
00
01
03
F8
0B
00
0B
03
01
0B
FC
0D
F9
09
EC
F3
0A
F2
03
04
05
0E
FF
05
F1
F7
F2
13
F6
FB
FB
12
FE
0C
0B
F0
07
0F
0E
FB
FA
FF
01
0C
ED
F4
FE
13
F7
F3
0C
F4
0F
FC
05
FF
15
F4
11
F0
0D
0A
F4
0D
F3
09
0F
F6
F9
FA
0C
F2
F5
05
F0
10
F1
FA
13
F2
0A
F3
F2
F6
10
F9
04
13
01
05
FE
0E
04
FC
F5
F1
0F
F3
13
FA
EE
FC
FB
0F
EF
ED
F0
EA
FD
06
F1
F7
F2
F7
0D
0B
FB
FB
08
04
0D
03
0B
01
F5
FC
03
0A
FE
F2
F2
00
10
FD
FF
F5
F9
11
FF
0D
FD
EF
11
EE
01
F6
F8
F9
FC
F5
0A
F7
10
11
03
EE
FE
03
12
F6
12
F4
FC
F3
EF
FD
12
10
F9
04
13
F4
F1
0B
11
F4
FE
EB
F8
11
F4
0E
12
11
F7
0D
F5
11
F8
EE
FF
03
04
08
FE
0B
F0
0D
F7
FC
EA
F3
F8
02
09
00
ED
14
0F
EF
02
0A
0E
0C
F2
FD
07
07
0C
06
10
F2
03
03
F7
EE
FC
14
0B
F8
02
01
03
0C
10
11
EF
F6
F6
0A
07
15
FD
F2
12
EB
FC
EC
F7
0C
08
F5
10
09
0E
ED
F5
03
FC
05
0D
0D
02
F7
FC
0B
F2
04
F7
F1
0A
F3
EF
F0
02
FC
0F
F2
08
FC
F9
FF
05
F8
FA
EF
02
11
07
14
0A
F2
F9
FD
0A
12
F1
F6
11
FF
E9
0E
11
05
F2
EF
F1
09
0C
FE
F4
0A
14
0C
06
F3
F1
10
FD
0A
03
F7
FA
14
02
09
0C
EF
F4
09
F9
0A
00
0D
0D
0B
13
01
05
00
EF
05
04
0B
04
F6
F2
FC
EF
0B
0B
F0
EF
FB
02
F0
0C
EC
EE
0A
EF
00
06
06
0D
01
F8
16
0C
00
F6
07
F1
F6
F2
F0
10
01
F9
EF
F4
F4
F5
0C
0B
F3
F9
0F
03
F2
FC
05
F8
F9
07
02
0E
08
FB
0A
EE
02
ED
F3
F5
FA
00
16
0C
ED
EB
06
F9
0E
09
F9
FC
03
07
03
F5
F4
03
0B
07
F4
0D
00
08
15
F5
07
04
11
0D
FC
0A
08
F9
EF
0C
F1
F4
EE
06
FE
F3
FD
04
0E
F3
03
0D
F4
FD
06
F6
FE
FA
F9
EA
03
EB
FA
03
F8
02
14
F7
0E
F0
FE
F5
10
0A
10
FA
F5
0A
F4
07
FA
16
F7
FE
07
0B
12
F1
FA
00
08
0F
17
F1
02
0C
02
12
04
01
FC
FF
F5
0E
F3
F1
FD
F2
FD
F3
10
07
04
FC
04
F9
0C
F7
0B
0B
FD
F7
FD
0B
FB
FD
F9
10
02
0C
F7
0B
ED
FB
EC
03
FD
00
12
EE
09
0E
0E
0F
14
F2
02
14
02
F6
10
EE
12
F8
02
07
EC
10
03
EE
F3
00
F6
F1
12
FE
04
F3
0E
0B
0C
FA
11
11
15
00
EE
15
06
0B
00
14
0F
FE
FB
01
F6
01
F7
01
15
FE
06
F5
08
F2
F5
FF
F9
0B
F7
FD
F2
12
0B
0E
F6
14
0B
02
0F
0E
0C
F1
03
0C
EE
04
01
01
0A
0C
EF
15
06
F2
FF
F0
F3
F5
FE
00
0A
01
FB
ED
0F
0E
01
13
FD
08
13
FD
09
EE
09
07
0A
F8
FF
FD
00
05
F5
EF
10
12
EE
EB
00
F7
0F
01
FC
F4
12
F1
F5
F1
12
08
0A
0D
FA
F4
0B
04
0D
FB
F8
0A
FA
06
0D
F1
08
EB
09
FF
F4
FB
FB
F1
05
ED
F7
FD
FC
F3
06
0F
0E
0B
EC
F6
F0
09
FD
03
09
04
FA
04
EC
F5
FB
F8
11
EB
03
12
FE
FC
10
05
FC
09
ED
08
05
09
08
07
EB
0A
F2
EA
EE
ED
01
12
0A
14
FE
07
02
0A
09
F8
F8
10
FB
F2
02
11
0F
FA
F0
F4
05
F2
F9
05
FE
FE
03
0A
F7
F3
0A
EC
FD
F9
11
01
F7
12
12
0F
F5
FD
0D
14
FB
02
08
FB
01
11
F1
FF
F5
00
EE
F6
FC
FC
F5
01
0A
0E
FC
10
02
02
0C
FA
FA
FB
F2
FD
02
02
EC
FB
0C
F0
0A
F4
0B
10
0C
F7
0B
08
EB
0E
F1
10
FB
03
FE
F9
F8
FA
0C
03
F6
10
07
09
F5
10
05
EC
07
04
03
01
12
0B
EE
FD
F6
F1
09
F8
02
EE
00
EC
13
F4
0E
05
03
06
EF
15
06
02
04
F0
F6
11
FE
0C
F0
EE
12
09
FD
10
EB
0A
05
06
F0
FC
FD
06
11
F2
EF
05
09
FC
07
11
04
F1
08
FB
11
0F
FF
0E
06
F5
10
04
F7
EE
F5
EA
0D
0D
11
10
F2
F8
FA
EE
FE
08
F9
09
0E
0E
05
FF
01
0B
FF
F3
F4
FD
F2
F8
05
ED
FF
ED
10
FF
EC
F7
F6
F8
0A
18
0A
10
0B
07
ED
F6
F1
F3
07
01
F4
12
05
FC
11
0D
F8
02
FD
EB
11
09
00
07
F9
F9
0C
0F
F9
F2
F9
F3
F1
0C
F2
F5
F2
15
F1
FD
EF
0E
FC
09
00
10
F3
0C
FE
10
FC
15
10
EB
0B
FA
0A
13
0E
EB
0B
F5
0C
0C
F1
FC
13
F6
F4
F3
04
0E
05
0A
15
0B
FD
02
07
06
F8
FC
00
07
FB
F5
EE
05
06
08
11
F4
FC
07
01
03
FE
EE
FA
F5
15
FA
09
EE
EB
05
05
F0
F7
10
0E
FF
F1
EF
02
F1
ED
FF
F6
07
F7
05
00
13
F8
0A
12
FE
F1
0E
07
FA
13
F3
12
F6
F2
EF
F5
FC
FD
F0
00
09
04
10
EF
0E
07
FF
11
08
0E
00
0C
FC
09
04
FB
0F
F2
10
FD
0F
0A
10
F8
EC
F6
F3
02
08
0D
05
FC
F9
FD
08
F0
EE
12
07
F7
ED
0C
F2
04
0C
F7
0A
01
11
08
FC
FA
13
FD
14
F5
F1
13
F1
00
03
FC
0A
01
00
04
F2
0C
F8
08
EF
FD
00
FD
F2
05
01
F5
EC
12
0E
06
F2
0D
0D
05
08
FA
F6
14
F4
13
FF
EE
12
FA
05
EE
01
F4
F3
06
00
F6
10
F2
13
08
10
0E
0C
F6
FC
06
F0
EF
08
EE
EE
FB
17
0E
16
F1
FB
F3
06
FB
0D
F4
ED
13
F4
00
09
F8
F6
09
F9
F5
F1
FA
F0
FD
EE
0C
FB
05
03
FA
12
FD
09
11
0F
F6
0E
EF
00
02
F8
0A
F8
0B
0C
05
FF
11
11
F0
04
01
F0
0D
02
FA
15
EC
FC
02
06
FD
0B
0E
00
02
08
09
F8
07
F1
EF
12
F1
08
01
0A
F2
0F
FC
10
FA
F7
F2
0C
FB
F1
ED
FC
0E
F9
EE
F6
FD
0E
02
FC
EE
09
0E
04
01
F6
12
FB
03
F3
01
11
05
03
F0
0D
FF
EE
09
F1
02
0B
0F
0F
EF
F4
EC
03
FC
10
0E
FC
F3
02
FD
0A
14
F9
0A
00
FF
12
02
15
09
0C
F3
0A
05
0A
04
11
F7
08
F2
03
F8
EC
11
0E
00
07
ED
F4
0C
FC
0D
FF
FE
0D
09
0F
0B
02
08
ED
0D
F2
0E
02
F3
07
F4
F7
EB
0C
0B
05
F9
07
08
F7
08
F6
08
0B
08
02
08
08
EF
09
08
0B
15
05
09
FA
FA
EE
0A
F4
F1
11
00
F7
F0
EE
08
F9
0C
F0
04
09
01
F7
FB
F6
FD
F2
02
F1
EC
05
11
06
04
F0
F6
07
08
FB
03
08
11
15
12
09
ED
0D
FD
F0
0A
FE
F1
02
09
07
0D
0C
0C
02
F1
EE
10
12
FA
03
F2
F5
01
0E
06
FD
09
0F
EE
0F
0E
FC
FB
01
F9
04
02
11
10
F5
EF
F1
F3
12
07
12
11
F9
FC
EC
0D
F3
FB
ED
F2
04
FA
ED
11
FC
F0
0B
0B
F5
FD
04
06
00
01
02
F4
0E
0B
06
0B
F4
F9
FA
EB
08
0C
00
01
F4
12
08
F4
0B
12
0A
10
F0
FA
10
0C
11
FB
EE
F1
F7
F2
F0
F5
F4
08
F3
10
FD
F5
10
0F
FC
F4
FA
11
13
F8
01
FB
F0
0D
F8
F5
05
01
10
00
14
03
F9
FF
EF
FE
0C
08
FE
F1
0F
F4
14
12
0D
00
11
F0
0B
06
FD
F2
0E
08
F5
13
0B
FC
02
FD
01
02
09
F1
07
F9
F6
FD
11
0C
F4
0F
FE
ED
FE
F6
04
13
F6
03
FC
FF
F8
FF
F9
F2
0D
F1
F4
F9
03
03
07
0D
F1
13
F5
03
FA
09
F4
FD
0F
00
07
0F
EE
FC
FB
08
F8
EE
14
0A
EE
EE
EB
06
0E
14
F6
04
0B
EF
00
FA
FE
10
EE
07
08
01
0D
F8
F1
F3
11
05
F7
0F
13
13
F3
08
12
F2
0A
F9
F3
04
F3
FB
F0
F3
0B
FF
13
FF
F6
F7
F7
0A
0B
11
FF
07
01
F8
F5
FD
14
FD
07
07
14
02
FE
11
00
FC
11
08
F7
F7
11
F2
0F
F9
07
08
09
F1
11
01
FB
0E
05
14
01
F3
0D
F2
F0
0F
0B
F6
09
01
F9
15
F4
EB
FC
FA
00
EA
0D
0D
F4
04
12
03
04
09
01
FF
06
FC
02
0F
F9
EF
EB
FE
0F
FE
F8
ED
13
EF
12
07
F4
0F
13
0E
03
0D
0C
F4
EF
10
04
01
04
F8
01
0C
F1
F3
ED
F8
F0
03
11
00
F2
13
FD
0A
FD
F1
FD
14
06
02
09
05
0B
FA
F2
09
08
F7
0A
FB
F8
F6
FE
11
02
08
FF
02
0B
11
07
F8
F3
FC
0C
00
ED
07
0F
FF
04
FF
04
EF
0B
08
EC
05
FB
0F
08
07
F1
ED
0D
F5
FF
09
10
0E
00
0C
0A
F8
03
02
0A
F1
02
0B
05
14
FB
0C
12
00
10
F2
13
F9
FE
EE
00
07
0C
FD
02
10
F2
ED
F5
0C
0B
F5
0D
09
EB
FD
FA
03
01
10
F4
0C
14
F9
F1
14
03
EB
12
F2
02
0B
FF
FA
09
FD
06
01
07
F5
EE
F4
0A
FA
F8
FB
0F
FE
12
F6
07
00
0A
EE
FF
F5
FC
12
14
EE
EF
0C
F3
0B
F3
FD
08
F9
12
FF
0E
EC
F4
F7
06
04
F8
F1
F7
F6
09
02
FB
FA
FD
FA
FB
06
02
01
08
F6
04
FF
F9
F6
F1
F6
F4
06
0B
F3
FF
ED
02
FB
12
0B
03
0C
EC
F5
EF
0C
00
FC
04
0E
0E
08
F1
00
FD
0C
F8
0D
0B
07
06
FE
F9
06
07
0C
08
F0
F9
04
0B
FE
02
FF
0F
F6
FE
F7
04
ED
F0
02
0B
FC
EF
08
03
FE
01
0E
12
0B
0B
F4
11
EF
0F
08
0B
F7
0D
EE
07
00
00
0A
F6
EE
05
F7
02
02
0A
FF
FA
0B
FC
F3
02
F6
13
FE
04
F8
0B
0A
FF
04
FA
F7
11
F7
07
EF
11
FB
12
0C
00
14
F4
09
F2
0E
FB
10
0A
F4
F7
0F
F5
04
F7
F0
F0
04
FD
EF
F9
F7
10
03
F6
03
05
10
EF
EF
01
F3
0F
13
FF
ED
01
10
03
08
F4
FF
F2
01
11
F3
ED
04
FA
06
F7
FA
08
F2
FD
06
04
F5
00
FF
0F
FA
15
13
FB
05
00
EE
FB
09
FB
05
FA
07
0A
0E
02
EF
08
F3
0B
F4
12
0A
0B
EB
F6
F7
01
F4
02
08
0F
F9
00
F8
F2
0E
10
F8
F9
FB
08
0E
08
11
09
0F
08
0A
F3
ED
FA
0C
F3
FC
13
12
F8
F4
01
F4
F3
0F
13
03
09
FF
F1
F2
11
0B
F6
07
0B
0D
FA
00
07
F3
F8
00
F4
0F
F3
0D
F6
14
07
04
0F
FB
F7
01
0B
FF
EB
FB
00
F6
0A
FE
0F
FD
FE
03
13
FE
06
EE
0B
01
0B
02
FA
EE
EF
0E
0B
EE
0A
F9
FC
02
06
FE
14
00
06
05
F6
F0
FF
08
13
EF
0B
04
01
11
05
F0
04
0C
F5
EF
02
02
03
F1
0D
05
0D
F1
F4
0C
02
F5
F3
00
F3
F1
FD
EC
F0
05
00
FE
F9
03
0E
FD
05
05
EF
EF
10
ED
F4
04
EC
00
0A
F6
FF
0A
FF
11
05
0E
00
F8
02
F4
0B
FB
05
FF
11
0B
F8
06
F3
0A
F9
F9
08
0C
06
FA
ED
F3
F3
09
0F
0B
FA
02
F9
EC
F7
0D
FB
F3
F1
FA
0A
0F
FC
11
F6
09
13
07
0C
F1
F7
0D
F8
0A
0F
06
14
02
0D
01
F8
FC
FE
00
F4
FE
04
03
00
FA
07
06
02
05
FE
01
F5
F5
03
0F
EF
F6
F9
00
FC
F8
F9
FD
02
0E
06
FE
07
F4
0F
06
0F
EF
00
F4
03
FA
0F
F1
F9
FE
03
13
ED
FD
F2
0A
08
FC
07
12
F9
09
F4
F6
EF
0E
F1
03
F7
FC
F1
00
0A
06
F6
0C
F9
02
09
FE
EC
F7
F8
15
FE
0F
0E
F6
07
F7
08
F4
FB
F7
0F
FA
F8
04
01
F2
0B
04
FC
EE
05
F3
ED
F1
F9
02
EE
0D
0E
0F
FF
0B
05
08
F1
12
0F
03
ED
05
08
EF
07
05
FF
07
05
05
F0
F1
FB
11
FE
0C
00
E9
FD
12
F3
FC
F0
0C
01
02
F7
FF
F9
F2
F3
FD
EE
04
0E
0A
0E
0F
05
0A
09
F1
F5
08
ED
00
07
0E
F1
F1
07
FB
FB
FA
04
0B
F8
EB
0C
0D
00
10
13
F7
FE
F9
00
13
FA
FD
0C
F5
FF
0F
08
F5
FC
FA
06
FD
02
0A
FB
FC
06
12
0B
FE
0A
07
F5
FB
FD
04
FD
F2
FA
ED
FC
FB
06
0D
0A
05
03
0E
0B
F8
0C
0E
0D
F2
0F
0F
05
F5
0C
F8
FF
F8
F2
EB
04
F4
FF
FE
0C
0D
FB
FF
EF
F0
0A
02
07
02
00
EF
EC
07
FC
08
F7
13
0B
FE
FF
01
07
F5
FD
FA
FC
09
F3
FA
FE
F5
F8
04
10
FE
07
0B
FF
14
0D
0C
13
06
07
0F
01
01
12
05
0D
0E
03
0C
0B
F6
FA
F0
FD
03
0E
FB
FD
FE
F8
08
FD
16
09
0F
0C
F1
F3
03
F6
FF
F2
13
FE
13
06
F8
0E
09
FF
0A
F8
04
00
F0
0E
07
04
10
01
05
F4
0A
F5
EF
01
0D
15
FC
0C
F9
FF
FC
10
0B
11
FB
0C
F6
F7
EC
FC
12
F9
06
13
0C
09
00
12
F4
01
08
F9
08
08
01
0B
F4
FC
0B
FF
08
10
00
01
F7
09
13
00
0D
13
0C
F9
F2
01
09
F4
08
FB
F9
03
01
F4
02
EE
08
F2
03
FF
08
FD
06
07
FE
08
F5
11
FA
FD
EC
F0
09
F4
FD
FB
F5
FB
F1
00
0D
F7
09
0B
15
F4
F6
FC
04
EF
13
F1
FB
06
09
15
FE
14
0D
F0
F7
06
08
EC
0E
10
0F
10
01
F9
F2
10
FA
14
01
F1
09
15
EF
FF
F1
10
F8
09
07
FB
10
07
F4
07
F7
0B
F7
F9
09
05
01
F7
10
F3
0B
F6
ED
ED
FD
FE
F3
06
06
F0
04
04
0E
F9
0A
07
F7
0C
F8
01
0E
F6
0B
FF
0F
00
F8
EF
F1
0B
FB
F3
F5
09
06
01
0D
FE
03
FB
FD
09
F4
FF
05
07
03
09
FA
05
0C
F3
F5
07
02
F5
F2
02
F0
15
0D
05
09
0F
11
07
11
0C
00
13
05
FF
F2
F5
EF
F9
0C
10
FB
EF
F8
03
0E
E9
0C
F7
F4
12
08
FA
FA
0A
F1
0A
FC
10
FC
EE
08
F2
12
EC
04
12
FB
03
FC
F1
0A
0B
ED
10
F9
0B
04
12
05
11
FF
0F
FB
0B
01
0F
0A
07
F2
EE
F8
FF
10
08
04
FA
F0
F7
0A
FA
12
11
FE
01
0D
0E
F7
07
05
0F
0F
0C
FD
06
10
F5
EC
13
FC
0C
02
02
F1
0F
05
FD
10
EE
FF
F6
FE
00
F7
F6
F8
F8
F7
F8
01
F7
0B
F6
F6
F8
0F
04
02
FD
F1
10
F7
08
F1
04
EA
FB
F2
07
F0
0B
01
FA
F0
FE
13
05
FA
EC
F5
0B
FE
EF
01
0E
0E
04
14
0C
12
06
10
0F
12
03
04
0B
EC
06
FD
07
FC
F8
FC
FA
F2
F1
FE
F2
F4
F9
0A
04
0D
F2
F5
10
F2
03
FF
ED
10
FE
05
F6
F4
EF
F2
0C
FC
0C
08
F7
FE
F7
F9
FF
0B
05
F6
0A
FD
00
11
F5
01
0F
FF
0B
03
07
F8
07
FA
08
07
08
F1
F6
FC
03
FD
FE
06
0E
F5
0D
F7
FC
0D
F7
FC
02
0A
FE
FF
13
01
0F
11
0F
F7
FE
0C
07
0D
10
EC
10
18
FD
F8
07
03
F4
0B
01
EE
13
0A
F4
03
12
0A
06
02
F9
F5
08
F4
F2
12
03
F3
0C
F0
04
F3
0A
FE
04
05
F6
F9
0C
EE
07
F8
11
F3
02
F6
0F
02
F2
02
0C
FA
12
FE
03
F4
F7
FD
F7
E9
05
03
15
EE
00
EB
03
07
14
02
10
EE
FF
F3
0D
0F
02
F8
FD
0F
07
F4
03
FC
F4
F5
0C
04
FF
F5
F6
F9
08
08
09
05
06
0C
EE
FC
F0
FF
F5
F8
FB
06
04
FB
F6
F3
00
04
FA
08
F8
F6
05
02
0F
10
EE
06
0E
FF
F7
FB
01
08
F4
07
FA
00
F0
01
01
F4
14
07
06
EE
EE
EC
07
10
0E
04
13
EC
F0
01
FC
0E
F4
F2
F8
05
01
00
07
F4
0C
FA
FF
0D
08
F6
03
FE
F1
FD
0D
07
11
0F
09
F9
0E
08
05
02
F3
05
11
06
EE
02
08
04
01
10
0E
F7
11
03
EC
F6
F6
10
FF
00
F0
F2
0E
02
0F
0F
FB
03
F3
0D
0F
02
FD
F9
F3
12
0D
FF
03
06
F5
0B
0E
FC
11
00
F7
FD
FC
EE
00
FC
EE
08
0F
FB
FE
11
01
FE
10
04
EC
06
02
08
ED
0F
FF
05
00
F9
0B
FE
F8
F6
00
F1
0B
EE
0F
F7
EF
FA
02
F4
15
0F
FA
FD
F3
17
13
EE
11
FC
0E
F7
0A
05
F8
F0
09
05
09
FB
FC
15
FA
08
F1
0D
FD
FD
FD
EE
FE
09
05
EC
09
F7
FB
00
0C
F7
F7
13
FF
07
F6
F5
F3
F6
06
FF
F7
07
08
F5
08
FF
06
07
F9
0D
F2
EC
05
04
05
05
F4
F9
FB
F2
FD
06
FF
F1
10
F3
03
F7
05
F9
FF
0B
FE
0E
02
F0
0F
09
0C
0F
F4
06
0E
0E
F8
0A
F0
FC
FA
F0
10
F3
0F
F2
0C
EA
12
09
00
05
15
0C
FF
0B
02
06
0C
EF
05
04
0D
09
EE
EE
F4
EE
00
09
F3
11
F1
01
F4
FD
0E
F2
F7
0B
F7
FA
F6
06
12
00
08
0D
FC
03
0F
FF
0D
0D
0F
FF
0D
F1
EF
F9
0E
EF
0C
F7
0E
02
02
EF
F2
15
F4
F4
F6
EE
FE
F6
05
0D
FB
07
04
0E
FF
07
07
F4
EB
EF
0F
0F
08
03
F4
F6
F5
F8
00
EB
12
0F
EF
0D
EF
05
FC
07
10
FD
03
01
FD
08
FB
FD
EE
ED
0A
F9
EE
12
F7
0B
FE
04
02
F2
EE
F9
0F
FA
F0
F7
F3
ED
0C
15
EE
0C
F9
0C
EF
01
F8
F6
10
00
FE
F2
04
08
FB
03
F4
F5
13
EF
F6
FF
15
01
EE
03
EF
F4
F5
01
13
03
07
02
06
10
FF
03
0A
F4
02
F4
03
03
09
F3
F6
EB
F9
FF
F9
0A
01
EE
0E
F1
0F
EE
11
11
12
F2
0F
12
12
07
F3
FE
14
02
10
F1
FE
10
FE
FF
FC
0E
07
09
00
FE
0D
F0
F1
13
14
EF
F4
F0
05
0E
F1
03
F7
0F
06
F0
10
06
EB
EC
F7
F7
FF
F0
11
0F
F1
0D
12
11
EF
10
F7
12
02
10
0B
09
EE
14
06
0B
FE
04
00
FD
FB
F9
EF
F9
05
01
07
FF
02
00
F4
02
05
0A
F2
05
F2
07
06
00
F2
12
12
F4
0B
05
09
EF
04
0F
F5
F8
F9
EB
08
F1
F3
0A
0D
02
11
F9
F1
FC
00
0C
13
FF
F1
F7
10
01
EF
F4
09
00
EA
E8
FE
0A
0A
FA
FD
FD
FD
F4
0B
0D
F8
FF
F8
00
F1
EE
0E
ED
0B
F0
F7
01
F8
02
F0
0A
EF
08
0E
09
F7
F4
08
F5
F3
F0
F9
04
FA
FC
F8
FC
FC
F8
0C
0C
EE
08
15
F8
10
FB
09
08
00
FB
11
F7
0A
F6
10
F8
EF
FB
FE
12
08
10
EC
04
ED
F1
F7
F5
00
0D
F9
00
F4
07
14
04
F3
EE
09
FB
08
04
F3
03
F9
0E
F1
F5
FA
01
F1
0E
F8
F5
00
F9
04
11
08
F7
04
F8
EC
06
04
06
05
F9
0A
F8
F2
09
10
05
F9
F5
FC
00
06
F7
FF
12
0E
05
0A
0C
0A
F9
FC
F1
0F
0E
12
F3
F9
F1
FC
EF
F6
07
0C
03
F8
FA
08
03
FC
EF
EF
EE
F2
05
12
F2
11
F1
F8
F3
0E
01
F1
F8
02
09
0E
09
03
F4
EF
07
05
02
04
EF
12
02
FF
06
F7
03
F2
FD
04
FF
0B
03
00
03
F6
FF
F3
F6
F2
0F
F7
0A
05
F4
FD
0A
F3
10
04
FD
0C
F6
0C
F5
0B
01
F4
09
F9
F6
F2
0E
F8
F3
F0
F2
F3
08
FC
F4
F9
F9
0F
F6
11
09
F4
F0
F8
0D
F4
04
03
12
F0
08
F3
0A
FA
F2
07
0A
0A
F3
FF
F6
F5
F8
F2
F7
FE
10
FF
03
02
10
FD
14
03
F9
F6
F9
FE
08
F2
FC
F0
05
13
06
FF
FE
0E
F3
08
F8
02
ED
F6
F2
EF
0C
0F
FF
FB
02
0F
F2
0F
FA
FF
09
07
05
03
ED
FC
F8
0C
FA
F9
FA
F1
EC
00
11
FA
0F
05
09
F4
04
07
EF
12
00
10
0F
01
F1
F9
08
EC
10
00
11
FB
06
FE
0B
EF
F6
F1
EE
F8
00
02
F3
01
07
07
0D
09
08
F5
02
11
F8
11
0C
FE
0F
07
12
0F
FC
02
FA
F5
F6
F9
F5
08
FC
0A
0A
0D
FF
03
F2
F2
F3
04
03
0E
F8
F6
F5
0B
F8
FA
02
0E
F4
06
05
F5
0D
F8
F6
FC
F3
EE
F6
F6
F3
ED
11
14
07
12
F7
FA
0F
0B
0E
05
0D
F0
03
EF
11
F6
14
01
FD
F7
07
FA
03
F1
08
0C
F6
F7
FF
F1
14
F3
F9
00
0B
F7
F8
EE
F6
F3
11
0F
03
02
EB
08
07
0F
F3
F0
10
11
0E
05
0D
06
02
10
F8
F9
10
11
07
07
0F
F1
0C
F5
09
F3
05
F1
F2
EF
F6
09
F1
05
0F
F6
14
07
FB
F8
F3
FB
0F
F4
FD
10
ED
F2
08
00
0C
0A
FD
F1
09
FD
FC
EE
0F
15
09
04
02
0B
F4
F9
F7
0A
08
01
F4
EB
FA
F6
0B
10
11
08
F1
01
EF
F6
0B
00
05
0D
13
01
0D
FA
06
05
12
F4
11
08
0B
F9
14
FD
0A
03
F1
09
0E
EE
14
F9
FA
07
F5
F7
0A
0A
F0
F1
FE
F5
00
EF
09
0E
05
F5
F4
F9
01
F8
FE
05
12
16
FA
F0
0B
0E
F2
03
0C
0D
05
F6
F5
10
FE
F0
FA
01
F6
13
0C
08
09
06
05
05
0D
09
EF
EB
0B
03
10
01
0E
0A
13
03
EE
F2
08
0F
0D
00
F1
05
0A
08
0A
04
FC
0D
04
F6
0D
F0
0C
EB
F2
F2
F3
F1
0C
0F
F3
F9
F2
FF
0D
04
04
01
13
F7
10
0F
F1
FD
F7
F2
F0
09
FE
F2
FD
F4
F8
FD
EC
04
02
08
0D
F8
F0
05
ED
FF
04
F4
11
F9
00
12
0D
11
F5
FD
F9
FC
FA
09
14
05
F1
0C
F7
15
10
EE
EF
0D
05
02
FC
09
F0
08
FF
01
0B
FD
FE
03
02
0A
09
05
FC
EE
10
F6
F2
F7
FC
0F
0B
F9
04
12
00
0B
11
0A
0C
00
EE
F1
0A
09
00
0F
F5
09
F5
FC
0E
03
01
0A
FE
F4
EE
00
07
F2
F5
0B
10
FC
F3
0E
F4
11
00
F4
07
F0
F8
F4
ED
F5
13
F7
0C
12
10
F8
F5
FF
FA
F3
13
F9
02
F4
FB
05
F7
EF
FC
F6
13
03
F1
FC
06
05
08
08
F4
F6
0C
FC
03
06
FD
FF
EE
0E
ED
0C
01
EE
F5
FE
11
FA
00
02
FA
F8
03
F8
FD
0D
13
00
0A
11
FE
FB
E9
FE
F2
14
FF
FE
05
