F4
03
ED
01
0D
ED
F4
05
09
09
F6
FA
0C
F2
EF
0B
F1
F6
13
0D
04
F2
F5
10
02
0C
FA
F1
00
F6
09
09
FB
F3
F4
F3
0B
00
F3
F6
12
06
EE
EF
0A
FD
FB
02
F8
EF
0D
0C
EF
13
EB
03
F1
09
12
14
FA
EC
EF
0B
13
0A
F1
04
03
0B
F3
0F
F6
0E
F5
11
0E
F6
02
01
06
FE
FC
EF
08
00
05
FE
01
F6
07
11
FC
FA
F2
0A
EE
F5
F5
0C
0A
0A
0C
0D
09
0A
EF
FD
01
12
08
F0
F3
FC
0E
0E
F0
04
FA
0A
FD
02
12
0D
0B
07
F5
10
0B
F2
02
F3
F1
07
F1
EE
0F
08
10
07
F5
11
05
F3
0F
F9
F6
01
02
F0
10
F9
F3
F9
0F
09
0B
F1
05
0F
EE
FB
08
FC
02
0D
0A
FB
09
EF
03
02
FE
FB
07
03
FB
12
0E
F5
F4
F4
0C
FE
F7
0A
12
F5
14
06
F3
05
F2
F7
08
F8
01
FB
F9
0B
F7
01
05
04
0D
F8
F1
0B
04
00
08
11
13
0E
07
03
02
F6
11
FF
01
04
F3
01
F9
FD
0D
04
FA
FC
09
00
F2
08
F8
0B
EC
0D
F7
F7
13
0A
FE
09
EF
EE
F2
FB
F9
10
EF
ED
02
0E
10
F5
11
F1
F2
08
00
F8
08
F6
13
07
F0
F5
05
F2
F4
F4
0D
00
FE
F9
00
F2
F9
0C
00
EF
05
F8
F7
F7
F8
06
F9
0B
01
01
F8
06
F6
FA
0E
01
F8
09
F0
FF
04
05
11
F8
14
0B
17
F2
0F
14
F2
08
F1
FF
F5
00
0A
06
EE
03
F4
FE
05
07
FE
F6
10
F5
0B
00
F0
FD
02
F7
F6
0D
08
EC
FB
F3
0B
02
10
13
0B
FC
FF
07
02
EF
0D
EE
F0
F7
F3
F0
0D
0A
F8
13
14
12
EF
F3
FD
10
03
08
0E
EB
FC
0D
F1
03
FA
0B
03
F1
11
EF
EF
F8
F0
0B
04
07
FC
F9
EE
0C
EF
02
F5
04
03
F3
0D
0E
11
F8
13
EC
05
FF
09
0A
FC
0D
10
F9
FA
F1
F2
FC
11
0C
F8
EE
FF
0E
F6
FD
F7
F9
10
EF
F2
00
EE
F6
F3
12
05
08
F1
FB
00
00
0B
FB
F5
FB
F8
0C
F0
EE
13
01
0C
02
05
13
05
10
F9
07
F6
F3
14
0E
F5
FD
FE
0B
12
06
FB
07
FE
FF
FC
00
FF
0C
F9
0D
F2
EE
FE
F8
0B
FB
12
02
F8
05
F5
08
FE
0B
0F
01
FF
0E
08
FD
F9
0C
FA
0E
03
FF
10
04
0A
04
07
11
FC
FA
02
FC
F6
F0
FC
F5
03
09
05
FB
11
07
F9
12
F3
EE
EA
09
09
FA
F1
F5
09
FA
EE
14
FE
13
09
FA
15
F4
09
FB
F2
06
F1
F7
15
00
F0
0B
0B
00
F9
0F
0C
F2
0E
13
09
01
F6
01
EC
FC
EF
EE
05
0B
09
06
FE
00
F7
08
05
08
10
ED
04
F3
EC
F9
0A
EC
F0
08
EE
FE
01
F4
00
FC
FA
0F
F7
11
14
FF
09
FC
EE
05
0B
0E
0F
FC
0D
EF
0B
07
F5
07
FE
F7
EA
FA
11
F8
0C
FB
09
FE
10
0A
F9
F4
FB
0D
F5
0F
07
FC
ED
F3
0D
0A
FC
F8
02
0A
F7
FB
F0
08
02
F4
11
0A
EF
12
11
F3
06
0B
16
01
03
0C
15
0C
09
04
19
03
0B
06
05
F6
EE
F5
06
EC
02
FB
FB
F6
05
ED
F2
10
F0
0D
F4
0B
0D
F4
F5
10
F3
FC
FD
00
0A
0D
00
F8
FB
EC
F8
04
05
F1
10
11
06
F0
0E
F0
EE
FF
02
02
07
13
F0
F8
0C
F4
0C
01
04
F0
EF
05
FE
04
F2
09
04
FF
04
07
07
FB
F7
FE
F0
0E
F6
10
FD
0B
FE
FA
FA
01
03
F4
02
05
0F
F6
FD
11
FE
03
EF
FB
FE
06
01
13
0E
F1
F5
F7
08
FB
ED
0D
F0
F3
F6
F2
02
FE
07
0E
03
01
00
01
09
F2
FA
F3
06
07
02
EC
F8
11
F1
F8
0E
03
03
F0
FD
0A
FF
01
13
FD
06
FC
05
06
F3
0C
FA
0B
FC
02
FA
F5
FB
EA
03
0F
F4
F4
0A
11
04
F2
F1
0A
F7
F1
04
FB
0C
FB
F1
F7
0C
F3
F4
FE
FC
FD
FE
02
0B
F8
0B
F2
06
02
0D
14
F4
F4
11
06
11
F2
F3
EF
F3
F7
F5
06
0B
F7
0B
F6
0E
0A
0A
FD
08
06
0A
FC
16
FB
01
F6
ED
F2
01
F3
FA
13
05
F5
F4
F6
F8
0B
15
FC
F5
19
02
0F
FC
F2
E9
F3
F4
14
FB
12
F8
F8
FA
0B
16
08
EE
03
F7
FE
F6
06
10
F6
F1
11
EE
F7
0D
06
0E
EF
00
06
EF
F5
01
FC
EC
F6
EE
FE
F1
02
EC
01
12
17
F6
0F
FA
08
F1
EF
F9
FB
F6
F5
FF
05
FD
FA
05
13
02
04
F8
FB
F0
0F
01
12
0C
05
0B
F6
EE
07
EE
FE
F6
FD
02
F1
F7
F9
F3
09
11
13
08
0E
F2
06
F1
10
F1
13
FC
F2
F4
09
08
06
09
0A
0A
F4
FE
0E
00
02
F3
F6
FC
FD
01
03
EE
00
FD
09
03
F0
06
0F
FF
08
04
F4
00
F0
FD
13
11
00
11
11
0E
02
FB
0E
FB
F6
FF
0E
F3
05
12
EF
F8
F9
02
0C
04
12
F3
12
EF
EE
0A
0D
FC
10
07
FA
07
10
F0
F2
F0
EC
0B
0F
F1
F1
F0
0A
F7
EF
F6
12
FA
FA
03
04
00
14
13
03
12
03
12
F5
0C
04
F1
FD
FD
F3
06
04
F9
04
02
0A
0E
08
F4
05
11
05
0D
F0
01
0C
04
04
10
02
03
F6
EC
0D
EC
F3
06
F0
09
03
EF
06
0A
07
0F
FC
03
0D
0D
0C
F4
F4
FB
05
10
06
ED
03
00
F1
00
07
F2
00
06
F8
0B
13
05
07
F7
0F
09
FF
12
08
04
FD
FE
07
F0
F2
EE
F4
F4
FC
0B
05
07
F2
04
F3
F5
0D
FA
FC
FA
ED
ED
0F
0A
0B
0D
F0
0B
12
0C
F8
10
FD
04
01
08
F3
F1
F9
0C
07
FD
FF
00
06
F5
FD
0A
01
F8
ED
02
0B
07
FB
F8
02
FB
00
EF
F3
05
F6
0C
0D
F3
0C
FB
13
12
03
F5
ED
ED
FB
12
F4
0C
12
0C
F3
FC
0A
06
EF
F6
FF
EF
FE
FD
01
0E
0B
08
06
EF
13
F9
03
10
FA
F6
01
F0
EE
F1
02
05
F2
07
F5
F5
F6
10
0C
04
EE
01
F8
10
F2
ED
0F
06
F6
FC
F3
09
FF
FD
EF
0C
10
0B
0B
F5
02
FB
F3
F2
0C
07
FD
0E
F0
FC
05
F5
0B
FC
0C
0B
0D
FD
FE
F3
04
FE
0B
FE
FB
02
FC
0F
03
0E
F1
F1
F4
EE
05
00
EE
11
12
F2
12
F9
F6
00
10
F0
F8
0D
F5
F8
0A
08
FC
FE
F9
01
10
FA
07
F5
0E
0B
0F
F5
10
FF
F9
F4
09
10
F0
FA
F3
FA
01
F8
F7
FC
F8
FA
F5
FC
F0
EC
F1
F5
F3
F6
05
11
0C
01
F5
05
F1
EE
0C
FD
F3
F8
FA
11
0F
FC
EE
F3
EF
0C
F4
11
10
FD
FB
11
09
F5
07
01
03
0E
ED
00
01
06
FC
12
0C
08
0F
ED
FE
F7
0F
13
09
ED
0E
0C
FF
00
F9
F7
04
10
12
F5
01
ED
0B
0C
06
FE
02
FB
08
08
02
F9
FF
ED
F0
FA
F9
12
09
10
EE
03
FA
0F
0B
EF
F9
14
08
F4
EF
0A
F8
01
F2
EF
02
11
F8
0C
12
EE
0E
0F
06
F2
F0
ED
0C
FD
F9
EE
F8
0A
EF
04
00
02
0B
EE
F3
0A
14
0B
F9
F2
05
01
06
0E
0C
F0
0D
FD
F5
EE
09
07
17
0C
FA
F6
03
EE
F9
FE
00
03
F5
FE
13
12
0C
06
FC
08
13
0D
FA
07
EF
FB
06
F8
F2
F8
0B
F3
09
F1
03
0B
0C
05
0D
F0
FB
FD
07
08
04
F7
0F
F0
F0
F2
0C
F3
03
0F
01
EF
11
04
01
0C
F0
F7
F5
15
F4
02
06
F3
03
F0
07
FA
01
10
04
FC
F3
07
08
00
00
04
0B
10
F4
0D
0C
09
F1
06
00
F7
FE
F5
10
F1
EF
06
FA
ED
F4
F3
06
FC
0D
F0
12
F8
01
02
0D
FA
FB
04
F7
F9
08
F7
FF
FE
0D
01
F8
F8
09
F1
0A
0C
F4
0C
FC
08
0B
00
F2
FF
10
0A
FB
05
05
F1
EC
FD
F2
05
08
FE
FD
0A
FF
F8
F5
FE
FA
FB
0C
11
0C
03
06
11
00
00
FE
F2
13
F2
0A
F6
03
FD
F4
03
F3
00
FC
F7
02
F5
06
03
06
11
F8
F4
08
FD
F9
01
FC
0F
01
F1
03
10
08
EE
07
07
03
03
0D
06
00
F2
F9
01
02
0F
F1
F1
F5
01
EB
13
0C
EB
F8
FA
08
01
FE
F2
00
06
13
10
0F
ED
FC
F1
0B
F2
0F
11
FB
F3
09
FD
0B
F3
09
F7
0E
FD
11
12
09
13
F0
0B
07
0E
F0
F5
11
F6
00
02
F1
10
10
F8
0E
04
00
02
0A
0C
08
F1
06
F8
EE
FF
EC
0C
F0
F1
00
0B
FE
ED
03
EF
06
F2
03
0E
FC
F1
00
01
09
0E
02
07
07
0C
F4
0F
FB
F7
FE
FD
10
FD
02
00
13
F6
13
F5
0A
04
04
F1
04
09
09
FE
0D
11
14
FC
06
FD
F6
01
11
FD
0A
EC
EE
F4
F1
FD
0E
FD
0D
E7
FF
0E
01
F2
02
FD
FB
EF
FD
08
F4
FB
04
07
F4
F2
01
09
0D
0E
F4
07
13
FF
EB
06
09
F2
0E
15
05
0E
F9
09
00
00
EB
06
F3
06
04
02
FB
ED
17
FA
11
F4
10
FC
09
FB
00
03
FD
08
FC
FF
13
F0
F9
F0
10
FA
06
0A
06
FE
F4
F0
F5
F2
FB
F4
0F
09
06
08
FC
10
EE
0C
13
EF
FD
13
03
FA
F7
FB
F4
FD
0E
ED
0C
FD
FE
13
01
05
0F
04
05
F3
ED
05
F5
13
04
04
EE
F0
0C
FF
F2
F3
FB
10
01
F9
F0
0B
11
FB
EF
09
F7
F1
0D
FB
ED
0F
F8
F3
06
03
F2
09
FA
EB
12
F2
01
FB
13
FA
12
0E
EF
09
F7
10
FB
FE
06
04
F6
09
12
00
0E
F7
EE
06
FC
F8
05
10
0E
FD
F8
0D
0C
EF
EF
10
04
09
04
FC
07
EE
05
EE
FC
FD
F6
EE
00
0A
07
F3
08
0E
09
FB
01
08
F4
02
FD
F6
FF
FD
02
EF
F8
05
04
03
14
F7
FC
F9
FA
04
09
FB
F2
FD
FD
F6
0A
FB
06
05
F7
04
0D
03
F7
01
FB
F2
F9
FA
F9
00
F6
F2
0E
0D
11
04
14
10
EF
EF
FB
0F
FC
05
0F
F5
04
F7
0D
EF
09
04
0C
05
FF
07
11
04
EB
F3
01
F3
00
F9
F3
0E
0C
09
06
EE
F9
08
10
F6
0C
07
0C
02
11
0A
0A
0B
04
EC
01
EF
ED
F6
F7
05
0D
05
FA
02
0D
FE
0C
FB
0B
ED
0D
04
10
FA
0B
02
11
F2
F4
13
F6
07
13
0C
F5
0D
EA
EE
13
08
03
F1
04
02
FA
EE
12
0D
0D
07
09
0E
08
10
14
04
0D
00
0B
FF
FC
FC
02
05
F6
01
0E
00
EF
F7
12
0F
12
03
FA
03
02
07
09
ED
11
10
FD
03
04
F5
12
06
F0
09
0B
EF
FF
FF
02
EE
FF
05
F9
0A
F9
F8
06
05
F0
01
FC
00
F6
15
02
FB
16
F4
FA
11
05
EF
01
11
0D
F7
08
0F
14
FA
FA
F9
F5
04
08
F9
FD
0B
03
F4
0A
F1
FA
0A
09
02
FB
03
11
F7
13
02
F5
15
F3
F1
01
01
FC
07
F8
01
EF
F4
F1
FA
0A
FF
02
08
F1
00
EE
0A
0B
11
02
06
01
F8
F7
EF
FE
00
F5
FD
F2
F6
F2
F3
F9
0B
02
EF
F6
FB
F1
07
15
F9
12
FD
F1
09
FC
FC
12
FD
11
FF
ED
FB
06
F0
F5
FA
F2
F6
F7
0C
02
02
EF
F8
FB
F6
FA
13
0F
F8
14
06
11
0B
12
06
09
FD
15
0E
09
EE
0B
FE
EA
0D
0D
11
F7
05
0F
FF
11
00
FB
05
04
F8
EB
FC
EF
ED
04
06
FC
10
FC
FF
F7
F4
EE
0C
F4
F7
F2
F2
0F
17
0D
05
0E
07
13
EF
0B
0B
0C
09
12
FF
EE
03
0F
0B
E9
FC
F5
00
F2
F5
F7
0B
10
01
ED
F9
FE
00
00
FA
05
10
03
F0
FF
F9
06
F3
10
F6
0A
08
F6
01
09
ED
F7
FE
12
F9
08
02
01
0D
F7
F4
05
F0
00
FF
14
06
06
0E
02
01
EC
F5
F0
F8
F3
FB
F0
FF
00
07
13
F3
EF
F2
0D
F9
F4
01
F9
F0
F5
14
F6
FE
EF
0C
11
F2
06
00
EF
F5
FB
FB
05
EB
0A
0A
F3
03
12
10
08
11
F9
06
03
0D
04
EF
FE
F3
F0
11
F9
F7
08
0A
06
F0
04
0D
0E
09
0D
05
EE
08
0B
0F
ED
0A
11
F2
06
06
F3
0D
F7
FE
ED
F0
FC
11
03
F5
13
FC
13
FF
F2
EF
F9
0F
ED
FC
F9
FD
EF
FE
EA
F8
05
08
EB
0D
10
F2
F0
F7
0C
F3
04
12
EE
0C
FE
0F
12
0F
F8
FD
F5
EF
09
03
EF
01
FC
06
F7
F4
00
05
EE
05
FE
F0
0A
00
F9
0E
F6
F2
ED
F9
EE
08
F4
FF
F2
FC
F0
0D
F0
F4
F7
F5
F2
EE
00
08
09
0E
04
F3
08
10
F5
0A
F9
FD
EC
09
07
EE
EF
FE
0D
07
01
FF
F4
12
EF
FB
F0
05
F6
04
07
FD
0D
F4
0A
0F
FB
04
01
FC
F9
08
11
03
0F
0D
F3
F0
10
05
F7
03
EE
EF
0E
F4
FF
F1
03
07
F0
F7
FF
EE
02
F6
F0
0B
EE
02
F7
FA
08
01
12
F8
07
FE
F5
F9
12
FE
06
FC
FE
0A
FC
FF
FA
00
10
07
F6
03
F6
0D
02
FB
FE
FE
EE
05
0A
10
FE
04
0C
05
02
F8
03
12
09
EE
F5
11
0F
F0
03
F6
05
00
07
0F
F4
FE
0A
02
08
06
F0
10
0A
F5
14
F0
FF
F1
F7
0F
0B
F7
0B
ED
EE
F5
0F
0F
04
F9
FB
F1
F8
0E
FD
03
FA
0F
0D
EC
F9
FC
12
05
EB
FB
F7
F6
EC
FC
FE
FB
02
EE
0E
13
F2
03
04
F1
0A
0F
0A
0B
F0
08
FB
14
12
F5
F4
F0
FE
0D
F4
0F
F6
F3
0A
09
00
FD
14
0E
0B
F6
04
13
F1
02
EC
09
F7
02
12
06
05
FD
01
EF
FD
15
11
FB
F5
03
13
0A
F9
EE
EE
EE
08
EB
EF
04
04
01
08
FB
F0
EF
0D
EE
05
0B
05
06
EB
ED
EF
11
FA
0D
FE
07
0D
04
05
06
09
F9
10
05
F9
04
EC
04
0E
F4
04
FA
EE
11
0A
11
0D
03
08
12
01
0B
FE
FA
EF
11
FC
05
11
07
14
02
04
F3
F4
0D
FE
F4
03
ED
07
02
04
F6
EF
08
02
11
FC
F4
F6
0A
FC
F6
03
FA
12
F6
F7
0D
02
0E
F3
EC
FD
07
0F
13
10
FF
ED
02
0D
06
EE
06
FE
F1
0A
03
FB
FB
09
00
F8
09
06
07
03
08
FF
13
F0
F7
01
09
F6
08
0B
FF
05
F4
FA
FB
F3
F3
F6
FD
01
EC
F7
FF
F1
12
11
00
0F
03
06
EF
FA
F0
0D
F0
FC
FC
07
EC
07
09
F6
09
04
0C
02
0F
F7
FE
03
FE
09
0C
02
09
0C
0D
EA
00
ED
F0
F4
12
11
14
FC
F1
F0
08
FB
FF
06
02
F8
FB
F6
F4
F6
12
FB
FD
FC
0E
04
08
00
FB
01
0E
F7
F3
EF
0C
FA
07
03
F0
05
F5
13
0A
FF
0D
F5
ED
FE
03
EF
FE
14
FD
F9
FF
FB
12
FC
EE
10
FF
F7
F7
12
F4
0C
F5
F4
10
F7
10
F4
13
00
12
08
F9
11
F9
FD
FB
FF
0C
13
F6
0B
09
F3
FD
00
10
ED
FB
07
0C
09
F8
0E
F1
FA
07
10
07
FF
08
F1
0A
F4
FD
F5
05
F9
03
12
04
06
F7
FC
ED
F2
F6
05
F1
02
ED
0C
0F
0D
07
F6
13
F7
0C
08
F5
F0
F0
F7
F1
08
0A
EF
FC
08
F8
EF
09
FB
F3
03
F1
00
01
F5
10
F8
0D
F0
05
EA
EF
06
09
F1
EA
06
02
0D
FA
0C
F0
0F
F7
F9
06
F8
0B
00
F5
F2
06
12
02
0A
03
11
F4
ED
FB
00
04
11
09
14
F2
0F
FC
04
F4
FA
12
10
02
00
08
01
04
FD
EF
0D
EF
F9
FC
F3
F7
00
EE
11
EE
F5
F6
0C
F3
F4
02
F6
F0
FE
0A
12
04
0A
FF
0E
F8
0B
0F
0C
EF
F2
F8
10
0F
FC
F2
0B
0A
F2
10
0C
FC
F1
06
0C
0E
09
FB
0E
00
F1
0F
0A
02
F8
07
FC
02
06
08
07
F9
F6
06
F8
0E
14
EE
FE
FA
0D
ED
F5
0A
02
F6
F7
FE
13
F3
F6
0D
F7
F2
00
FA
0D
F5
F9
03
FD
FC
03
F8
13
12
F2
EE
EE
0D
FB
0E
FD
01
F3
F9
08
04
EE
FD
10
FA
FA
F2
0B
F6
F6
FA
F4
14
11
11
EE
FC
F4
05
07
F3
F1
0A
12
05
F6
04
0C
F7
07
0B
02
F2
FA
FA
06
15
03
0E
09
FD
04
07
F3
06
F9
F9
06
02
F3
13
08
F9
F2
FC
04
0B
FE
F5
12
F8
F1
EF
00
FC
00
FE
F5
F1
F3
F8
0C
0B
06
0A
EE
03
06
0E
EF
EF
0B
F0
10
F9
12
06
00
0C
ED
FE
05
01
0D
07
F3
0F
FF
0C
02
07
05
F0
04
F0
FE
10
10
F3
EB
FC
FF
0E
F8
0C
F5
06
07
F6
F1
FC
FE
06
08
F4
EE
F6
06
0E
F5
F6
10
0C
01
F9
07
FA
FB
EF
0C
01
F8
09
00
08
F8
09
ED
FB
0A
0D
07
06
F8
0A
F1
02
EF
10
0A
02
F0
05
FA
EF
FF
ED
EF
00
0B
08
03
FE
05
F3
0D
07
04
04
0D
03
FB
F7
12
04
F0
10
00
FF
12
12
FC
F5
FC
04
14
0B
FA
0B
05
F4
05
0F
03
02
FE
00
04
F7
0B
EE
11
00
10
00
F1
FF
F4
0F
0C
F5
F8
05
12
01
0B
03
F8
FA
0B
11
04
F6
0B
0A
11
0F
F5
FE
FF
04
02
F9
F8
F1
08
01
02
F3
FD
F8
02
F1
10
F4
0F
F7
F4
0D
06
FA
FF
08
0B
EC
EA
0A
FD
0B
01
FB
F8
F9
08
0F
07
04
F1
FF
07
F2
F2
FE
0C
F3
02
E9
0E
F2
0C
04
FB
F4
F7
06
0F
03
03
EA
0E
FF
F7
F4
04
EF
0B
F8
09
01
FE
10
F3
12
01
FB
04
F6
F7
10
09
0F
10
FC
ED
F9
12
07
FF
F5
04
07
07
01
0F
13
03
01
14
FA
0A
E4
12
12
08
FF
F3
15
12
09
13
FF
F4
0F
EF
FE
06
12
F2
F8
F6
F2
F4
ED
01
FA
F4
04
F0
09
FC
FF
07
F4
01
10
FE
F8
0D
F7
16
F5
00
06
12
07
F1
F1
FA
F1
F8
04
ED
F2
02
F0
09
FD
08
10
FC
F5
F8
10
F5
00
13
F0
08
0E
07
F8
04
0F
12
F8
F2
03
FD
FF
06
FB
04
F7
EC
F4
FF
EC
F1
0F
0D
F2
00
F8
0A
FD
08
F5
0D
13
05
FA
FB
0B
FB
EE
07
03
07
13
FC
F7
EF
05
00
F6
10
0E
0B
04
ED
0A
EE
FC
05
06
0B
04
11
FD
FB
07
FB
0A
F2
0A
FE
ED
F5
06
0A
FB
0C
0F
01
EF
F5
F1
F9
0B
EF
F8
FA
EF
07
F3
09
00
07
06
FC
0C
0D
0D
0A
12
0B
FE
FA
EF
F4
EF
F5
0E
F7
F3
0D
ED
04
F2
15
F4
F2
F2
06
04
02
0C
05
F9
FE
06
F0
11
FF
03
0B
01
0C
F0
FB
FC
10
00
F7
FB
F9
11
EF
F7
11
0A
07
00
F6
0F
EE
F0
04
11
F2
EE
03
14
01
0C
0E
02
FD
F4
01
00
11
10
10
07
0A
F1
14
FA
05
05
FD
0A
F3
FB
EE
0B
FE
F7
0B
10
17
0F
08
F2
F9
06
F2
0E
0F
F1
05
F7
F6
00
0A
15
F8
F8
FA
05
0C
10
FA
03
F5
09
F4
F8
0A
F9
FA
F9
0C
FB
F1
04
F7
FF
02
00
12
02
0E
0B
05
FD
06
01
0B
EF
03
01
F9
F3
04
0F
08
FC
0B
F3
06
06
13
08
FC
F4
0E
F7
F8
11
F0
FE
10
F0
00
12
10
14
F2
EE
F2
02
11
F2
0E
00
06
06
F5
12
F2
0A
02
FC
0B
FE
12
FE
06
00
10
EC
02
EC
0F
0F
01
ED
12
F4
FA
06
03
F8
0D
0F
03
F6
0A
07
ED
FB
0F
FC
F4
0F
07
F6
00
F5
0C
07
00
ED
F8
F5
FD
06
07
FA
04
09
F2
F0
F9
03
03
11
09
09
07
0B
0F
08
04
FE
F9
F4
EF
0A
F0
F6
03
06
FE
07
F2
F9
F5
11
F0
F6
FD
F8
F3
FD
06
0A
F2
02
0A
08
09
0A
0E
0C
05
F3
0B
F0
08
EE
FD
04
FB
01
ED
13
0F
F7
F0
03
0F
10
FC
0B
EE
02
F9
0C
EF
09
F4
FF
FC
FF
0F
05
07
EC
10
04
0B
09
F3
F0
0C
10
F2
0A
FB
F2
F7
FF
FC
F4
F4
F3
F1
00
0B
11
F4
EE
07
F7
08
FC
F7
F7
F0
F5
FA
FB
0A
00
F4
F3
0A
FE
13
04
FA
FF
0B
04
01
ED
0C
12
01
09
0E
09
EF
0B
FF
F4
0B
F9
08
F6
0B
12
FA
10
FC
14
F6
EF
01
05
0A
F1
13
10
FE
04
F6
F5
F7
10
05
F9
F3
F4
12
05
FA
13
ED
EB
EF
05
11
F8
FB
FE
09
0F
03
FA
0A
03
FF
03
01
13
F1
F3
0F
0C
10
F2
08
FF
F9
FF
05
EC
02
01
F4
FE
F8
07
0B
15
16
0F
F9
09
03
14
08
0D
FD
F8
00
EF
F1
FF
0F
07
F6
FC
F9
FB
02
06
FB
FD
F0
00
0C
FA
04
00
F5
FA
09
03
0D
F5
F6
01
FE
F8
F3
0C
F6
0C
09
F1
0E
13
F5
09
FF
0B
08
04
08
F9
F3
FC
F7
FD
F2
02
0C
F8
03
FC
07
FF
F0
F8
FF
04
EE
F8
0D
FC
14
12
F0
0C
EF
F6
F1
02
EF
FF
EC
FB
F7
EF
EF
05
ED
ED
09
FD
FA
0D
FD
FE
15
14
09
09
FB
F0
F2
07
15
F2
08
FF
0A
0C
12
F6
ED
F1
12
F2
F4
FB
12
FD
04
FB
F8
F9
07
0E
05
02
03
F7
F1
F9
01
F8
F1
14
04
03
01
EE
0F
F1
08
02
0E
F6
08
FD
F6
0F
F8
F5
0E
0F
E9
07
06
0A
EE
06
EE
EC
0F
FD
13
F0
FC
07
F3
F6
F7
0F
10
F5
02
EF
F9
F6
0E
07
EE
EC
FE
09
F2
0E
0E
03
08
F0
F4
F1
05
F4
F1
12
FC
FF
0D
0C
09
0F
F7
05
0D
0B
05
F8
F2
0C
02
FE
F0
EF
07
FD
EE
0E
F0
FE
F2
06
02
01
F9
06
00
F5
F0
FE
F2
11
01
00
05
ED
02
0D
FB
F5
FD
06
03
05
FF
ED
09
FA
FE
EE
F4
0F
F7
F2
02
F6
F0
07
14
EF
FD
FF
06
F9
F0
0B
0B
FB
10
F2
F4
F1
F5
12
08
ED
FC
F5
05
FE
FC
F1
F1
ED
14
0C
FB
F4
0A
F6
0F
F9
F2
06
FA
FA
FC
10
FB
EF
0F
F1
FE
02
FD
0D
05
0F
08
10
08
01
10
0E
FA
EF
F0
F8
FF
F5
FD
08
F1
0B
F6
11
03
09
11
FE
F6
0A
03
06
07
0F
F3
FA
08
F2
FD
ED
03
01
0D
07
F0
01
F8
0A
02
F7
00
FE
06
ED
FC
05
F5
15
03
05
EE
03
10
EF
14
FC
FB
0A
F2
F9
F6
FF
FB
F5
0A
0F
EC
F4
F3
07
0A
F8
F6
FB
F3
04
0E
05
14
03
04
08
F1
07
01
05
FC
FE
F2
11
EF
01
03
01
02
F7
FC
FF
02
F1
F0
F5
03
08
0E
09
0F
F6
05
05
EF
EB
FC
FF
EE
F9
07
02
11
F7
00
12
FF
01
F2
00
EF
FB
12
F6
0A
FA
F2
F8
FB
EB
10
03
F6
12
0B
15
02
F5
05
F1
05
0A
04
04
04
FC
EE
FF
00
EF
04
F6
F6
FB
F8
FE
07
02
0E
02
FA
10
FF
02
0F
F8
F5
F3
F5
FA
0A
07
F3
FB
FE
08
F2
FF
FF
F6
03
0E
00
F9
F4
F7
F6
07
F2
FC
0A
12
07
14
F3
F7
07
09
07
FD
0C
F9
EE
0D
06
FE
EF
ED
06
EA
F2
FE
F6
F5
04
F0
0B
0C
FD
FC
0D
F8
11
F6
04
F6
F7
0C
F7
09
0C
F4
FA
F9
F1
08
10
F0
04
FB
FF
05
FD
14
12
EB
FF
FE
03
F1
FF
FA
FC
F4
F6
07
13
F7
00
04
F5
13
12
F9
0C
0D
F2
0F
0A
0F
0C
04
00
F2
F9
0A
00
F7
F4
12
04
14
02
05
10
0B
0E
0E
FD
F7
EC
FB
FC
01
F0
0E
08
F2
06
EC
F1
0A
10
F7
05
F5
06
06
12
14
12
07
F8
F5
05
F5
0D
0D
04
F8
F1
EF
05
0D
F7
F1
F5
F6
10
EC
07
F1
F8
04
00
00
0C
09
11
EB
F8
EE
04
FD
FE
FF
0D
0D
07
FC
FF
F3
F3
F4
04
EA
FD
11
FF
EE
02
05
FE
04
0B
07
F2
07
F0
0A
FD
11
09
F4
F3
06
10
FD
F7
0A
04
12
0C
FE
FF
F3
FA
F4
FF
F5
FB
0B
F2
ED
06
F0
0F
FD
EC
08
FD
FE
10
05
FF
FC
ED
FD
F0
FF
11
0C
F1
01
F1
FF
EF
09
F4
FE
F4
F9
05
10
F1
0B
FF
06
FB
12
0F
0E
FC
0A
0A
F7
F2
0D
F6
FF
00
F0
00
FB
02
F6
FC
0F
05
F9
0C
10
07
04
08
12
05
F9
F6
09
0B
04
0D
04
09
0A
05
08
09
04
06
FA
0C
FB
12
01
07
05
15
FE
13
03
FE
F9
FE
F6
F7
FE
00
F1
F9
0A
F3
05
0A
FD
07
FB
FE
0A
F9
0E
0B
0C
FF
EF
F7
F5
10
FE
FA
F8
12
F6
F3
FA
F1
01
FA
02
0E
FC
04
06
FB
01
05
F0
FA
F4
08
00
0C
F3
EE
F4
F1
EF
F9
F6
11
F1
03
07
02
10
04
EF
00
0D
05
0A
FC
F0
F4
01
0A
F0
F3
0B
F3
04
F6
EF
09
F8
ED
05
FB
0E
0F
0D
EC
F1
EE
01
0A
ED
F6
EE
0E
F3
08
0D
01
09
FF
FD
FC
F3
FE
06
EC
F6
FB
0D
FE
04
EB
08
F8
0C
FF
00
F9
EE
F7
EF
EF
FE
0E
00
0A
14
09
F0
EB
F9
00
F2
FB
EC
00
0D
F8
EE
14
10
03
10
EC
0B
0C
F9
09
0E
08
F7
14
07
02
01
0F
EE
F5
FA
12
07
03
F1
F4
FB
01
16
02
07
0D
04
11
ED
00
EB
08
01
FE
08
12
FF
13
00
00
F4
15
FB
09
03
F9
03
ED
10
0A
EA
06
FD
FE
FD
09
14
0E
ED
F7
F9
F5
F4
F4
F4
F5
F1
F8
FD
F3
FA
FE
F5
06
F7
0F
ED
0F
F0
FF
FC
F6
FD
09
0D
01
02
F9
F1
0B
F3
06
08
06
01
FF
11
FE
10
17
E8
FB
EF
0A
13
02
F6
FA
13
F4
F0
0B
11
0A
EF
FA
F6
00
F7
F5
06
FF
FA
F0
F2
02
0D
04
0B
0F
E9
0C
EA
06
F8
FE
FD
0F
FE
FF
14
0A
FF
01
F6
08
0F
FD
0A
06
F5
FB
09
04
F6
F8
FA
0D
10
07
F0
F5
03
F8
EA
07
0F
10
F0
15
F9
F5
07
09
0F
0C
0A
F9
F3
F5
00
F0
F3
FB
ED
F5
F2
0D
F3
0B
F4
F2
08
F2
F1
FC
11
F3
0C
F2
01
07
0A
F4
F5
03
ED
EC
F6
0B
00
F6
FD
EC
06
04
EE
0A
F6
FB
01
F6
ED
0B
0E
F1
FF
F3
F1
09
FD
0F
FC
0E
FF
F6
F7
12
10
FB
EB
F7
07
FA
F5
12
F0
F4
02
ED
09
FC
0A
09
F0
08
FB
F6
F6
09
00
0C
0E
ED
0D
00
05
F0
06
FF
F5
FC
09
FA
F5
F1
F3
F7
0B
F4
02
ED
00
F1
00
0E
FE
FF
F0
0C
12
F3
F0
0E
F1
F3
EE
F5
F5
13
0D
0A
0C
FB
FE
06
08
05
0C
FA
0E
FA
01
0E
04
11
09
04
05
F1
11
10
FC
04
FB
0F
FB
03
00
F8
0B
05
15
FA
F2
12
F7
F2
F2
02
08
10
F8
FE
11
EF
04
08
EE
F7
F0
0C
13
0E
02
FF
F2
FF
12
FF
F9
05
F2
FE
F9
0B
F8
11
07
EC
EC
05
F3
08
F9
EF
FA
01
F5
EE
F1
F3
01
03
03
11
FC
03
06
F8
00
FE
0F
F4
F8
05
03
EE
17
F9
0F
FF
FB
02
02
07
F9
FA
FF
FE
F6
13
07
17
EF
F3
09
06
F2
0E
03
0B
F7
16
14
0A
F4
04
0A
FC
06
F3
EC
14
FC
F6
0B
0B
FD
11
11
0A
F5
F1
EC
06
06
F5
0D
EF
FB
08
0C
FC
FB
E7
F1
09
0D
01
F9
F4
FB
03
F7
06
EF
F6
F2
13
11
01
11
FA
09
02
EC
FF
0A
FC
FF
08
F3
0C
07
FD
08
EC
F5
EB
F7
F9
0A
F9
07
0B
0F
10
00
0A
EB
FC
02
09
F4
ED
05
11
0A
04
EF
0B
F4
02
0B
F1
F8
EF
FA
FC
F9
F5
0A
F0
F9
03
F3
01
12
12
FB
0E
01
F1
F3
12
0B
FA
FE
05
F2
05
FB
F5
09
13
16
FE
FC
0B
06
F2
EE
FB
11
EF
FA
FF
11
03
FD
11
EE
03
08
F4
01
0B
FC
F4
F6
06
F9
13
F9
02
FE
00
16
FC
F2
F8
0E
ED
F9
F1
12
FB
EA
FB
F9
0F
00
06
06
F3
F6
15
04
04
08
13
0C
FF
F1
F7
09
0F
15
0B
FD
FF
F8
EF
01
12
FA
05
F3
11
FF
11
03
0D
0D
0E
F2
0C
0C
F9
FA
F3
EC
04
0F
00
07
F1
F8
F1
F4
F6
06
00
F2
F9
FD
F4
FF
15
F1
05
FF
FF
02
14
F5
0C
FB
ED
09
F2
F1
0E
0A
02
13
F5
12
FD
F2
10
F0
0E
0E
F3
05
FD
08
EF
F6
F7
F8
F3
0F
02
F3
0C
11
F3
FF
F0
10
10
F2
EE
FF
FA
08
F9
0F
06
02
FC
06
FE
F2
0C
F3
07
0D
12
0B
EF
08
0C
F2
EC
FB
00
FC
EF
EE
FA
F3
F1
07
F9
10
08
EF
06
0A
F4
FD
01
F6
EA
F7
05
0F
03
07
0D
EF
13
FC
F0
F8
00
F4
FC
F2
F9
EE
06
ED
F7
F7
0E
EC
05
FD
03
F0
07
0C
FD
0E
12
02
EC
05
FA
F2
03
FB
04
FD
F1
00
01
05
F4
F4
F5
03
F6
0C
07
FC
F0
0D
EF
EF
03
01
0E
0B
09
00
F0
05
EF
0A
11
0D
FD
0C
F1
10
ED
0F
04
F3
F6
EE
F3
0E
F3
EE
F4
01
05
02
0F
09
01
0F
FE
00
FC
02
F6
0E
F3
F1
0B
F7
EF
F9
13
F4
F7
0F
F1
F1
EF
F7
EE
0B
F1
08
F7
01
06
08
02
FF
FD
03
0D
0E
EE
12
FC
F7
12
09
01
FF
F6
FC
0F
0D
F5
F0
F5
0B
F9
F2
0D
02
00
F7
04
0E
09
11
12
EE
F7
09
06
0B
F4
F7
F3
FA
FA
F2
0E
FB
0B
04
0E
14
F4
FE
F7
F3
0C
10
EB
F8
08
06
13
FC
14
0A
00
01
F4
EE
EC
F2
11
0C
EE
EF
0B
05
08
11
F5
F8
F3
FB
05
07
ED
00
0B
0D
F7
EF
F6
FF
07
FF
F3
FD
05
F6
EF
F2
FB
04
01
06
0C
FE
EC
FB
01
FA
03
FB
EE
F8
04
F1
EE
FA
FD
09
13
00
FE
04
01
10
02
FC
04
09
0E
FE
0F
11
0B
F9
0E
03
EC
13
11
EF
0E
F3
F3
F3
0D
F5
07
F7
FE
14
09
FE
EA
F2
03
0F
F2
F3
13
0A
0B
07
FD
00
02
0C
0D
EE
09
F4
F3
12
F1
F3
0A
F0
03
10
02
F9
F7
FB
16
0B
00
0B
07
F3
0D
06
FF
FB
01
FB
F7
F8
0C
FC
0B
F4
F8
00
0C
01
F1
08
EC
03
EC
0F
F1
0A
F5
EE
F7
04
0F
FE
F3
F7
F6
11
03
0B
EF
F1
F8
11
04
01
0D
0E
04
F8
01
FD
F6
05
03
0C
FB
F2
FB
EF
FC
14
FB
EF
F0
EF
FA
04
FA
06
F4
06
F1
06
FF
F1
04
13
0A
F6
16
ED
FE
10
03
0E
F3
F5
0E
06
F9
F7
11
0C
F3
F6
EE
FB
EF
F1
FC
F2
0E
FC
09
04
F5
F6
13
FF
F3
10
05
01
0D
F1
08
EC
04
08
0E
FD
0A
0F
ED
F4
07
13
14
FC
02
F0
FE
FA
F3
EF
15
FA
FE
02
FA
F7
00
01
03
0D
00
F2
00
0D
ED
F3
EF
FF
11
F5
0A
05
0E
00
10
0E
F2
FD
F5
02
0A
03
F2
F5
F3
F2
ED
F7
F5
F4
05
EF
F0
10
0D
0F
02
0D
F8
02
07
EA
0F
F6
09
F3
F6
F1
FE
08
00
0B
05
FD
01
F6
FD
06
F6
10
09
0B
F7
04
06
12
F6
FB
F8
F7
F2
FF
FD
04
F5
FF
07
04
0D
03
0E
FC
FD
F0
08
F1
EF
F0
F5
05
F1
F5
16
F9
02
F0
F0
0F
F3
FF
F3
F5
02
F6
0D
00
00
FB
04
EB
09
F0
04
EE
0F
FB
0B
05
11
EE
FB
FE
11
04
F0
0C
09
F3
0D
FA
F5
14
F2
12
F3
F3
F9
F8
0F
F5
0C
FE
F1
ED
EF
07
F5
0F
F9
0D
10
04
01
12
11
FC
01
F4
FA
04
12
13
00
F8
FE
14
ED
0F
FE
F9
11
01
0A
EC
FC
FC
07
08
EC
01
FE
F6
F3
EF
10
0F
FF
0B
0F
FD
11
0A
02
0A
0E
11
F6
02
FC
09
FE
F6
04
13
F0
F9
EE
09
EE
0F
F7
01
01
ED
F0
F9
00
0B
FF
0C
F6
10
03
01
F7
FC
14
01
03
09
F8
0C
F6
0D
0B
ED
0E
F1
0D
04
EF
F7
FB
01
F4
0F
F4
0E
EF
14
FD
10
F9
F3
F4
F1
09
08
04
F2
12
0F
F1
00
FA
0A
FC
F0
F1
01
08
0A
0D
FA
F0
02
0E
0B
FF
FC
F3
05
04
07
11
F3
FD
0C
09
03
0B
FC
01
FB
00
03
F6
02
02
F0
FA
0D
F8
0B
11
FC
0A
0F
0B
FA
FE
F6
FB
F6
09
FA
FD
FE
14
F2
EB
12
F2
09
F9
09
FF
ED
0E
10
ED
FE
EF
10
09
0E
08
F2
08
14
0E
F1
09
0D
0E
F9
F7
06
00
03
FD
04
03
0C
09
FD
09
FC
F1
05
F4
F8
02
02
10
05
F9
F0
F9
FD
F4
FD
03
0C
FF
F2
FA
06
0B
0C
F5
14
FA
0E
0D
F5
FE
EF
0F
ED
04
01
12
F5
10
FC
0A
EC
F8
EE
0B
FE
0D
FD
FB
0D
FF
0D
0A
F0
12
F2
05
08
05
02
0E
04
11
0B
F8
F8
01
10
01
08
03
14
EC
F4
00
FD
0F
F2
F6
11
F4
0D
10
05
F7
EE
F9
05
FA
09
13
14
0A
F2
0B
14
08
0E
F8
0B
F2
05
F2
F1
FC
F4
12
03
09
06
F7
F1
09
03
F6
03
FF
08
00
F4
0C
05
0A
F6
04
0C
06
FB
0E
F9
ED
02
F7
05
F6
08
0F
0A
F4
F3
EE
F1
EE
FD
0C
14
FD
F7
05
FC
06
07
03
F0
11
0B
02
EF
F9
F0
F0
0D
10
FD
06
F5
FE
F9
F7
F6
13
F0
02
F6
05
ED
11
01
13
04
F5
07
F5
F1
FE
FA
06
02
09
0F
0F
0E
0D
F9
02
0C
05
0A
FF
0E
F7
F5
00
11
08
0E
0E
0C
0F
F1
F8
EC
F8
12
FA
01
13
0F
F5
FD
02
0D
00
06
10
ED
02
FC
12
09
F3
F0
EE
12
0F
0E
F0
FA
0E
12
05
ED
11
F4
0E
F0
0C
EC
0C
FC
F4
13
11
0F
F1
10
0B
00
0F
03
FA
05
EF
12
F9
F0
0A
FA
05
09
FC
0A
0B
EC
0D
FE
08
10
FE
00
F9
ED
02
EC
FD
F4
11
FD
02
F9
0F
FC
06
09
0C
EE
0A
FB
F5
FF
F5
0B
F4
07
07
13
0A
03
00
0B
04
F1
0C
F2
12
F8
F2
FE
02
FB
F0
06
F9
13
0F
FB
F4
FB
12
0F
F3
EE
EE
00
07
00
0C
EF
EC
06
0F
F5
F6
FA
F7
0A
F8
11
FC
EE
15
10
03
F9
09
00
08
03
13
FF
00
05
0C
09
0E
F0
F2
F3
03
F5
0C
0C
04
10
EB
FF
03
F5
05
FD
F9
10
09
0C
07
09
FB
0D
0D
07
FE
FF
FF
12
F4
EE
F3
0B
12
F0
FC
EC
FD
10
0F
FA
0F
F9
05
EE
02
10
02
03
13
0E
FD
0F
F6
FA
F7
03
FB
EE
10
FA
F0
09
F0
03
09
03
F4
0D
08
12
FD
02
06
01
0F
06
FB
02
10
05
FA
0E
07
11
F8
12
FE
01
FD
0D
F0
07
F6
FF
F8
F4
09
08
0B
06
07
07
04
08
08
0C
10
FE
06
11
FB
05
0F
F5
F8
F5
12
F7
FA
13
0F
FF
F8
0C
00
08
FD
0C
EE
ED
00
F9
FA
03
F6
FE
FE
14
16
0D
FC
11
FE
F6
0F
F1
06
F3
0D
04
09
03
0A
04
F5
F1
11
E7
02
EF
EC
08
F1
0B
F2
FB
11
F8
F5
FD
00
07
EE
0B
13
0C
02
01
06
F0
F2
EF
0C
EE
EF
F3
06
FE
00
01
FD
06
12
07
08
0D
04
02
F7
F4
09
04
F8
FA
05
06
F6
F6
FC
11
FB
FE
01
FD
0C
12
FB
0A
ED
07
FC
12
09
F0
FA
EE
14
01
FC
FE
0B
FF
01
08
00
F6
18
E9
0E
FA
0F
F2
F0
FC
F4
0F
0D
06
0D
0C
EF
10
09
12
FD
F7
0B
F5
00
08
FF
08
F9
F5
F9
F0
0B
08
14
0B
FA
F0
FA
06
05
00
FC
F8
F8
00
F9
FA
EE
FB
F8
05
F8
0E
FF
FB
01
02
FE
0F
04
12
F4
FD
10
03
FE
12
F0
02
15
F1
F5
F0
FF
05
13
06
10
EE
FC
FE
F0
FF
F4
F8
10
03
FB
F7
F7
01
FC
F0
F5
08
FA
0F
F7
01
EF
09
14
13
FC
F1
00
F1
0B
FE
EF
00
0F
00
15
03
06
EC
F4
F3
ED
F6
F0
0B
05
06
0D
06
11
0A
03
05
FD
F1
FD
06
01
04
0E
0C
F4
F4
0D
F8
0D
12
0E
0E
07
F8
FC
02
F1
03
0B
F7
0B
EE
02
EE
EF
06
0E
FD
08
10
FE
04
0B
0D
F4
0E
F7
F2
F5
FA
FB
15
F1
F4
02
0C
01
0B
FD
F8
F3
F0
05
0F
FB
F1
08
08
07
00
F8
F6
00
FB
0B
0F
0F
10
0D
06
12
02
0C
04
F7
F2
02
04
14
00
0E
F7
16
07
F8
F9
F9
F9
EF
F8
00
EC
09
0C
11
05
FA
FA
0C
11
15
F9
FC
0A
03
FD
13
10
0D
FC
05
05
F7
01
0B
FC
11
11
00
F1
E8
03
02
F7
F9
FA
00
06
0A
FA
EF
0F
04
EF
0F
FF
F0
12
10
FC
0A
0C
11
0C
0F
F2
0C
F0
04
EE
04
F9
0F
0C
F0
F8
0C
08
F1
06
0D
03
EF
FD
F0
ED
09
0A
01
ED
F2
F9
14
10
0F
03
08
FA
00
F0
11
FD
04
13
05
01
F3
0C
0E
FC
09
06
FE
09
14
FC
F6
F0
12
03
0E
0A
03
01
FE
0C
10
06
F3
02
0F
02
03
F3
04
08
02
F8
11
0B
F9
0B
11
05
0B
02
F2
FF
0C
11
13
03
00
0C
0A
0C
F6
10
F7
13
10
FA
07
F9
10
F4
05
F0
0A
FA
05
EB
11
01
0C
F4
ED
EE
EA
03
F0
FC
F1
FE
F8
F4
F4
FF
F9
0B
F2
EE
EF
F7
0A
0C
F2
EC
EC
EF
EE
F7
0D
FA
F5
FE
0A
F4
0A
F7
0A
0D
FE
F0
FB
F5
FB
0A
FC
07
F5
04
03
FF
ED
F0
03
0C
F2
01
15
0E
EE
F9
09
13
09
F4
F8
FC
0E
0C
F7
0F
09
0F
03
09
F0
FD
00
03
FB
14
09
F9
FA
F5
FB
10
05
F0
15
0C
EF
00
F9
FB
04
03
0A
02
FB
13
F7
F0
05
01
F8
06
F6
FC
0A
EC
EF
FD
02
00
FE
05
EC
EC
09
03
0D
09
F1
0E
F4
EE
08
04
FE
0C
0E
00
FB
FC
F8
F6
0B
16
FE
0B
FC
07
0F
FF
F3
F9
F1
EF
0F
00
07
F3
03
FE
F4
F8
FE
FE
F0
F4
0C
09
FD
F2
13
08
01
10
0C
F8
FD
04
0C
FA
F2
F3
05
FA
FF
01
F1
0B
F5
ED
F3
13
F0
10
02
04
11
EE
0D
FB
00
FA
FF
05
01
FE
F4
EF
18
14
EF
F5
0F
03
03
0D
FE
F1
05
F8
05
F6
EE
07
03
FD
04
0F
11
01
F8
FD
EF
F2
06
FC
04
FB
F9
F3
FA
02
0A
03
FC
12
EC
F7
03
0A
F7
06
FC
F6
04
F2
08
15
F6
11
ED
13
09
F7
02
F3
01
10
0E
F2
F6
0B
FB
F2
09
F6
0C
F9
06
FB
15
0A
0F
FE
ED
EB
F4
F0
05
F9
F2
F1
0F
F3
0C
F0
FA
0D
FD
0B
F2
ED
09
F6
12
EC
F4
08
04
13
EF
08
EC
11
09
09
F4
EC
0C
10
09
FA
11
F5
02
F2
00
F0
F7
02
EE
05
ED
0E
02
0C
07
10
01
02
FD
08
0F
0A
08
FF
09
F1
F7
F1
F3
F5
01
08
F4
F5
12
0C
12
06
11
F2
08
F6
F7
06
F0
06
EC
0E
06
0E
10
F2
ED
F0
F6
EB
F3
F1
F8
03
07
05
12
14
EF
F6
13
04
F3
0B
0F
F4
F3
EF
02
F6
F4
EF
0D
03
F6
F1
FA
0C
ED
14
EC
F9
FB
F6
F2
05
0E
0D
05
12
04
02
0D
EB
00
F7
0F
10
0F
09
F0
01
F9
0F
0F
FC
F4
F7
16
F3
F3
08
0A
03
F9
0B
02
12
0F
0B
12
04
00
FF
16
05
03
02
08
F8
F2
F4
F4
FE
EC
EF
01
01
06
F1
04
FF
EB
12
F3
11
04
F8
F7
09
F8
04
00
F7
F4
0A
F8
05
12
0D
0B
10
EF
FA
05
06
05
FF
FF
01
11
0B
0B
00
01
03
F5
09
EF
01
F3
F5
17
07
FA
FA
02
00
16
0F
01
0E
ED
FA
08
F0
EB
FB
F3
F7
FC
F5
0C
00
FF
F5
F1
08
EC
00
07
12
0B
0D
F3
02
0E
0F
F9
0C
F0
09
FD
09
EB
FA
F4
FC
FC
0B
00
0A
07
F4
07
F3
EB
03
FE
04
12
F7
02
FB
EC
F5
F0
F4
F8
FD
02
05
03
03
F5
00
0B
04
04
F4
03
FA
08
F7
F5
00
06
04
06
F2
04
09
10
F0
09
11
FD
EF
FD
10
00
00
0E
EB
FD
F4
17
FE
05
0E
F0
06
10
F5
F5
0F
FE
EE
03
16
09
01
F1
02
F6
16
F4
0C
0B
FA
12
13
0A
F4
04
13
FB
F6
03
05
F3
EE
05
0E
0F
FA
FE
FC
EE
ED
12
F2
0E
FC
F4
05
F4
F2
FE
F8
F4
F7
FC
F9
16
ED
02
05
F5
FE
02
FD
00
FE
06
F2
11
F1
EF
F5
13
F3
00
EB
04
12
EE
EF
F7
F6
04
12
08
FF
F5
F2
13
F9
F2
0A
EF
00
F0
05
12
01
FA
F3
01
FC
FF
05
F4
FA
EE
F2
F9
EE
F7
F4
F7
0C
0B
FA
0B
06
EE
0A
F5
FF
03
EF
11
FD
0A
FE
06
0F
EC
0A
F2
EE
0F
11
FF
07
0B
F3
F8
10
F9
10
F0
F3
0E
F5
F0
F5
FE
FA
FD
0F
0F
F1
0B
F6
13
05
04
04
FD
F1
F6
EF
FD
F4
03
03
F1
01
06
05
0C
0B
FA
F6
06
08
F5
F9
F1
FC
02
EE
11
EF
FA
0E
02
00
12
F5
F0
F9
FB
F7
FF
F8
13
FD
FF
F5
0F
0A
0A
ED
06
EF
13
FE
F8
FC
FF
F9
02
F6
01
04
0C
EE
EF
0D
0E
06
0B
FA
0A
0C
F0
F8
FE
06
12
F9
0F
02
0A
FC
12
08
F4
EB
03
F2
05
00
10
09
FD
14
FD
FF
FA
05
0A
01
06
0B
07
15
FB
04
F1
08
F9
01
FD
06
10
FB
02
F0
01
F0
FA
12
EE
07
00
05
05
12
F4
03
0F
13
16
EF
F5
01
0E
FE
F4
04
04
F0
04
F8
07
EB
0E
F9
F1
11
EF
EF
F4
0A
0B
F4
11
FB
F8
F3
07
F4
FF
F1
FA
F8
13
FB
08
11
04
F4
EE
F0
0E
0A
12
ED
F7
0D
F0
02
15
F1
FC
09
EE
F2
F8
09
07
0B
0E
0F
0D
0F
F8
07
11
EF
EE
F1
0D
FF
FB
F5
FA
FC
F7
03
FC
F3
05
00
F1
05
0C
F5
EF
FE
0C
01
FB
06
F3
0C
15
FD
0C
FE
FB
EF
05
06
FF
FC
F5
FC
FB
06
FA
FB
F3
F3
00
00
0A
F8
F9
FA
F0
FE
0D
01
10
06
15
ED
07
02
01
11
0D
0D
00
0E
0F
0D
0D
FD
10
F4
11
13
F6
FC
EC
FD
F1
FC
0F
F1
04
F6
F7
12
04
F4
F0
0E
FA
14
0A
03
0F
EC
F6
F8
FC
0C
F8
FE
0A
07
FF
F2
0E
0E
02
07
EE
0F
F4
F4
F2
EF
FB
03
F0
0D
F6
0A
12
0C
FD
F5
F9
FA
11
F2
08
0A
02
0E
06
00
ED
F6
03
0B
10
FC
02
FD
00
08
0B
0C
12
07
04
F0
F8
05
0C
0F
03
06
F3
02
F0
F8
08
F4
F0
0D
FA
EA
03
0C
0B
F1
14
FA
F3
0F
FE
13
F2
0F
08
0A
0E
03
F7
03
FA
0B
00
0E
06
FA
FA
07
FD
F5
F6
F4
FE
F8
02
F5
F3
FC
0F
10
F7
0B
FC
0B
F4
F0
07
09
08
06
FA
02
13
F7
10
FA
02
FF
F1
09
FB
F6
15
FB
FC
FF
EE
15
F0
0F
FB
EE
0D
F2
12
F1
11
F1
00
F9
13
03
FB
0D
0B
03
FC
09
FF
0C
FE
FF
F6
FC
04
04
03
ED
08
FC
0F
04
10
F4
F7
FB
14
0E
11
10
EE
14
14
08
0F
02
EC
F9
14
0E
14
F1
F1
FB
13
F3
0E
FC
F5
F7
14
0A
05
0E
16
FC
0C
EB
0A
F0
F1
15
01
16
13
F2
EB
EC
0E
07
01
04
0A
08
09
F2
F0
FC
F6
0C
F1
11
05
12
FF
EF
FB
FC
11
13
02
01
EB
01
01
04
F1
01
FE
05
F3
01
FD
EF
FF
07
F4
EE
F0
F7
FE
07
F0
0E
F4
FA
03
13
0E
0B
FA
0F
FD
00
01
0E
13
0F
F3
16
14
05
F5
F7
13
F7
F8
F5
FD
FF
FD
ED
05
F1
F3
04
FB
FF
01
00
02
FE
03
F3
F4
0B
05
08
EE
09
05
F0
0C
F9
0B
FA
0E
FC
05
12
F5
F4
F9
FC
02
05
0E
FB
FE
03
0F
0C
0A
05
08
EE
0C
0D
00
07
0D
ED
09
F0
0D
F9
09
FC
01
10
FD
07
12
FF
09
F6
13
F0
14
FA
F4
11
F0
FF
06
14
F9
0C
09
F1
11
F5
F5
F0
07
01
13
04
11
F8
11
0C
14
FB
0E
FE
F6
FC
0B
F6
F5
0B
02
EE
FF
EA
0E
F0
0D
F4
FE
03
FB
F6
09
EF
EE
0A
F7
05
01
0E
FA
03
06
F2
F7
F3
02
F1
10
FC
ED
13
F2
EE
05
F3
04
0A
FF
07
06
F2
14
FB
FA
F3
0E
11
0A
0F
13
01
ED
E8
16
F4
08
04
ED
F2
FF
0F
F0
F4
F3
11
F6
F7
0B
F5
09
07
02
FC
EC
00
0D
0D
FF
10
16
10
F1
01
F5
11
06
F3
05
F0
0A
03
F3
15
EB
FE
0C
F8
F6
05
FB
FC
08
EC
15
09
0A
03
0F
0F
F7
07
06
ED
09
0A
0B
13
F0
FA
F2
02
0F
06
FF
F0
FB
00
00
09
13
F3
EA
0F
09
10
F3
10
04
01
EC
07
05
0B
EF
EA
EF
F4
FD
F9
F6
11
03
FF
F0
F2
10
03
01
FF
FB
FF
00
F2
04
EA
08
08
01
10
ED
01
F7
FB
FA
FA
13
EC
FE
11
00
12
0C
F6
FA
F0
F0
11
FB
03
F7
0E
0D
FE
04
01
FF
FC
14
EF
F0
07
13
10
0C
FB
10
17
F3
16
08
FA
F5
0D
FE
F4
FD
F7
EF
F3
0B
07
F9
03
01
0B
EF
F3
FD
00
10
09
FE
01
10
F3
05
FA
12
F7
0B
10
10
F8
FB
07
F8
15
F8
F5
F9
0F
0A
0B
0E
0C
0B
0D
F5
F3
10
0C
F0
05
F9
FA
0A
04
0C
05
0C
FB
06
0E
F5
F2
F7
0E
05
F7
F6
FF
FB
11
04
04
08
0E
EC
08
10
05
F8
0B
06
00
F2
F6
03
10
F0
FE
FB
03
12
F9
0E
09
FC
F4
F0
ED
FC
F8
F3
F3
F9
13
FD
F8
02
0F
0D
EF
FF
F8
F4
13
FD
08
03
F5
11
F7
03
F4
0F
0B
14
09
EC
F6
FD
07
FF
F5
EE
F6
07
F5
FB
0C
01
13
0C
0E
FF
FA
FE
03
03
02
04
10
0B
E8
F1
13
12
07
0F
0D
0D
F0
FE
FF
F1
F0
10
FF
F5
03
F4
15
16
10
FD
13
FC
F8
06
0F
EE
F9
16
00
07
13
08
15
0E
F1
E5
FD
EB
0C
F6
F5
11
00
07
FD
F8
04
F4
EC
0A
02
FF
EE
01
FD
02
FB
0B
ED
05
07
12
14
0E
09
12
FF
10
02
F4
13
EA
06
F0
11
00
0F
FF
F8
0A
FD
08
F7
F4
11
17
F9
0A
01
EF
04
11
F5
F6
05
FE
F2
EC
18
0F
0A
12
F3
0D
14
16
0C
12
05
0C
F3
06
0F
08
06
05
FF
FF
FD
01
FE
F3
04
07
F7
08
EE
10
F8
02
F5
06
00
10
12
FE
F7
04
F4
07
F2
F0
05
F9
FC
FF
ED
01
EB
FE
14
17
F5
F3
02
0E
F8
EC
F8
0C
01
05
EE
F1
FF
FC
F1
11
ED
F8
F1
10
F8
F2
0B
0D
10
07
FC
0B
00
13
FA
EF
F1
F0
FA
F0
11
FE
FB
09
07
FF
F1
06
12
F0
10
F7
0D
F7
F3
F3
11
03
10
0D
04
0D
02
FA
03
08
F0
F3
11
07
F8
F9
01
04
FE
F2
FF
F6
FA
0A
F0
F7
04
F4
03
FE
00
F0
EF
F4
10
00
F7
F8
10
FE
0A
ED
F0
08
F6
F4
FF
EE
FF
FE
0A
0F
F7
05
06
04
EF
0C
05
08
F7
03
F6
00
F4
F1
FB
01
EC
F4
EE
12
F8
FA
0A
04
0F
0E
F5
FA
F9
0A
F8
FC
05
14
0F
04
06
FD
FF
F4
11
FC
01
F6
09
F9
FA
05
ED
07
F7
F8
04
EE
F2
FB
09
0F
EF
05
10
08
F3
06
F1
F6
0C
FB
F8
08
FD
ED
04
F3
F6
08
0C
00
EF
02
EE
0A
0C
10
12
F1
04
F8
0F
EB
12
06
0C
F1
12
FF
FF
0C
ED
F5
F5
FD
0D
F1
F5
FC
FD
07
E9
14
0B
05
02
F9
F9
00
04
F2
12
02
FB
F5
09
00
0D
F3
F9
0A
F5
0E
EF
10
FC
13
F1
11
0A
F3
01
F8
0E
01
14
F3
09
0E
FD
F8
F9
08
EF
F5
0F
F7
06
F6
0D
FE
00
0D
F0
EF
FF
0C
11
FB
FA
F9
12
F7
0F
F6
F8
FD
F6
07
FF
F5
F2
F3
10
12
0B
13
12
F3
14
10
06
F9
ED
06
F1
0F
00
10
06
EC
05
04
10
F2
F9
EA
03
13
F1
01
0C
F4
FD
0B
01
0D
04
FB
F8
F8
FD
F4
F8
02
F3
05
FD
03
0B
03
05
FA
F7
F6
10
09
EF
F3
07
EF
13
EB
04
04
FF
FC
F3
0B
F9
FE
F4
11
01
FC
EE
F8
08
11
F1
06
F3
08
FB
0F
02
01
F0
03
EF
14
F9
12
0C
0F
FE
10
F3
ED
0F
11
0A
FF
FA
03
06
F3
02
F4
00
FE
12
F2
EC
FC
10
06
0B
F1
F1
FE
06
FB
03
FC
0E
FC
03
FC
F4
F0
0D
F9
0D
FD
FC
F2
07
F5
06
07
0B
05
FF
16
12
EF
F6
EF
03
ED
F3
FF
15
F7
10
F1
FC
FB
0C
02
07
F4
02
15
F3
01
0C
0B
FC
FF
FA
04
04
F0
02
F5
F9
0F
10
F5
07
14
16
0D
03
0A
FF
FB
12
F3
00
F2
F2
05
FA
F0
0D
0C
F1
14
0E
F3
03
FF
0E
07
0C
0E
ED
F2
F5
F1
12
F9
FE
EA
FC
0C
0E
0F
F2
12
0A
05
EB
10
EC
0B
F0
F6
06
12
06
F0
04
FA
05
0B
F7
0B
00
F8
FE
FC
15
10
F1
ED
ED
10
EF
FC
F6
FE
07
FD
03
EF
EF
F8
F7
F7
02
10
12
04
00
F8
01
FC
07
F6
10
FC
05
09
03
F7
06
0F
FE
F7
FB
F7
09
F6
F3
FC
E9
F8
F2
F5
0F
01
FC
FB
0C
0D
F9
0E
01
F1
FC
F7
F2
00
F5
FF
F8
02
07
12
0A
0D
F4
0A
10
FA
FE
01
F4
04
01
14
01
F4
FF
0E
0F
FC
F0
F9
F3
0A
F9
F9
F7
EC
08
16
FF
0D
F7
06
F1
F9
F7
ED
FA
0A
F3
10
13
03
0B
EE
0A
FB
09
FE
0B
F6
F4
03
0F
F8
FE
0A
EC
F8
F1
0D
FE
07
EF
0D
F8
F4
01
FD
F9
F6
08
00
04
F1
FE
01
0C
ED
0A
12
0D
09
F0
14
14
11
FC
05
04
F9
13
10
0B
FC
02
06
FE
EE
F2
0A
EE
FD
F7
11
FC
FB
00
F2
F9
F1
0B
14
FA
F1
0C
14
10
0E
F6
F1
F4
02
10
0A
11
F5
F3
0D
02
07
0B
F0
F8
0D
05
0D
F0
0B
0C
FC
F8
05
FE
08
04
F8
FA
10
FC
F5
13
EC
09
09
EF
ED
EF
F6
0B
0E
F0
08
F4
06
FF
F6
09
FC
ED
06
0D
06
EF
03
12
0B
14
0F
EE
0B
F2
00
06
11
F1
0D
0C
0D
F3
F1
ED
EE
FD
F8
10
0C
FD
0E
04
0D
F0
F3
F4
FF
00
0D
F8
0E
ED
FC
F2
00
F0
0D
FB
0C
F8
05
0B
09
F0
05
15
08
00
F0
0B
F6
0D
0B
F1
EC
00
10
FF
08
04
08
01
01
F7
12
FA
F6
0C
05
F3
ED
F4
14
F4
F7
13
0A
06
08
14
07
04
0C
02
0C
F4
EE
09
06
13
02
09
F9
13
06
F1
FD
00
00
12
FF
01
F6
02
FD
04
03
12
03
10
0C
01
08
11
F0
F7
F0
F3
EF
0C
0D
F1
15
F4
11
04
FB
F7
F6
F1
0C
FE
F1
0B
FC
06
FF
F5
F5
F2
07
F6
FE
F6
12
11
02
F5
F0
FD
10
FA
05
0A
0E
EE
12
FD
FF
ED
FE
EF
04
0F
10
F1
0E
05
EC
10
00
F0
F0
04
02
FE
13
13
04
FF
11
02
03
01
0F
EF
FF
F7
0B
EE
06
F7
F8
F7
14
0C
14
11
F9
07
F3
0E
F8
FA
F4
12
08
12
FB
0B
FA
F3
09
02
F4
07
F9
F4
0C
F9
FA
F3
12
FF
05
F3
0F
FB
01
01
FA
ED
F0
07
0E
08
11
07
10
04
FF
F4
F5
01
F3
F6
0B
0A
F2
00
10
0D
F0
F2
EF
FF
0E
F3
0A
0E
06
F9
F8
F1
04
03
06
0D
0C
F1
11
12
F6
13
04
00
09
F7
F1
FF
0F
FD
FB
0B
07
EF
F8
06
02
ED
0B
F5
00
07
F6
00
0A
09
09
01
F7
FC
F6
FA
F8
FA
02
11
0F
FC
F7
F0
02
FB
EB
EA
FC
F6
FF
07
0C
11
07
0B
F5
16
FA
12
11
0C
FB
10
F2
07
F2
F1
05
F1
09
06
0C
0A
F4
F0
08
FE
09
FB
F6
07
0C
0F
F0
0F
0C
FE
11
F5
00
F1
08
F9
F7
F9
F4
14
02
F6
03
F2
F2
FB
0D
F5
F2
FF
09
F1
F6
FD
F0
06
00
00
FB
FF
FB
F5
F8
0A
05
FE
F5
F5
06
05
F0
F3
05
03
ED
0B
13
EE
01
0B
06
F2
FB
F8
01
02
F8
FD
F0
EF
F0
10
F5
08
F5
F8
FB
F4
F2
01
07
F7
F4
FA
03
0B
02
0C
06
EE
FC
FA
F1
FF
0A
10
F0
FF
F7
12
ED
FC
03
0E
0E
09
04
FA
F0
F2
0C
FD
0A
F8
07
03
ED
02
00
FD
EF
0D
11
F3
10
0C
FF
F0
FB
09
EF
FD
F7
0B
0C
07
F1
10
0F
01
F1
F5
05
04
F9
08
FB
FE
FA
EF
F9
09
FD
EE
FB
0B
EE
0A
0D
F5
F6
08
FF
0B
F0
05
11
FE
FD
F2
F0
02
0B
0D
13
F1
02
00
ED
F8
0E
11
FC
05
ED
03
03
08
01
0B
F0
FD
EF
0B
08
F0
EC
12
0D
F1
FC
F7
0B
00
F4
07
00
0B
00
05
03
08
00
05
F6
0F
02
00
0E
FE
0B
10
F0
11
06
FB
FD
15
04
07
FF
F9
EF
F4
0E
10
F5
F7
07
0A
FD
0C
0E
14
13
04
F0
F6
0F
FB
07
14
02
F7
F8
FE
FC
F7
F2
00
0D
0D
10
01
10
02
FA
FB
07
EE
F8
01
09
08
01
02
0E
FA
F6
F6
F5
12
EF
F5
03
05
07
F8
F7
F9
0C
FD
F2
07
0F
08
FB
FB
F6
F5
F8
FA
15
F4
EE
13
F9
F1
FD
0F
FE
F3
F4
06
FF
10
03
F9
FD
0E
13
10
F6
0A
FC
F5
FD
0D
04
F8
FA
FB
0C
F1
F4
03
F7
ED
FB
03
F8
0A
0C
0F
FA
F2
0C
13
08
0F
03
F8
05
FA
EB
EE
FF
13
0A
0D
FB
FB
13
FA
F1
F9
EB
0B
F5
F3
FC
0C
FF
F8
10
0B
0D
FB
06
FF
FB
F5
0C
04
02
FF
0E
F8
F6
03
FE
FC
F0
06
04
04
F8
F5
09
0C
F5
FA
F7
11
F9
02
0F
03
FE
09
FA
03
EB
FB
0B
00
0B
F7
03
FA
05
0C
03
06
0A
04
F8
04
FB
10
FC
EB
FC
0F
05
FC
04
10
0A
0B
02
F1
FF
F2
06
F6
0C
10
0A
EF
16
04
FD
FD
09
F9
EA
07
04
09
FA
10
0E
01
F4
01
08
0A
13
FC
03
02
03
FD
FA
0C
06
11
0A
07
0A
FB
F1
F7
02
ED
09
05
06
FF
08
14
FB
12
FA
FF
0B
00
F7
0D
FD
FA
FD
EF
FB
00
FD
05
F0
04
05
FC
01
F4
F5
F0
10
0F
F2
EF
03
0B
FA
F1
F6
EF
0E
0F
00
F9
FE
EF
F0
EF
FA
FA
03
ED
F5
07
F8
F7
11
15
0B
10
0A
F8
04
05
15
FE
12
11
FC
F5
F7
EE
FD
01
F0
F6
FB
12
FF
F3
FD
EE
06
FF
01
FD
EE
FF
F0
08
F7
FA
00
FD
09
05
04
11
13
0D
0F
F3
0F
EC
F9
EF
09
FC
0F
F3
0A
0B
F2
F7
00
06
EC
F7
0A
0F
0F
09
10
0A
0E
02
F9
0D
00
0C
04
F7
0D
F2
0D
FC
F0
10
0A
05
09
0D
0D
0E
10
09
00
07
FD
11
FA
F9
FE
15
0B
FE
10
00
F0
02
05
F2
F1
03
02
EA
0D
0E
10
0B
04
FA
04
F4
0C
0E
00
0E
EC
F8
07
11
0C
02
F6
07
10
14
F7
F4
02
00
F0
12
09
F5
0D
0C
00
11
0D
07
F6
F8
07
02
13
11
03
04
0A
F7
FD
0B
F7
FC
04
FA
FD
09
04
0E
11
0C
FE
FE
0D
EE
0A
07
EF
0D
FF
07
0D
FC
EE
FF
04
10
05
F0
02
0F
0F
F4
06
0C
13
FF
EE
12
04
00
0C
04
0A
F9
03
EE
F9
F4
0F
03
09
0E
F5
F2
16
F2
03
F6
FD
13
EF
F1
0F
08
F3
10
F1
10
FE
05
F0
FB
FC
EC
02
06
F1
09
F9
08
F0
02
02
F4
04
F7
FF
FC
F4
FC
13
F4
0E
01
06
FD
F8
0B
04
14
0E
F1
02
03
10
0D
FF
FB
F8
FB
F7
09
F9
0F
0C
09
09
03
F1
FB
FB
0B
04
06
EC
FF
F5
FA
FF
10
11
08
FA
0E
F6
00
14
14
F0
10
01
EF
FC
F9
0F
0B
01
02
0A
FC
F8
F9
FF
01
03
FD
01
F1
08
02
0A
FF
EC
F3
06
0D
0A
0A
0D
03
05
EF
08
03
03
F9
0E
0B
11
FE
01
0A
01
EC
06
EF
F2
FC
02
0D
FD
10
F6
F4
00
04
0F
F0
06
FE
09
F3
01
0C
F2
06
FB
12
04
FA
0D
09
08
15
10
FF
FC
0B
F9
11
10
F4
F8
F0
F7
F3
F1
0E
0E
F3
14
09
F4
F4
11
0F
10
FF
01
10
FD
09
F4
FF
10
0B
06
0D
F8
13
03
F6
F3
0E
ED
0F
0F
F8
F6
0E
EF
EF
06
0D
10
FF
01
0D
F9
0D
FA
F9
F2
13
11
EF
0F
06
01
F9
FB
FA
EE
09
05
01
15
FE
05
07
FB
F7
05
F1
09
FF
08
F3
0A
0A
0F
09
ED
F7
F4
EF
0F
F7
02
0E
0B
FA
FE
F9
FD
16
FC
00
F2
F1
07
F8
03
F2
0E
0D
F6
F7
F5
F2
F8
F7
0C
EF
FE
12
F3
0A
11
05
FE
ED
FF
F0
01
F1
12
F1
FF
05
F8
0A
EF
F2
ED
13
F4
10
F8
0B
07
12
10
F6
0B
00
15
FD
0C
0F
04
11
F9
03
00
F5
FB
F3
F7
13
F5
14
F4
FF
F0
01
12
F2
F4
FC
F5
03
0D
11
05
02
14
08
0B
F4
0C
01
01
F4
0E
04
09
13
01
10
13
FF
FD
00
06
07
F3
F4
FC
0B
08
ED
F2
0B
FC
03
FB
FF
05
04
0E
F6
0E
07
F1
0C
FA
0E
EC
FE
06
FF
EF
F6
FD
0A
F4
00
EE
F5
EE
00
11
07
F8
F5
03
06
FD
08
03
01
FA
FC
08
15
08
F3
03
03
F0
FB
F2
F1
18
0B
01
F9
F1
F8
0A
0B
F6
13
FB
F9
EF
07
0C
F4
0B
10
0D
F8
FA
07
FB
FA
FE
F6
0E
EC
FC
F4
0B
F1
F8
EE
05
FE
00
F2
03
04
EE
F3
05
EF
FE
0D
ED
02
F8
0B
F2
F0
02
F9
F3
F3
13
0A
08
13
EC
04
FF
0B
F7
FE
F9
03
0C
FA
0A
02
F0
13
FD
0F
F9
FC
FA
03
0D
FF
07
FD
FD
06
0E
FF
F3
01
F9
0F
F3
F8
08
0E
F7
F4
0D
07
F3
EE
F8
F4
F8
F8
02
02
F4
FC
FD
00
06
02
F7
F0
02
07
EE
FA
02
F5
0A
0E
04
F2
F1
06
F1
0E
01
FD
11
01
14
09
05
0B
0F
07
F9
10
0A
F4
FE
0E
09
F0
F3
0A
F1
F4
EC
F9
10
F3
0C
02
02
FF
02
03
05
F3
0D
0C
F4
F4
FB
11
0A
FC
13
03
F6
F0
0E
F6
F7
01
FD
0B
06
FF
F4
0A
09
F1
11
07
F0
11
FE
EE
00
EF
FF
EF
F1
01
FE
F9
EE
13
12
F1
F9
09
08
0B
EE
F6
0F
02
12
00
0E
11
04
FC
15
06
F4
0E
FD
FC
FF
02
F1
11
F3
07
08
F3
09
F0
F3
11
FB
11
EF
12
0B
EF
F2
10
14
05
04
F9
EC
08
F3
00
F5
FF
11
F6
11
FC
F6
04
FA
0F
F4
07
0C
0C
09
06
FD
0E
EB
EC
02
F6
EC
00
00
0A
03
13
F8
09
13
0B
0F
EC
F5
FC
F0
F6
12
09
FC
0D
F0
05
09
0E
F8
01
14
01
09
0D
0F
03
0D
FE
06
07
F4
EC
F4
FB
01
07
0B
EB
0C
0D
0D
F5
02
FA
F5
E9
10
F5
0F
0B
0A
15
08
04
0E
F7
0A
E9
02
14
F1
F7
00
FB
F7
EF
10
09
11
0B
0C
11
FB
FD
FB
F0
FD
F4
0B
F5
01
05
F9
01
0E
0F
F6
F8
03
0C
FD
EE
09
F9
F4
0D
F4
02
FA
14
11
07
F5
0E
FA
FC
F5
09
EE
0A
F0
FE
09
F0
0E
08
F4
0B
0B
03
F2
07
0A
FC
F5
0D
0D
FF
FA
F7
08
07
0D
F3
F4
0B
0E
07
0C
0F
0C
F4
0D
0D
F9
02
03
FA
05
FD
10
F2
F3
08
01
EE
07
F1
00
0B
04
FE
FA
FB
10
F3
F9
0C
04
FC
FD
06
11
0C
F1
E9
F9
02
0F
F5
F0
F3
EB
F3
00
FF
F3
EE
F5
09
F1
10
0B
01
EF
07
0B
FE
FF
0B
0D
FD
01
F0
03
FE
0F
F6
FB
F0
00
01
EE
EF
F8
0B
06
10
06
13
F4
08
FF
F3
F6
00
12
0E
F0
0A
F4
F8
12
EA
FE
0C
0F
F9
0C
F1
FC
01
00
07
0F
05
F7
EF
10
F3
05
F8
13
FB
08
09
F2
ED
06
0F
10
FA
F3
FF
08
0D
F0
F0
FA
02
12
FE
0C
F2
05
00
0A
0E
F1
07
09
F7
04
06
F1
F6
ED
0C
12
FF
09
EF
EC
11
09
F3
F4
08
EE
02
F3
FD
FA
01
FD
03
F8
EE
F4
0D
F1
01
00
00
05
10
F3
FA
07
0F
FF
12
EC
0E
F8
FD
00
03
F0
F2
EE
F9
FC
01
15
00
0E
00
0B
F7
F8
F1
04
00
F4
FD
10
F0
07
F4
16
01
08
F5
00
03
F7
F0
FE
05
F0
06
F8
FD
F1
12
EF
08
14
F6
0F
F2
0D
F3
EB
13
F7
F4
13
EE
F8
F2
16
FE
F7
FC
05
F6
F7
08
0C
12
F2
F7
02
EE
0C
F2
EF
0C
0F
ED
05
05
F9
F0
FA
04
F0
FA
0D
00
F2
F7
08
0F
F2
EC
08
F6
F9
04
F3
11
F5
F0
EE
06
0A
F4
F9
FA
F9
0E
0E
0A
EE
12
0F
0A
FB
0D
F4
04
08
0F
05
04
F0
FC
00
FC
FD
03
F3
FA
0E
F3
E8
03
ED
FD
05
02
EC
F8
F1
06
06
F4
EF
10
F0
EF
F7
06
F7
FD
13
F1
F6
FA
0C
F4
05
F6
03
F3
11
11
09
12
F0
FC
03
07
10
01
F5
F7
09
FF
F7
10
01
FA
F2
0F
F1
F9
F4
0B
FD
F3
12
08
0E
F5
01
FE
05
06
F4
F1
10
07
F9
FC
0A
0D
F4
EE
03
F8
F6
04
EF
0B
F5
F1
01
F3
FF
F8
10
0D
EF
0E
FA
F3
F8
F5
04
11
F9
03
F0
FD
0F
F5
07
F6
EC
00
03
01
15
05
14
0B
08
FE
0D
F4
EE
14
F7
0B
F0
FC
FB
F5
04
0C
06
F0
F0
F4
FA
05
F4
00
F9
F8
EE
F9
F9
01
FE
F4
FA
F1
FD
10
02
F6
06
F8
F5
F4
FD
04
04
0F
EE
F7
0C
04
F0
EF
0D
02
FE
0D
09
FD
17
EC
15
09
05
10
0F
07
F0
02
FE
F3
01
07
F0
06
14
0F
FF
01
F8
F3
0C
15
00
FE
01
F9
FD
0F
F3
FA
06
F1
05
00
0C
09
FA
0E
0F
06
08
F2
0F
0C
F3
FF
16
0E
03
06
F6
ED
04
F9
F3
02
F0
08
0B
F8
F3
10
13
07
FB
0B
F7
0E
06
F8
07
F0
11
F7
03
0D
F4
0B
F0
F4
13
F5
09
FE
11
F4
10
FC
05
07
F3
09
06
0B
0E
05
F6
14
08
EF
F7
FE
0F
05
07
11
F9
F6
F1
F1
08
07
F0
F3
15
FB
F7
F1
13
FD
07
FF
09
F1
F7
10
F1
08
F6
F9
12
0A
0C
12
F9
06
F6
ED
EE
F1
F5
09
09
07
0E
10
01
F4
EC
F5
11
0F
F3
13
F0
02
FA
12
08
EC
13
EF
00
06
03
11
F5
F2
EF
0B
07
F5
0D
0C
FB
EE
0D
F7
01
0A
EE
0B
06
0C
04
F0
F1
12
12
0B
FA
FE
02
0C
FE
12
0A
0B
0B
06
F4
FE
08
F4
0E
07
09
EC
F6
02
EF
FD
09
F3
0E
0B
0B
13
FC
01
F0
F6
0C
13
0A
FF
F2
EE
FF
F1
FB
02
F0
F6
EB
FC
0A
FA
11
02
F5
07
06
02
F0
0A
F9
13
F3
10
08
F4
00
02
06
F1
EF
14
FF
F6
10
13
04
00
F5
F7
FB
F8
0C
FD
12
11
FA
0B
EE
EF
00
09
FB
0C
F8
11
0E
04
F8
ED
08
01
05
02
02
03
F4
09
0C
F8
0B
F5
FE
08
09
12
FC
FA
FE
0E
FE
0D
F5
0E
11
06
ED
F4
FF
F0
FB
FD
FD
F7
FF
07
FB
12
11
0D
14
0F
08
0F
16
FE
F6
FD
02
F5
EB
10
0D
0B
01
EE
F3
08
FA
F2
FA
F2
0E
11
FC
F2
FD
FD
FD
F3
10
ED
EE
FC
0F
F0
0B
07
F0
F4
FD
FF
0B
11
10
F9
13
FB
EC
04
FE
F3
F3
FE
0A
F9
F5
F5
FB
0B
ED
04
FD
07
FD
F7
FE
F7
FD
04
F5
F3
FC
06
F8
0E
F9
FE
EF
F2
F6
F5
11
01
02
F1
EC
07
09
0D
04
FD
08
06
FA
0C
FA
F2
F0
12
08
FB
0F
FF
0A
04
10
0A
FB
F0
F2
EE
F3
12
0A
F2
02
06
01
0D
06
04
F8
FD
00
EF
0B
0A
0D
0B
EF
04
07
FC
00
EF
11
01
0C
16
11
00
00
F6
07
F9
0E
F3
08
FA
14
EF
0F
F9
EE
0F
F1
12
16
06
12
02
06
15
0D
12
F0
F7
0D
FF
F1
F7
F4
07
F8
00
EA
0D
11
10
F2
02
F4
07
05
04
0D
01
F9
12
F4
EE
F5
0A
F4
EE
03
04
FA
F5
FF
0A
F8
EE
0C
F5
03
FA
FD
EC
F1
08
0A
01
0F
01
11
FB
0C
08
01
F8
FD
05
F0
F4
0C
EF
06
0A
10
0E
0B
0E
EF
FD
08
11
07
0D
03
09
15
06
FD
FB
F1
F2
03
0D
02
FA
0C
F5
F9
EE
F3
09
06
EB
09
FE
06
EF
00
0F
F8
EE
04
0D
FA
14
FE
F9
07
11
FB
06
0F
F5
EF
F0
FA
F0
04
F1
FB
F2
0D
FF
F1
FF
FA
FC
00
12
F8
FA
0B
ED
EF
EE
F8
F1
12
FD
EF
0E
12
EA
0A
0E
FE
07
0B
0C
ED
03
09
02
FD
F3
0F
F4
0C
F0
01
06
0C
F8
11
FA
0B
02
F7
0D
EF
F9
FD
07
0C
F7
0F
FA
06
F4
13
FE
FE
06
EB
09
0E
0F
07
EE
F9
0C
10
F6
07
F3
0C
01
F4
EC
08
F4
13
10
FA
0C
F4
02
01
18
0C
02
F5
EC
11
F7
0C
EE
11
F4
14
09
06
0A
02
FA
07
F2
EE
F3
07
11
F2
F8
FF
EC
06
0A
EF
F6
09
03
FD
0D
FD
F7
F5
FB
16
FE
F6
0F
0C
14
FA
04
EF
09
13
0C
F6
F9
09
14
F2
EE
FF
F7
0B
F9
10
F8
00
F1
F0
10
F9
ED
01
07
F6
F6
10
01
0F
F1
08
07
F1
02
07
FD
FC
F3
EC
10
F2
00
0D
03
F2
13
0A
FD
FF
FF
FC
0A
02
03
FF
04
0C
03
F9
0B
F6
13
F3
13
14
FA
03
0C
0D
FC
F7
FF
01
12
0A
06
11
EE
05
EC
F7
EF
02
FA
06
FB
02
13
F4
FD
F5
EE
FB
FA
FC
F0
0C
0B
F3
FC
09
11
FB
01
01
FC
0C
06
FF
FF
EE
02
F5
F7
EF
F2
0D
03
02
F6
0D
F1
F3
09
04
03
0B
F2
0A
EF
04
EB
0D
EF
F4
F4
F4
13
09
00
10
F6
F9
0C
EF
05
FE
07
FD
04
06
03
F3
F0
F3
F9
01
02
03
F7
F9
FE
FD
F1
12
09
EC
06
F9
F4
0F
FB
F6
F3
07
0B
07
FC
02
09
F9
13
0B
11
F7
F5
04
0E
ED
0B
0A
EE
04
ED
01
F6
0A
15
0A
04
EF
05
F4
0C
12
06
FA
0C
0E
F9
01
FE
F8
04
0F
13
EE
F8
FF
F6
F5
FC
03
0A
F5
0F
12
09
0D
FD
FE
08
FB
FC
F8
F3
06
0E
10
F5
ED
0E
F1
F6
0D
EE
0D
F9
08
0E
04
FC
0A
0D
F6
F5
0D
FB
0C
0B
0A
F4
E9
F3
EC
F2
10
F4
ED
12
0D
F2
F6
12
FC
0D
F9
FC
10
EF
00
0F
06
F3
EF
03
12
03
FA
0E
F4
03
F9
F4
0E
00
F3
F4
0C
01
F1
EC
FC
12
FB
FA
06
F8
FA
07
EE
04
FC
00
F8
FB
07
F6
00
06
0A
FD
14
03
00
F7
F4
06
0C
F5
06
F3
F3
01
15
ED
EE
16
FC
F6
10
10
10
FD
0E
0E
0B
F6
ED
02
EA
0A
0C
ED
FF
FE
F2
0A
FE
FD
0B
F6
EB
06
ED
0A
11
F4
F4
F1
09
F1
07
0D
07
F1
00
F7
F3
15
FA
0A
EE
F6
07
FA
01
FC
07
E3
14
06
05
EF
09
FB
F4
F9
FD
F8
F0
10
03
0D
F4
12
0C
EE
F7
06
12
0A
F4
FD
EC
F4
0A
02
F1
FA
F9
04
F7
FE
F2
05
11
10
0F
F1
10
0D
0C
05
ED
EE
12
0C
F8
03
18
10
FC
FA
06
09
EE
F1
0D
FF
ED
FA
F4
01
11
FD
05
0E
08
FF
05
F7
0E
F7
05
07
09
FC
EF
01
01
F9
08
0E
F7
F5
F0
07
FD
F2
F6
08
F6
01
FB
F5
0C
12
FB
FA
F3
07
13
FB
0F
15
04
06
FC
FF
12
F2
0D
00
02
0D
F4
F5
FF
05
0A
12
F0
08
04
F8
06
09
0A
F7
0F
04
0D
08
EF
FD
05
08
05
06
F8
09
04
10
0D
EF
02
F1
04
04
ED
08
F8
09
07
10
02
F7
F5
EF
FB
0A
F1
0B
FA
02
F0
08
0C
F1
F5
01
F9
0B
F1
F2
0A
FE
0A
F2
07
01
03
F0
FF
FD
F1
00
FE
0A
01
0F
F6
07
08
12
06
F5
EF
12
0E
09
F7
04
09
02
0A
0D
F8
F5
0D
ED
EC
FC
0F
0B
F7
F9
07
F1
F6
F1
F3
FB
00
0C
FE
FA
FB
0D
F5
F6
ED
08
F2
F9
FA
08
EF
F3
0E
FC
09
09
EF
01
EC
FE
EF
16
09
10
FF
11
04
0C
F9
FF
11
EF
F7
EF
04
03
09
09
F9
12
00
F9
00
05
FC
10
FF
E9
06
16
11
08
09
F6
0D
FD
F2
10
08
F2
F4
F3
F5
0E
0E
0F
04
F6
08
05
F7
08
FA
F7
08
FF
F0
F8
F2
FE
01
F2
04
0B
F7
12
12
0E
EC
F8
01
F3
0C
F0
07
07
FB
EF
F3
F7
0F
13
01
F6
F5
FC
F1
07
04
ED
0B
F6
ED
FA
11
F9
0E
0B
F8
FA
EC
EB
F9
FF
FD
17
F5
09
ED
04
F2
FF
02
00
F3
F3
F7
F4
FC
FF
EA
EE
F6
F0
F3
F3
F8
14
04
0C
FD
F6
11
F4
09
F6
F7
FB
05
10
F7
FD
0B
0E
F6
F7
05
F6
FE
EF
F8
03
06
05
07
F7
F8
10
03
FF
F1
07
FB
0F
F3
0B
F9
14
F0
F5
02
08
F2
F1
0D
00
F3
EE
FF
02
07
0A
FF
11
14
F0
0E
F4
F0
F3
FE
01
0A
0D
04
11
F0
03
07
F5
FC
FE
06
FB
04
EE
FC
07
0A
F4
15
F4
F2
04
F7
F3
14
0A
F7
FC
0B
0B
F5
F8
17
04
F4
07
0D
04
FF
03
F1
F3
11
0A
0E
FF
00
03
F8
F0
0C
F7
F7
EB
0F
00
01
0B
10
13
05
0A
11
E9
F7
F9
ED
FD
F9
F1
12
03
FE
F8
FE
0B
0C
F7
F2
FE
12
0D
0F
12
09
0D
F9
F8
F0
11
F3
08
0C
F3
06
05
05
F6
0A
F7
F0
F2
0B
04
11
FC
11
F5
0F
01
0C
EC
02
F3
F2
06
13
0B
12
05
08
FA
EB
FC
F3
0F
FB
09
14
FE
0A
0A
F3
12
03
F4
07
0E
09
00
07
FD
03
00
03
07
F9
F7
07
04
FD
05
FE
F7
F5
FD
0E
16
01
0A
FF
EE
01
EE
F9
0B
EC
09
09
13
10
05
14
FA
01
FC
F9
FE
07
F1
11
0C
00
FF
F2
FA
02
EF
08
0E
FE
04
10
0E
FF
FE
F3
0D
F7
03
01
EC
F2
08
05
F9
04
EB
F7
10
F1
05
F8
EA
F6
EE
07
01
10
F0
01
F6
F9
F6
FA
00
11
F6
06
04
07
FE
00
06
ED
F5
0F
F3
F6
03
F0
06
F5
03
10
F1
12
0D
08
FF
F8
F6
FB
EA
EE
FF
0F
FC
FA
F3
EF
F0
F4
0F
11
EA
EE
0B
F2
10
FF
F7
FE
F8
FB
0F
03
F3
03
0F
F1
0C
F0
FA
F4
F7
05
09
12
F3
F5
04
FF
02
F7
04
FE
0E
F8
03
12
0B
FA
F6
FC
0D
0E
FD
01
12
FD
F4
05
F6
14
08
0F
F1
F2
05
EF
F5
ED
EF
F6
FF
FC
14
05
07
F6
EC
F0
11
05
05
04
14
03
10
04
F5
F4
F1
06
FE
FC
EE
13
13
0C
03
00
12
0C
FA
FD
09
05
F8
11
F8
F5
13
0F
F3
FE
0E
F5
FA
F6
08
09
F4
11
12
FA
02
FB
F9
0B
13
FA
14
F2
0B
03
FF
13
13
FC
FB
F8
FB
03
0F
FA
FA
F5
F6
09
F8
F9
FB
0E
F0
FC
F0
F7
10
F9
F5
F8
F6
02
FC
09
FE
01
F8
0A
15
10
F2
12
0C
FB
FB
04
0F
F5
11
05
00
F8
10
F9
03
07
F9
F2
01
02
0A
0A
09
F1
00
F5
03
FE
02
02
01
0D
ED
FC
F8
FC
F8
F2
F4
03
FE
F7
11
03
FC
F3
F9
0C
01
F4
0C
05
02
04
0C
10
FD
01
0A
10
08
0F
EE
13
FA
FE
F5
0E
FB
12
FA
F2
FC
09
F3
06
EE
0B
EE
FF
04
12
F9
FB
0F
F7
0D
12
F3
F6
F3
EF
FE
FE
0C
F4
EE
FB
F8
13
0D
06
FC
FF
02
F5
FA
11
F2
F1
FA
06
FA
0E
F9
0A
04
F1
05
05
F2
FE
00
F1
F0
14
05
14
06
0B
F7
F1
03
FF
F1
14
0C
F5
FC
12
09
F9
F8
F6
03
0C
0A
08
FE
F0
05
13
F7
12
F5
F8
06
0B
F1
FC
F0
FD
EE
FD
00
04
02
F9
F3
00
09
F2
0B
07
F5
EE
13
0C
F9
10
F9
ED
0E
08
F0
F4
FB
FC
0C
EE
12
F7
F7
F3
F4
F1
F4
13
F7
05
06
0D
12
F7
FA
0E
FD
F1
EF
FF
13
08
FC
FF
09
FE
02
F0
09
13
FD
09
F1
F7
13
05
FC
F4
F4
0B
ED
14
F1
FE
12
0E
10
F4
03
05
F7
FC
12
0E
07
F2
0E
F7
18
08
01
F4
12
10
F8
FB
FE
0B
EC
F6
0A
F9
07
EE
F5
0E
17
FD
15
00
0C
EF
0C
FB
03
FD
F7
F2
FC
0E
0D
F8
07
F9
08
03
0A
F4
01
F3
FF
05
0C
05
00
07
FE
F7
F7
11
F5
F6
00
FF
14
01
04
FC
07
EE
08
FD
08
16
FD
09
06
FF
F7
EF
F2
F0
11
FE
08
0A
F0
03
04
0C
0C
12
07
F2
FF
F3
F0
F8
06
F1
FC
0B
ED
EE
F4
EF
F0
06
03
F9
F0
F5
EB
0B
EC
0A
FB
EF
02
F3
F0
08
06
FE
17
05
0E
11
F0
0B
01
F7
07
F3
08
0E
F2
FD
FD
01
0D
F5
F3
FC
03
F7
10
F8
0F
F3
0A
08
EF
FF
00
FC
0A
03
F2
F3
0A
F9
0E
EE
03
09
FA
FB
EE
0C
0D
10
EF
06
0A
F7
11
F5
F6
F2
EE
F4
F9
00
F5
0E
12
0F
FB
03
0F
14
F8
0E
11
0D
FE
FD
02
FC
02
F6
04
08
13
01
0B
06
F6
06
FF
06
FC
F6
01
ED
FA
F8
08
F0
ED
EF
ED
F1
05
EA
13
FB
F7
0C
0C
13
FB
ED
10
10
08
F8
0A
F0
F6
06
F0
0A
F2
F2
F6
FB
11
07
F8
FC
09
F4
02
FF
F3
F5
FD
00
03
F0
00
12
0D
FE
19
F7
F7
0F
09
07
F4
01
02
01
F7
0A
04
13
EE
FD
02
10
FB
01
F0
06
FC
F9
FA
FC
F4
F1
02
06
FE
0E
FD
05
F2
FB
F8
FD
F9
0E
F7
FA
FC
04
06
11
0D
03
EE
08
FC
F2
EF
F8
F4
0F
F9
0E
09
ED
EB
FA
00
0D
11
06
01
F5
02
01
01
0D
F2
F2
F4
0B
06
06
F6
02
04
FA
ED
F5
0F
04
0C
F0
0D
FA
F6
F5
FB
08
F9
02
03
0B
08
FB
EF
F6
F4
0C
FE
FF
F5
0C
0A
09
EC
03
EB
F9
08
F5
0A
FA
0A
0D
0A
EB
F9
FD
02
0E
08
FD
F8
FC
03
10
FA
11
05
F8
03
09
08
F6
0D
F6
02
05
01
12
F9
FF
FD
10
05
07
10
07
0B
00
FC
F6
09
FD
0B
FF
F2
06
02
F1
08
F4
F9
FE
0E
13
0E
F1
FC
F0
07
F3
11
F9
0E
03
F9
F0
F2
F7
FF
0B
12
FB
FF
FF
0B
11
05
0C
EE
04
08
F9
FB
05
EE
01
FD
F5
09
FE
EE
F6
FD
10
09
0F
07
00
13
EE
FB
ED
12
03
03
10
FE
F6
0C
FD
F2
F5
02
F8
10
ED
0C
12
EF
FF
06
09
06
F1
02
07
08
FA
0F
FD
10
05
FE
08
F4
FC
F2
08
F4
F3
06
F5
14
05
02
13
0B
02
09
06
FB
15
FD
03
03
00
FD
F8
FB
FA
04
F2
00
14
FF
09
F6
12
11
0C
F4
F3
0B
13
0C
F8
04
09
EF
F0
0E
0C
10
F3
EB
F2
09
F1
11
03
FD
FC
14
01
F3
FE
E9
0E
EF
F9
ED
F8
FF
0D
0A
F0
02
04
F7
FC
F4
F2
00
F4
0F
0C
12
02
EA
FF
04
05
03
FF
00
F1
03
07
F0
F1
11
07
FB
F0
F9
F1
F3
F5
FC
F0
0E
FB
FE
07
0F
F1
10
03
EC
0B
07
F9
12
F8
10
08
ED
F2
F7
E9
11
09
06
0C
12
07
F6
0D
F2
F8
07
F9
09
08
F6
09
06
F9
0C
EC
01
F4
06
F5
F1
07
FC
EE
F9
F7
0D
07
0B
0E
0E
10
F3
0E
F0
01
00
F3
14
F9
15
05
01
02
13
F0
12
0F
F7
EB
FA
FA
F4
00
F0
10
05
12
0A
0D
F5
0F
0D
FD
01
F1
10
F5
14
ED
FD
0D
F3
FE
EF
01
06
F3
0F
EE
FD
0C
F9
F2
F9
10
03
12
F0
F2
F5
12
06
03
F8
03
06
F8
04
03
08
12
F9
ED
0A
12
FF
11
F8
F7
08
FC
0C
0D
03
F1
EB
FC
0B
07
F7
FB
02
03
F6
07
F8
02
FC
08
F8
FB
FA
FD
12
F8
FB
00
11
F9
FB
11
FB
ED
14
03
09
0E
FB
03
FF
13
F8
03
F6
F9
F6
04
F6
01
F9
FF
FE
0A
FD
FF
ED
10
F3
0F
02
0F
04
0A
04
FC
0F
07
0F
F2
F3
F3
EF
F7
EF
F0
F1
FB
0F
0F
01
F4
10
16
07
04
04
12
F0
F8
F5
F8
06
EE
0F
0A
03
F2
F0
00
02
EE
0A
06
EE
F1
F9
F0
04
F6
01
F9
F9
0A
10
ED
F4
0D
FC
08
EB
05
0A
FE
FD
04
EC
0D
04
F5
12
11
03
04
03
0C
08
13
10
08
04
FD
10
F4
ED
FE
07
01
0F
FC
0A
F6
0F
01
0B
0B
0A
F8
FA
12
0D
08
F1
EF
11
F9
03
F9
F5
09
17
17
F5
F5
11
F4
F1
15
06
FC
03
F1
07
FF
F1
F5
03
F6
F6
F9
08
15
12
F7
F6
0B
F9
03
0D
0E
EF
F4
FB
F0
06
F1
04
0D
F6
F9
07
FC
04
F5
0A
FF
EA
14
F5
07
10
EC
E9
01
12
F6
F6
01
F5
FB
09
F7
14
02
03
E9
F9
FF
09
EC
EF
03
F9
0C
FB
EC
07
03
0D
10
EC
FD
04
0E
0D
0A
15
03
E9
01
F1
F7
06
F1
11
13
F8
10
05
00
09
F2
00
14
14
01
F4
10
0A
F4
FE
0D
EE
0A
07
0A
08
FB
08
FC
12
12
F7
FB
00
F5
FD
0E
12
0E
F7
FE
07
FE
07
0B
07
EF
F8
0C
FB
0A
10
F0
F7
08
04
FA
F8
F6
F3
02
05
0B
13
08
02
F5
0F
02
0A
F0
EF
13
14
F1
09
03
FA
0A
00
FA
0B
FE
FC
EE
FF
FF
0B
07
0B
F3
FD
F6
0B
09
04
F6
04
F6
F9
F3
07
00
F8
00
0F
FB
03
0B
09
04
12
00
0C
F2
08
10
04
F9
F1
08
EE
0C
0A
F2
05
00
0F
0E
05
0C
F6
0D
FF
EF
EF
0C
F7
F0
F7
ED
FA
12
