15
0F
04
0B
00
14
0E
FB
F0
10
0D
F6
F2
FD
09
F6
02
00
FB
03
F3
11
0D
0F
FD
F0
FD
F5
F1
F7
E7
FC
07
EE
F1
0D
FD
03
06
FC
0E
10
00
06
F0
F6
06
03
0C
0C
EF
F8
F8
12
FC
F5
09
F1
EF
F6
FA
01
FE
07
13
0C
EE
0B
F0
03
11
FC
01
F8
FA
0A
0E
F0
F7
05
0A
02
0E
07
F0
03
09
08
00
0E
F4
F8
EE
FD
02
0C
EF
12
0F
05
FE
F2
02
EE
F3
FB
02
0F
F4
09
F1
F8
F3
0F
F7
EF
01
FF
F7
09
EF
15
F3
F6
F5
FD
01
FC
EF
00
11
ED
14
08
11
08
F4
FD
F7
FE
13
04
07
02
FC
EF
FF
FA
EF
00
05
0E
0A
FD
F7
12
EB
FB
F7
FF
15
0C
F4
EC
F3
F4
EE
09
02
0F
EC
F4
F6
FC
FE
08
10
EF
09
0A
FF
F6
0E
02
FC
FB
FD
0B
04
0C
07
F1
0A
07
04
0F
F2
07
FB
14
07
10
F8
14
01
08
F1
F0
FE
ED
13
11
F9
FE
01
F8
F5
11
F7
07
13
F6
F4
F4
0A
FB
0C
01
FB
05
F7
07
FF
14
00
FE
F5
F9
06
EF
EC
05
0D
07
02
0D
0E
EE
0E
F4
15
FC
0D
F3
FA
FF
00
FC
10
F1
06
04
01
F3
F4
07
FC
13
EE
ED
FC
08
04
FE
02
13
FA
F9
F6
0F
04
0A
01
0B
FA
FC
0F
0D
F9
0F
0D
F6
F8
EC
F1
10
0B
FE
F3
0A
F4
F0
00
F1
08
FB
FD
FD
F4
08
09
0C
EE
0F
04
11
06
10
F0
F5
13
F7
07
01
03
FE
FA
11
F7
0A
F6
12
EC
06
FE
00
07
F6
EF
0D
EE
13
05
EE
0F
EF
0B
0A
F2
09
F1
02
F3
11
FF
F9
F1
12
0E
F3
06
FB
EE
F6
05
FB
05
0E
14
00
0B
00
FE
0C
F5
FF
FE
0B
FD
F1
04
03
FE
F2
09
FE
09
02
00
F7
02
F5
0F
F9
09
0F
0C
ED
0D
EE
ED
F0
0E
0B
F3
10
05
0D
F8
0D
F0
F8
04
0B
07
10
01
F1
13
ED
F6
01
0B
08
0B
ED
05
08
0B
F5
13
03
EF
09
F5
EF
ED
09
0A
FC
F4
0B
EB
FB
F2
01
0D
11
13
EF
F9
FF
0D
F9
0D
EC
F1
11
10
04
EE
04
10
0A
0F
FC
F0
0E
0A
0B
FE
ED
F4
F0
09
FC
FA
0D
03
F2
00
0C
0A
EE
15
FE
05
05
10
ED
FE
FF
F4
FF
09
04
FF
FF
0B
0C
F4
F3
EF
07
F5
F2
F3
0C
FD
F8
06
0A
00
FE
0A
F9
04
EC
EE
FB
EC
07
F8
F0
0C
F4
13
FA
08
F1
12
F7
F0
F7
FF
F8
0B
ED
F3
F2
07
09
F4
0F
F4
00
05
FA
F7
05
F5
F4
F3
F2
11
13
EE
01
F7
0B
0D
EF
03
F9
FE
05
FB
F9
FD
05
F0
F3
0A
FD
FA
10
07
0D
10
01
FC
FA
17
FC
FD
F7
0B
ED
13
FE
EA
F1
07
01
F8
F9
F4
11
F5
16
0D
EE
FB
F1
0A
F1
F3
F1
EE
F7
03
F3
FD
FA
F9
01
0D
F2
00
10
F1
0C
09
F5
00
F7
FF
13
FF
05
0F
10
F5
05
EC
F9
F7
04
12
ED
F5
13
00
FA
00
0A
F7
F8
F1
09
0E
0D
FA
06
0E
0A
06
FF
FA
13
12
07
FC
04
FF
EB
08
08
F0
FB
00
07
02
00
FC
F6
0E
14
F1
FC
0A
F8
0A
06
0D
01
FE
0F
F0
11
0E
04
F9
F0
0D
FE
00
01
12
F7
F2
07
F2
05
07
0B
03
0F
03
FF
10
FC
0B
09
09
FF
F4
11
0C
ED
FC
F4
FE
F6
F7
10
0B
ED
EE
03
00
11
0E
03
0A
0E
14
ED
06
02
02
F1
0E
05
FF
09
00
0A
F7
03
ED
F4
0D
FF
13
0A
11
FE
EE
0E
05
F8
03
F7
07
F0
08
F7
13
ED
F4
F6
13
FF
FA
11
FD
07
04
F4
FE
04
0B
07
FF
F2
0E
0F
F5
F7
06
FC
00
F4
01
FF
04
EF
08
0A
0A
0E
F3
07
0B
FB
F4
0A
00
0C
0F
11
14
0E
0C
0E
FB
00
0E
F9
F4
12
0A
01
11
0D
13
05
05
EE
0E
06
12
F5
F7
F4
0C
FC
FF
F2
06
03
F4
07
F6
F4
FE
F9
FF
F4
F3
FE
ED
06
04
EC
09
10
03
FF
0C
FE
01
F4
FA
12
08
13
0B
03
0B
08
01
F1
F8
FA
01
FD
0A
F1
00
0F
FB
00
F7
F4
FC
11
00
F4
0C
0F
10
0E
FE
11
F4
0F
FD
0B
02
00
10
0C
01
09
02
11
F8
F6
02
EE
00
14
FA
13
05
FA
08
02
03
09
FE
07
F5
0F
F6
09
F4
15
FE
F9
10
F6
03
F2
02
11
01
F1
F2
FA
09
0E
FC
0D
E9
0C
01
F0
FF
04
10
00
FF
FE
FE
10
FE
0E
FE
F9
F4
10
FE
06
05
FD
FA
F5
FD
FA
F2
F4
F3
FE
08
F2
FE
EF
F8
07
01
F0
02
0A
FB
F6
F9
F1
F9
F4
05
13
FD
F2
15
F6
14
FF
02
00
13
F2
05
0D
05
07
0D
13
F0
EB
02
F6
F7
FB
FB
12
FE
FF
EC
10
EE
F7
04
08
14
13
F9
06
F6
10
0B
F1
06
06
06
0A
06
F0
04
F5
F6
08
FC
F7
12
06
F3
08
F2
EE
FE
FB
0C
EE
0F
03
FF
11
02
12
0C
07
FD
06
FB
04
FF
02
ED
0F
02
0C
12
F2
F7
F1
FF
F3
0B
0B
07
09
09
0D
0F
FF
10
EE
FC
14
03
FD
F2
07
0F
12
F5
03
0C
0A
00
EC
02
F7
08
F4
EE
0D
0A
EE
F3
F5
FC
08
06
03
F4
FD
0F
04
07
0A
ED
F9
00
F4
FA
EF
03
F6
F5
EF
00
EE
FC
0F
F0
FC
F0
F0
01
09
05
F7
EE
EF
F6
0C
F2
06
09
F8
FE
FB
FA
FE
FB
15
F3
02
EC
FC
F4
FA
FA
FF
F6
08
0B
FA
0E
F7
0D
F2
F1
0E
FC
FE
04
14
F1
05
0A
FD
02
F9
14
FA
09
06
FE
07
02
01
F4
F7
04
FF
03
09
00
11
06
10
FB
00
FD
0B
F7
0F
F2
EF
0F
02
F3
FA
FB
F4
FE
EE
13
FA
07
F4
EE
EB
02
F2
F2
FB
04
F2
F9
09
00
FF
03
0A
11
F4
F6
08
F0
F1
FD
08
FC
F2
05
EF
F5
09
12
F5
FA
F4
0D
EE
0D
08
0F
ED
F0
04
F7
00
0E
08
F1
F4
0A
12
04
12
01
0A
0A
F9
11
0C
16
FE
0C
03
F4
ED
07
F3
F2
FA
F8
F7
FE
06
F4
04
F3
EE
00
F2
0A
FE
11
FC
FA
06
FE
06
ED
00
0E
12
F5
ED
F1
04
ED
00
0E
07
00
FE
F7
FF
F9
03
0F
ED
FA
F0
05
F9
EF
09
04
00
F2
F0
F0
FA
F1
FE
01
F8
FD
FF
12
0C
F5
05
0F
F0
FD
FE
F3
05
FE
FC
EC
10
11
FA
F6
09
F2
F9
05
FC
05
F9
0B
01
FD
10
06
10
ED
00
F5
FB
F1
F9
08
0F
FA
11
00
10
EE
FB
F1
FE
F1
FB
EF
F2
FB
FA
F8
12
F8
F0
EA
F9
F6
F2
10
0A
FF
01
FB
04
EE
0D
11
0F
F8
0E
0A
09
10
01
0C
0A
F4
F4
0E
07
05
0F
EE
F8
F6
FE
01
06
0B
F5
FF
F6
FB
F6
0B
F2
06
F4
05
06
FE
07
F2
FA
12
06
06
10
10
03
F4
FE
F0
09
F7
0F
0A
0B
08
EF
06
10
0B
F2
02
ED
F9
FE
08
0F
14
04
04
FC
01
01
08
FB
0D
0F
F9
FE
08
F6
F1
00
03
05
FE
10
05
06
04
14
08
0D
F2
0A
01
F3
F7
F1
F5
09
0C
00
F9
12
F0
06
13
F0
ED
F5
F1
00
09
F5
FB
F4
06
F8
0A
F1
FC
F5
F5
09
FD
07
04
01
10
F6
14
F1
F7
EC
0D
08
0D
FB
FE
FF
FB
08
0F
0A
0C
F5
EE
F7
EB
F6
0B
F4
02
FC
07
F8
12
13
0F
F6
F9
03
05
F2
FF
F0
FD
F2
F6
10
0A
FA
12
EA
FF
E9
03
0B
ED
F3
EF
F0
F5
FC
F0
0E
02
03
ED
F8
04
FE
F8
0B
0C
F9
07
EC
F2
05
0F
F6
FE
FF
03
07
FB
02
03
10
08
FF
FC
12
F1
0E
FF
03
0D
ED
12
07
EF
F4
0F
FC
FA
09
F9
0F
0E
F0
F1
10
05
F7
FF
ED
F1
14
FC
0E
F6
FE
F5
F9
0A
FD
05
F9
0F
F7
0E
FA
F9
FC
ED
FB
FA
09
0C
F8
F8
FE
09
06
FF
09
03
12
EF
03
FC
FD
02
F4
02
FA
14
0D
ED
08
0D
06
0A
F7
09
0E
F1
EC
FE
02
0B
0A
F8
03
00
FA
11
0B
F4
EF
08
0C
04
F4
0C
F9
01
F8
F3
03
FD
F3
F4
09
F4
09
00
EE
FE
F1
05
05
EC
0B
0A
03
EF
0F
00
F6
F3
10
16
ED
FA
F2
10
0E
F7
05
F1
05
F5
11
0C
FB
F2
11
06
FF
F3
08
01
02
0A
0D
04
FA
F7
07
F0
0E
13
0A
FE
0F
09
14
02
0A
0A
F6
14
F6
14
F9
12
EF
00
FF
04
08
F2
10
0B
F1
F9
06
F8
05
F1
06
F5
13
0E
FB
0B
F4
ED
EE
0E
FC
F2
FE
EF
EE
0C
12
0E
FA
04
08
12
05
ED
0C
14
0B
FC
0A
F6
F9
08
F3
F9
0C
08
FD
FE
07
01
F4
EF
12
F9
03
11
F5
F0
0E
0B
FE
0A
0E
F7
0A
FD
FE
0B
F0
17
F2
F7
08
07
F5
07
FC
F8
FD
F3
09
EF
07
F5
FB
EB
01
0E
08
12
17
10
0A
FD
16
0A
F2
0A
EC
FB
08
00
F3
F4
0B
04
13
09
EE
EF
06
EA
06
12
03
0B
0F
0E
F2
11
08
0B
F0
08
0C
F0
09
F5
13
FA
EE
07
FC
06
FD
13
F5
F4
0F
FF
07
ED
EC
06
06
06
F0
FD
0A
EF
EC
13
ED
ED
EF
F9
F7
0F
15
FE
FA
FD
F6
00
EE
FF
07
F3
0C
F8
E9
F0
04
F6
F3
F7
F2
F2
00
07
EE
F9
05
F1
F9
FC
F9
F3
11
11
00
F7
06
11
0C
ED
F6
F7
F1
00
12
FE
0F
0F
EF
01
F1
02
14
0B
0F
07
FA
02
F4
02
04
EC
05
07
F5
02
0B
F8
08
13
F3
0F
F4
0E
F8
FC
F1
FC
12
04
F9
F8
0E
12
01
0F
06
FA
04
FF
06
16
0E
0C
F8
F5
F3
F1
F7
EE
F7
0A
0C
FF
F6
F6
F9
00
F3
03
FD
10
F3
0F
FD
0C
EE
13
06
00
04
FF
09
FF
00
00
12
0D
01
04
F0
F1
F6
09
09
0F
F9
F6
F1
11
0F
00
0A
01
11
04
F2
04
03
F1
00
F6
FD
F6
04
0F
0E
FE
13
13
F7
0D
0C
06
FE
EF
03
F3
F0
13
FB
10
FC
03
08
08
FA
FA
10
0B
FF
F4
F7
F9
0D
0B
12
00
F5
F9
08
06
FA
08
04
12
F9
FD
11
F7
08
F3
04
FA
09
08
F8
F6
0A
F4
0E
07
0C
FE
05
FF
F0
06
0B
10
02
0C
EC
0C
05
F4
FE
F3
FB
03
06
F0
0F
EE
10
0F
13
06
EE
FC
03
00
0C
03
EB
F5
15
EF
12
F7
0D
F3
08
F4
F8
0A
F6
09
0B
07
FC
12
EC
02
EC
11
FB
F9
FD
EE
06
07
09
0B
FE
F6
FB
07
F1
FF
03
F8
00
FC
0A
F4
0B
00
EC
04
11
0D
FF
03
12
02
0E
0F
10
F4
F0
0D
0B
F9
13
06
EE
EF
05
FB
EE
F5
03
F0
FF
F2
0B
F3
F2
F9
01
12
EC
FD
06
0C
F4
EA
FB
04
0A
F4
F0
10
EF
F4
F5
0D
04
FB
04
FA
08
0D
F5
F8
00
F9
F8
02
09
EF
EE
03
EC
FD
EF
11
FE
F0
11
EC
0E
FA
F1
02
ED
F6
F3
0B
10
0C
08
08
0B
F1
0D
0F
FE
08
01
02
00
01
08
FB
00
09
FE
F3
0D
0A
0D
0C
F1
F0
EE
0C
F9
08
F5
0B
0B
0B
EE
0D
F2
F6
04
F9
F5
ED
EE
FE
EB
12
FD
0D
08
11
F7
F9
00
FD
0B
0A
0A
11
09
04
0F
0F
11
13
F2
F4
F9
0F
01
F9
03
06
0B
08
F2
FF
01
18
F2
F2
FB
F9
1A
EE
FE
07
F6
12
FB
16
FB
03
04
FE
08
F8
FC
0D
F3
EE
FD
F0
E9
06
00
FA
FA
06
F5
F2
06
EE
F4
F2
FC
FA
05
05
F9
07
0D
F8
F5
0B
00
13
FA
01
03
F0
F8
11
EE
0A
00
FC
FD
09
02
14
FF
FB
12
F1
0B
EF
FB
FB
FE
F6
00
02
EC
13
F3
09
15
FA
F9
0C
FE
0D
FB
F0
FF
15
FC
15
05
0F
FD
E8
FE
0B
FA
05
04
01
11
E8
F3
EF
EC
FE
FC
FC
EF
0A
F5
FF
10
14
FF
05
07
F8
0F
11
FE
0F
09
04
03
06
FD
11
FA
FC
03
0B
0F
FA
FE
03
ED
FB
02
FA
11
0B
F0
05
FA
0E
F5
08
08
13
08
F2
0C
00
FB
E8
FB
F9
0E
0B
0D
10
00
FF
FF
0B
F6
F9
F9
FD
11
0F
F8
FB
02
FB
0F
08
FA
F0
FE
FB
EE
E9
0C
FA
03
F9
EC
0D
02
F2
FB
FD
EE
FE
14
04
0B
03
00
01
FF
17
F8
04
0A
F6
FF
03
FB
FC
11
F8
FF
FA
0A
08
02
F4
F3
F9
FE
F8
F6
00
FC
EE
FE
0B
F9
06
F5
13
F3
0B
13
F0
F1
FF
09
10
EE
FD
01
EB
09
FF
0B
03
F4
FD
0F
FA
04
FD
F6
08
01
F4
FB
0E
04
FE
F6
FC
13
FC
EC
F2
03
F3
0D
FF
09
F5
F6
F2
04
12
0A
11
10
0F
01
F5
FF
FC
14
0C
F4
F5
FC
EC
0A
03
13
FA
0E
08
11
09
14
14
02
07
EF
F2
14
00
0A
FB
F4
00
F1
08
02
FD
F7
0B
11
F8
0A
F7
07
0B
FD
FE
11
F9
02
11
08
EB
F8
05
10
15
04
F0
F3
07
FB
FD
0C
0A
F1
F8
FC
ED
08
03
0C
10
11
ED
FD
F5
08
F2
F6
00
01
10
10
09
03
10
0D
14
F3
0E
00
09
01
02
F8
0E
F5
FB
FE
FD
0F
F7
03
06
10
FA
0E
F8
FD
F1
FD
F5
EC
0C
FB
01
0F
02
0D
0F
05
12
0C
11
06
F3
EE
F4
FF
09
FA
0D
F4
11
EE
F5
0A
06
05
10
FF
05
08
10
F3
F4
EA
FD
F1
FD
EE
04
07
0B
06
F5
EC
07
EC
EA
04
0C
F6
13
02
FD
0D
09
08
FA
EF
06
FB
F8
FC
ED
F1
0F
12
EE
F7
02
04
FF
EE
03
01
F8
01
F4
02
FE
FF
07
01
F2
FD
0F
15
0F
FD
08
FE
F7
F6
0A
FC
09
F5
0E
F9
08
F1
F6
F8
0F
F8
F0
0C
F1
0E
14
EC
06
F4
04
F3
00
12
F7
FD
07
FD
FA
08
E7
03
F5
FD
12
FC
F9
09
10
F8
F6
08
F6
10
F2
F1
07
05
08
03
F9
0D
03
FA
02
0D
04
FC
FA
02
FB
08
01
F2
F1
08
0F
0B
F5
05
F4
FE
0F
0B
F7
F4
FB
EF
F4
06
FC
01
F0
00
F5
F1
0C
F7
F6
F7
04
ED
FD
08
0D
06
08
03
F3
EC
F5
04
00
F2
EF
F5
FB
15
04
F2
EC
08
FF
0B
0A
0F
04
F6
09
06
02
00
00
11
EF
12
F9
14
EE
08
FC
08
07
10
FD
0E
F0
0B
EE
EE
05
07
10
11
10
00
F1
F7
EE
F5
08
08
10
FE
FE
F8
EE
0C
FA
03
FB
04
05
03
07
FE
FA
FB
06
14
07
07
03
F1
F9
03
FF
F5
F4
F5
09
01
F7
02
0B
0D
0E
F3
13
EF
F2
F8
07
EF
EF
EE
FE
F4
0E
0A
EF
03
F5
FD
03
11
FF
10
0B
02
FC
0E
01
F5
13
0D
F5
0D
11
06
FD
F0
01
01
10
EB
EF
15
EE
00
F6
0F
0A
EE
10
FC
06
F7
F3
05
07
FF
EF
03
0C
11
0C
0F
F9
06
ED
01
F6
F3
11
0C
FB
F3
F8
0D
02
FB
05
0B
14
0B
F2
ED
12
F9
10
FC
0F
00
08
02
FB
09
F6
ED
F8
FE
02
11
F2
F9
08
0A
F6
05
F8
FB
0A
09
06
00
F6
F9
F1
FF
FD
03
FE
FA
08
14
FE
06
EE
F1
F4
0F
09
F9
F1
FF
EE
ED
10
09
F8
F6
F2
F0
F6
0F
F6
F7
11
09
F1
06
03
00
0D
09
FB
ED
F9
03
11
04
15
EE
F1
06
0D
F2
F4
02
EF
F6
0A
F4
F5
F9
FD
0A
0B
14
06
F0
17
02
F6
0E
01
F0
FA
0C
0F
F2
0C
0E
02
EC
EE
ED
08
FB
0B
05
EF
F8
0C
00
0B
ED
0F
FD
F5
F0
EF
06
F7
0B
13
09
0E
F7
F9
ED
01
FB
02
F9
FA
FA
F5
F8
0C
0E
08
09
F3
11
0A
F3
F1
03
FE
0D
EC
F7
FE
FF
F8
EC
11
06
FD
03
FB
ED
ED
0D
0E
FE
EB
FB
F5
11
FC
03
EC
FF
F3
EF
08
EC
0F
F9
0F
FC
F9
04
04
08
FB
F1
03
F9
0D
F2
06
F4
FD
EE
0B
0C
01
F7
03
0D
03
13
03
F7
0C
02
10
F7
F3
01
FC
F4
F0
05
F5
01
F0
F2
FE
00
F6
09
02
F8
F2
F7
00
F4
06
14
F4
ED
EC
01
0F
EF
EE
F9
06
F0
F2
10
06
08
F6
F9
11
EE
05
FB
0D
12
12
0C
FF
0F
FF
0E
09
FE
08
F1
0D
F3
12
FB
EE
F2
13
03
00
F3
EF
05
0A
F9
F3
FA
06
FA
F3
04
0E
03
0E
0C
0A
F7
F0
EE
F1
EB
09
01
F0
0A
F5
10
FE
FC
06
0A
0D
13
05
F5
08
01
06
EC
FE
0C
F1
F7
F9
F9
FF
EC
00
0D
EC
0E
EF
FB
F5
0B
03
FE
00
FA
F6
02
0C
02
F3
FD
ED
0B
FD
0F
FC
0C
0A
04
12
0C
FF
FA
10
FA
EF
F3
FA
09
06
10
F5
F5
F9
09
F2
EE
0D
0F
FB
04
F2
03
F7
E9
06
02
11
F8
FE
EC
ED
F2
05
0F
EC
00
03
06
0B
FA
10
EE
01
FF
F6
0E
FA
10
00
06
E9
FF
F8
01
0E
F8
12
05
F8
00
08
F5
00
FA
0B
09
F7
06
0E
02
0D
0C
0C
FF
11
15
ED
02
0B
07
10
FA
01
F3
01
0F
FD
11
0F
FC
09
EE
11
F3
F8
FE
FD
08
0D
14
F3
FE
14
0D
FB
FE
EB
01
FC
12
F7
F8
12
0A
00
04
0F
03
F0
07
04
09
04
F4
08
14
FC
0E
F3
11
0F
F9
F5
F2
0A
14
0D
EB
FB
EC
08
0C
FD
EF
EE
10
F9
EE
00
07
07
0C
0D
06
FC
06
F3
F4
F2
0C
F4
0C
09
03
09
02
FB
08
F1
F8
00
05
0C
FF
08
F8
03
00
02
08
FD
F2
EF
08
0D
14
02
F9
10
03
04
02
03
00
FD
0A
13
EF
0D
10
03
08
FA
F6
05
10
12
0F
12
10
08
11
10
FE
F5
14
F2
ED
12
F5
FF
FA
FD
F6
06
06
F7
07
F9
07
08
07
04
FD
0C
05
0C
03
06
FE
09
04
04
0A
0D
0A
F3
04
F8
0D
F9
EE
F2
09
ED
F2
00
0F
10
FC
06
F1
0C
0C
09
F4
F8
14
FF
09
FD
F3
F3
0D
F4
EE
04
FF
F8
EE
08
09
F7
ED
0D
01
06
EE
F5
F5
0D
FC
F0
F2
0F
F0
0B
EC
F3
F9
00
FC
0F
F5
0A
FD
0E
00
FD
F3
04
0A
F2
EF
F3
EF
FB
13
08
EA
11
F6
EE
14
EF
06
FC
F8
F9
F6
F0
13
09
F8
F2
FE
0A
FE
FA
05
01
F3
03
F6
0C
F5
0D
FF
10
F1
05
12
07
00
10
11
0C
FC
FD
0E
09
04
FD
F7
0F
11
FC
F8
F8
0E
F8
15
F9
0E
FB
F2
06
01
13
06
EE
00
F8
0C
14
09
01
05
13
0C
04
F0
0F
F5
F3
05
F5
FE
F9
08
FA
00
10
09
04
EF
F6
00
ED
FB
FB
F2
00
F4
08
EB
05
F6
11
03
0B
0B
F8
EE
06
01
01
F8
13
F5
F4
08
0B
F7
04
09
00
0D
EA
F8
02
0D
F6
0B
11
F7
09
13
E7
07
F2
FA
12
F0
0D
0F
FF
01
04
01
0F
10
00
F5
11
10
0B
F4
FA
FA
12
FA
ED
05
F9
04
12
04
08
13
0B
F8
01
FB
FD
02
0F
0D
F0
06
EC
FA
0D
F1
F2
FC
FA
FB
17
F1
F4
06
00
06
F4
00
07
ED
F5
FA
01
FD
E9
F4
04
EA
F2
F0
FC
10
10
0C
11
0B
ED
00
F5
FC
FB
FC
F8
02
0C
EF
FD
0F
F6
0A
F9
03
0B
EF
08
0D
FD
F9
F0
0E
F7
00
F4
03
06
F5
F5
09
0B
0E
FA
07
12
06
04
EF
01
F7
F1
03
EF
05
01
06
08
F1
ED
FA
0A
EC
12
0F
F2
FE
EF
03
FE
01
06
07
0E
0D
0B
F1
0B
F7
11
01
FB
F0
FE
EC
F6
12
F0
FE
0B
FC
10
F4
0D
0E
0F
F1
08
F0
F5
F5
00
10
0E
07
FE
06
0D
F0
FA
F3
F8
F6
F9
FA
FB
07
F8
07
FC
F4
EF
EB
03
F2
12
EC
F4
F4
F5
02
FC
FE
EA
08
03
01
05
F5
F7
04
11
F6
03
10
00
03
FB
F5
F8
F8
FA
F7
F2
0C
F2
F3
F4
09
10
0A
EE
FC
EF
02
F8
F9
12
F8
F5
FC
04
09
10
F0
09
03
FF
0D
0F
0A
06
EE
02
15
04
EF
F2
F4
04
FE
F3
13
06
EB
12
FC
12
EE
03
08
07
0C
FC
EB
FD
0E
01
FD
F7
0B
09
F5
EE
07
F9
F0
02
EE
0B
10
09
0D
FE
FC
0D
09
F2
04
F5
01
02
FA
F7
F4
F1
04
0E
FF
07
0A
F0
F8
02
02
0D
F6
FB
F6
F1
03
10
12
EA
06
12
00
F7
09
EF
0C
13
16
FE
F6
F8
0C
FC
0B
03
13
08
F6
FC
05
08
F1
06
00
EF
11
11
04
F7
0B
06
08
FF
F8
0C
F4
F5
ED
F0
08
F1
0B
F6
07
11
05
0A
08
FF
17
06
F8
F9
FC
06
F1
00
EB
04
04
05
FC
09
FF
F8
0E
0A
09
FA
FC
F2
F2
F2
06
07
0C
09
ED
EE
F8
F6
FB
0B
F1
09
17
0A
08
FF
0D
EF
F7
11
EF
13
07
0E
F3
EE
FC
0F
EF
14
0F
09
00
FC
10
F5
0D
FB
08
01
F9
F5
FF
F0
FD
02
05
07
12
09
F4
E8
FA
11
F8
03
FC
00
F1
00
FF
ED
F0
F3
09
F0
0B
0A
F7
F7
EE
EF
F8
03
00
09
06
FC
EB
06
12
10
F0
0E
08
00
05
F7
F0
09
FE
08
0E
06
FC
FC
EA
EF
FE
FB
EF
05
03
00
F1
04
FB
0F
0A
F1
03
10
FF
06
06
02
FF
03
0E
FA
FA
15
0D
02
FA
0C
05
F3
16
EE
F1
FD
F6
F0
0C
F3
02
12
FA
FF
F2
ED
05
0B
0A
03
FB
F2
07
FA
0E
08
FA
F5
0B
08
08
FF
0E
F5
F1
14
00
F7
F9
12
FC
15
00
F4
F9
0C
0C
F2
0D
09
F6
08
0A
10
06
02
F7
08
F8
08
ED
11
0B
EC
08
0F
0D
08
F6
0A
14
ED
FE
EF
12
04
05
FE
11
04
08
06
0B
05
FA
07
F8
F2
0B
F8
0A
ED
EE
03
F5
11
F0
F6
EE
F6
F7
06
FB
F0
07
EC
0F
11
F5
F7
FD
09
FA
F5
01
FF
EF
0A
05
FA
F7
07
FB
11
FA
FF
FD
F9
FA
FB
04
F0
F2
F9
05
06
05
F0
F5
14
02
FA
FA
F0
FA
F0
F8
02
F9
F3
F9
14
04
EF
EA
06
02
F9
01
F1
07
01
F1
EF
EF
03
13
02
03
13
F3
0F
FB
F6
04
00
FD
F8
F7
FB
F9
03
EC
10
F2
18
FE
05
05
FC
F1
F8
00
F4
11
08
FE
FD
FD
FF
0A
12
02
ED
FA
EE
EF
EE
F2
0C
09
07
FA
12
F9
F4
F2
0F
03
0B
FD
05
04
F1
F5
06
FA
00
05
FA
FC
EE
0C
F9
FD
10
04
0A
15
0E
12
FA
04
FA
F5
06
EF
0B
0B
03
07
FB
0C
FD
F8
F5
F0
0D
F7
FD
F2
09
F0
0F
0E
FE
09
F1
0B
04
0E
13
F9
FE
F4
F0
ED
F7
F3
ED
F5
FA
09
FA
F5
0D
F4
F3
FA
F0
FA
FE
10
FB
F7
13
12
FC
05
10
11
08
F4
F5
EE
F0
0E
F4
02
FA
F6
F7
12
09
FE
10
F7
FA
F3
15
FB
FD
F5
10
0F
0B
F6
EF
F8
02
F8
FC
FB
FB
F9
0C
05
F0
01
FF
F0
05
FA
EA
02
08
FB
10
02
05
02
0C
FE
FC
FC
F9
FF
FB
F5
0A
F0
15
03
07
06
F1
04
0E
12
08
12
0A
0C
0C
13
FD
0C
FF
EE
07
F4
0E
08
E9
07
10
07
01
F2
0F
07
F8
F4
09
0A
00
0D
03
08
13
F5
03
F5
F0
FC
07
FF
06
F2
FD
F3
03
F0
0A
05
0C
0D
07
02
05
13
F7
F1
11
14
0B
14
0D
06
11
0F
0C
12
F6
F3
0D
08
EC
FD
0D
08
EB
FE
FA
F8
0A
0C
12
0A
F2
FE
0E
F6
05
FD
0E
0D
04
F4
0F
F9
0A
0C
01
F3
06
09
F4
01
01
F9
06
05
F1
EE
EF
0A
FA
00
06
0A
FC
F8
FE
0C
04
04
EE
FF
FF
12
0A
EC
00
05
F3
0D
14
FB
F7
06
F2
0A
E8
FE
07
0E
13
FB
F4
0C
02
08
F9
0D
F3
ED
FA
11
FE
00
09
FE
07
F7
F3
FF
F9
11
F1
12
12
EF
EE
EF
06
E9
F7
F3
FD
13
FF
02
13
0A
02
14
F7
FE
FF
10
F1
09
11
F2
0B
00
01
05
FB
F4
F0
0A
EE
EE
F8
0B
0A
FB
0B
00
05
12
02
13
09
F7
0C
FE
0D
F9
F8
0D
10
F2
05
0E
F4
0A
FC
09
FA
12
FE
0F
F5
09
FC
0A
FF
05
FA
F4
FD
0C
06
02
02
F3
F8
F2
13
0D
F4
04
FD
F1
FC
05
0D
FB
0A
F6
F1
08
04
F9
09
FC
FE
0F
FF
0E
F8
11
ED
03
10
FD
06
F1
0E
04
F9
05
08
02
ED
07
12
04
06
14
0D
F5
05
00
F9
04
F8
FF
06
F6
F1
0F
0A
F3
03
11
F7
F8
0F
F7
F8
F6
EF
12
FF
0D
0C
F0
FB
08
F6
F6
14
F1
EB
F1
FC
F7
0A
F9
00
02
FC
07
0A
0E
0B
06
F0
EF
F0
FE
F6
FE
F8
F3
F2
0C
F7
F7
FB
FF
11
13
F0
01
FC
09
F9
F9
F2
FF
0A
EF
00
F4
07
F9
EB
F9
F7
FC
F8
EC
F1
08
0B
FE
0E
02
07
FC
0C
10
0F
0F
09
04
07
03
F5
0E
F6
FA
00
FA
F5
F5
00
F5
00
11
F1
FD
FD
0B
FD
05
FC
03
F5
F0
07
06
0F
14
F3
0A
F3
F3
04
0C
11
15
FD
01
FB
10
0E
05
06
0C
04
F4
14
07
F1
F4
F4
10
11
13
00
03
07
FE
F6
08
F6
13
F0
F4
F1
F5
04
FA
02
F1
FE
F2
07
01
F9
F1
F4
F0
F4
10
0D
0B
F4
0D
02
00
FA
0B
FD
FD
0A
10
EF
03
F0
0D
04
00
F0
FF
F2
F8
13
0A
F8
FB
FB
EE
F8
FB
0D
11
ED
FB
EF
02
EF
07
13
F8
02
09
FE
00
02
01
F4
FD
03
12
FA
13
07
FD
13
0A
0C
03
F7
F0
EE
F7
0A
FB
0A
0A
0A
07
F6
01
F4
0A
FF
07
F7
F0
F8
F2
0B
FD
FA
0C
03
EF
02
09
EA
0E
10
06
09
FE
04
EF
14
07
0C
07
F8
FC
EC
FB
06
F2
FC
01
F0
00
06
F5
F3
0B
0A
01
F1
0E
F4
EF
FC
0A
06
FB
11
EE
F4
FA
07
F0
04
FA
F4
06
11
02
F5
11
03
12
01
01
F3
10
F6
F5
0D
F6
09
FD
13
04
0A
14
F2
F6
10
00
09
0C
0D
EF
08
0F
07
0D
E9
08
FA
05
F8
01
01
04
10
05
0D
F2
F9
FF
FB
02
F7
F7
11
F1
01
0B
06
F1
09
FF
03
F3
FE
0F
05
FB
EE
F5
09
09
F5
F8
00
0C
EE
0B
06
F7
F5
FF
F2
10
FB
FF
00
F8
0F
03
F7
09
09
0F
0E
F1
10
04
07
FD
FD
04
EA
0C
02
F6
09
04
F9
04
09
03
01
04
F9
12
F3
FC
F9
08
05
05
F3
FE
07
F3
FF
12
0E
FF
15
F8
FE
EF
F9
10
F9
10
F6
F6
F4
0A
0D
04
EF
F1
F7
EF
0C
00
08
EF
F5
07
FF
F3
FF
03
EE
08
ED
03
00
0D
01
F5
13
EF
11
EC
06
08
07
F7
F8
FA
F0
07
12
0E
F4
13
F4
F2
10
0B
13
0D
04
F1
11
F7
16
F7
0A
06
07
FA
07
FD
0A
0E
10
FB
10
EC
F9
F2
08
0A
FB
0E
10
F3
FA
0D
0E
04
F4
01
F7
09
FA
0C
F0
FD
13
07
17
02
FE
F0
FD
11
FC
04
0C
0B
FB
FB
F4
09
00
05
0E
06
09
08
F0
0A
EC
14
13
F1
F5
06
06
FF
F3
FE
F9
FE
10
11
FD
F4
0B
F5
02
09
F1
11
0A
EF
10
F8
08
0C
F4
F3
F5
F4
09
0A
03
FF
0E
F5
FE
13
FF
01
0C
F6
EE
01
07
00
14
F1
08
ED
FA
0E
FF
F9
14
FC
F5
F3
12
F0
F1
01
12
11
F0
07
EE
0D
EE
07
16
FE
F9
F8
00
02
0E
F1
12
08
0F
08
00
FF
F6
05
FA
08
01
F1
04
F3
ED
F4
02
06
0A
09
04
FF
11
FA
FB
0C
01
0D
FF
08
07
02
F0
F6
0B
00
03
ED
00
10
0E
F9
05
EF
FA
F5
F9
10
0C
07
0F
FE
FF
EE
0F
0B
07
EE
08
F8
01
EC
05
F5
F1
FA
FE
0C
F4
FD
F8
0E
03
0C
05
05
03
03
00
12
F9
FA
04
15
F9
F4
04
0C
0E
03
0B
04
07
00
F2
F6
10
0D
00
06
F0
EF
00
FB
F4
0A
10
FA
F8
FC
0B
0C
F6
12
08
0D
FF
FF
01
03
FA
F7
F3
11
05
02
EE
11
0B
10
0D
01
FE
F4
F6
01
FF
F3
F9
FB
ED
FA
F0
0F
0A
0F
FE
0C
FB
FC
FA
F5
EC
F4
FC
11
EE
01
FB
FA
0E
F9
0D
0A
0D
FC
04
EF
0A
0A
10
FE
FB
07
F6
FB
11
10
0E
0D
0D
FA
F9
07
14
15
11
0E
07
EC
00
ED
08
00
13
F0
09
EF
0C
0C
05
13
ED
08
00
0B
07
F7
0E
06
F4
F6
06
EE
FB
F7
F8
F6
0C
F7
14
F1
13
F2
01
0F
02
08
01
F6
04
00
12
EF
F7
04
0F
F7
F9
FB
0B
01
FD
12
0E
EF
EF
02
14
03
FE
F4
02
F9
0B
0B
06
F1
F5
F6
0F
14
0F
F5
F2
FC
F4
09
10
EC
F7
04
0C
F1
FA
0A
F8
13
FA
FB
12
03
F3
F9
F1
FB
FA
F2
FE
EC
F4
F4
F6
00
F5
0A
F2
F0
FD
08
F3
07
F8
FB
F3
F3
0E
0C
F5
05
0D
03
07
EE
12
EE
14
F9
0D
FD
01
02
10
F0
0A
01
12
12
0C
F1
F9
00
EE
04
05
10
F6
EC
09
14
10
13
11
13
08
02
08
F3
F9
01
06
EC
13
FD
02
F1
0F
FA
F6
10
08
09
02
12
0A
F8
F6
ED
00
FF
18
02
FE
0B
F6
FC
03
03
F0
F4
07
10
F0
FD
EF
FD
F5
F8
F0
05
EE
0A
F0
FD
FF
01
FA
F3
0A
07
12
05
02
FB
08
E9
02
0F
FE
F8
F1
EF
06
F1
EE
03
F6
02
03
02
0C
FF
0F
FD
0F
FC
04
FB
FA
EC
0A
02
F2
12
00
EF
10
F9
F8
F2
09
07
FC
FA
F4
0D
F5
F8
FD
01
F9
10
F9
F0
EF
F3
0E
F1
06
FC
09
F5
FE
F3
10
0E
05
0A
FD
0C
07
10
F7
F3
EE
06
F7
FB
F8
14
07
0A
03
FA
F4
11
ED
F2
F9
08
15
09
00
04
F7
F0
00
F5
08
F5
FE
12
08
EB
0D
F9
14
FB
F3
F2
F8
0A
05
0C
F1
F5
01
EB
0F
0A
12
FF
0D
12
F1
FD
F5
0D
F8
F2
0C
03
02
0C
FA
08
F8
0E
FF
09
04
14
F9
05
FF
0E
EB
F1
F3
06
01
00
0A
FB
12
11
FF
EE
F8
FA
03
EE
03
F9
FE
05
0E
15
F4
F0
EE
F3
04
06
10
F8
F5
EE
16
0D
0B
FD
0C
F7
02
10
EF
04
ED
03
F8
FC
F9
F9
06
FF
0B
03
00
08
11
0F
0C
F3
13
07
0F
E8
14
FF
F1
ED
F9
EC
FC
08
04
EF
FF
09
EB
08
F2
02
FA
F7
12
07
F3
0A
F1
10
10
F0
F4
FF
F7
0B
03
F7
F6
FA
F1
FF
F4
E9
FA
FB
F1
0C
F0
06
0F
F2
0F
07
0B
01
FC
F3
F1
F4
07
FC
F3
02
FD
10
FA
01
10
08
06
10
FC
F0
EC
02
06
F9
06
02
09
0B
F6
0A
0C
EF
FF
0D
13
06
EF
F1
0B
13
0C
02
F4
03
FD
F4
00
F6
0E
F3
FD
03
FD
EC
FB
07
07
FD
F2
10
08
09
0E
10
EF
05
0D
FE
F8
F8
0D
FD
FE
F8
0D
0A
F8
09
FA
F9
14
F4
F9
07
F3
ED
09
F1
F4
0D
07
0A
F0
0C
12
FD
FA
FD
01
04
01
EC
0A
FD
F8
F3
F8
07
0B
0E
11
F6
11
F8
F1
F4
FA
03
F2
F2
04
09
EE
12
03
FC
00
08
0A
F3
10
0B
0B
FA
0C
F7
02
F2
09
F6
F8
07
F8
0E
F4
F0
00
05
17
0A
F1
EC
14
F7
EE
FB
0D
EE
0D
FA
0B
11
F7
13
F8
06
08
0B
07
F8
F3
01
11
0F
F3
F2
F3
F2
FC
0F
0B
0C
F7
F4
03
F5
F0
0B
02
10
EE
11
05
0D
F6
FA
00
F4
0A
F4
F0
FF
13
FD
F4
F9
07
07
03
11
FF
FA
11
EE
EE
FA
03
F0
00
04
F3
11
F4
0A
EE
09
05
EE
FF
03
08
F5
06
F6
F8
F6
F6
F9
00
EE
10
02
05
0B
F4
00
09
04
07
0F
FC
0E
0D
F8
11
FC
F9
09
F0
0C
F4
F7
FF
E8
04
0E
F2
05
09
F3
09
11
F8
04
0B
EB
13
EF
F6
F7
0E
0A
10
F7
FF
FB
FD
F1
04
07
05
0F
F4
F8
01
08
F6
03
0E
F4
F6
0C
FF
F3
F1
FE
FB
0F
EE
0B
FB
02
12
F4
0A
F8
03
0E
F5
0D
FF
F0
0A
EB
00
02
F4
FE
0C
F9
F7
F4
09
07
08
F4
F3
F3
03
0C
F6
FA
0F
F4
EF
01
EA
08
FB
08
0D
F8
10
F1
EF
F0
F1
12
18
0C
02
F3
04
07
0B
FB
01
06
06
F7
09
00
FB
ED
EE
03
EE
09
FD
F7
02
FE
07
03
09
FC
F6
EF
02
07
08
ED
03
07
F9
10
0E
04
FC
EF
FC
FE
0D
FC
09
09
11
0A
10
04
0A
0B
05
FE
06
14
F2
09
F2
05
02
F3
FC
0C
03
0E
FC
11
0F
F8
FA
F3
F4
06
F9
EB
11
FC
F8
0A
06
08
0D
FC
10
EE
05
0F
02
0C
11
04
EE
12
08
F6
07
0B
F4
FE
F1
09
0E
F4
F1
EF
FE
0B
00
F4
02
02
F1
0A
EE
FF
EE
0E
0B
F1
0C
F0
ED
03
04
FC
F3
05
F9
01
11
FE
F3
F2
F2
12
F5
09
F0
06
12
FA
EE
F4
00
FF
08
12
08
0B
07
F7
F8
FB
06
FD
F9
F0
07
02
0C
FD
ED
08
FB
EC
05
09
0A
0D
0A
FF
F7
F5
ED
F6
F8
FE
F3
10
0E
12
EF
0C
10
02
00
F9
EB
0F
00
EE
FB
FE
09
FA
0F
F7
0A
F6
FD
F5
11
EF
0D
FF
11
09
FE
0D
0B
04
06
0D
0F
01
0D
FA
0F
09
02
00
F2
03
06
F9
04
FF
10
EB
01
10
FD
EF
F5
03
F2
0C
14
FC
EB
ED
F9
FD
0A
F2
F4
0D
0E
07
0B
FF
0A
F4
F3
F4
F2
03
13
09
F0
F6
F7
04
12
F9
12
02
08
EB
F3
F1
FF
EF
FB
F8
EB
0A
F9
FC
F2
07
F3
F4
FA
F6
0E
FB
F4
09
F1
F1
13
F7
05
F3
FB
0F
EA
F3
F8
F4
F3
FC
F4
0D
04
EE
11
13
09
00
07
F3
FD
08
0E
08
F9
F9
0A
FB
FF
F9
03
FE
EE
0A
04
00
08
0D
F6
E9
F4
EE
0A
EE
13
0E
0A
F8
0C
02
0C
ED
0F
F1
F1
ED
0E
FF
08
FE
F6
ED
FD
0D
10
02
06
0F
FF
14
06
FC
F6
EA
EC
02
F2
03
06
F3
FF
00
05
10
F0
01
08
0D
EE
EC
04
12
F7
10
10
0E
F4
01
F0
F1
EE
00
FA
00
0E
FB
06
0C
F0
0D
0D
00
05
14
11
FB
F9
F5
F0
FE
F0
F3
F3
F4
EF
F6
F1
0B
F4
11
F0
FC
ED
0C
F3
FC
01
0B
F8
F5
F1
FD
10
07
0C
0B
0B
F9
0E
ED
0E
EF
00
EF
0D
ED
02
06
F3
FE
F5
EC
FA
0D
FB
EC
F0
FF
F5
08
05
F3
F1
0B
F8
0D
F5
F3
12
ED
F0
ED
FE
F0
FB
F3
EF
05
0E
06
FA
F3
F6
1B
F4
F0
0C
02
0C
FF
15
0E
0A
F2
EA
F4
06
FA
0A
FF
0B
0C
FB
F6
EE
09
FA
04
F8
FF
F4
0D
01
11
F6
F5
11
EE
01
0C
05
FC
0A
F6
EE
13
F1
0A
00
F6
16
F7
FD
F5
0C
EF
F9
10
FD
EC
FB
02
F3
F9
18
EC
F5
F5
F3
EE
F8
F5
F2
FA
02
10
F0
14
EE
05
FD
FE
F0
FD
F3
FB
FA
F0
F5
F5
FD
11
FC
FA
07
F5
08
FD
11
FA
0E
05
F4
0A
09
F2
0C
F7
F1
14
F4
15
FD
06
F8
03
FA
F1
10
11
F6
0F
10
F2
08
05
EF
08
00
10
0A
03
05
F2
F1
FF
F6
04
FF
0B
FF
0E
0C
06
0E
0C
10
09
F9
0C
F7
FF
ED
F4
14
FC
03
EB
F3
06
0B
07
FA
08
0D
FD
F3
F1
FF
FC
FD
0B
FC
10
01
FF
04
04
F6
03
F2
0E
03
09
05
05
10
05
0D
F8
02
F5
02
EF
F2
F2
01
EF
0A
EF
F5
06
FD
FA
0A
FE
09
F7
FB
03
FD
00
F6
EF
FD
F4
FA
0F
12
14
EF
EF
F7
FF
FD
02
F7
11
02
0B
F9
EE
FD
F5
ED
01
0C
0C
F7
0D
F6
FA
F7
FD
08
EC
0A
02
0A
FD
EF
EF
FC
14
ED
09
01
05
0A
FF
F2
08
F1
F2
FC
F5
0B
10
FC
FC
05
06
EF
F3
04
0A
09
01
0D
FB
FC
05
01
11
FB
0F
FC
FB
FF
ED
ED
0D
0A
F4
F1
08
FA
F2
FF
FA
10
FF
0C
01
F5
11
06
F5
FA
0B
08
03
FF
EF
02
09
03
F7
EC
F7
FA
F2
06
FC
F2
F4
0F
FA
02
FC
02
01
F1
07
F4
F7
09
0C
F8
F3
EF
05
FB
F3
03
07
09
F5
FD
F1
14
F5
12
F0
FD
03
F9
F6
10
0E
FB
F9
EC
0D
FF
10
F3
12
F1
F1
F4
03
F1
EE
0A
12
12
02
0E
07
F9
08
FC
01
F1
07
F9
F4
FF
13
06
13
FF
F2
02
09
ED
FA
08
FF
F3
03
02
15
0F
FC
09
EE
F7
0C
10
04
0C
00
04
FD
00
ED
08
05
F4
FC
01
F8
0B
05
F7
12
0D
05
FD
07
03
FF
F1
EB
F6
FC
F8
10
06
06
10
00
EF
04
F4
FD
00
FE
F7
F7
03
F7
0B
01
12
0E
00
06
10
F5
FF
FA
06
F0
FA
0D
FB
00
EF
FF
F2
F2
02
06
EE
07
00
08
07
12
02
04
FE
0C
F4
F5
01
FA
F9
05
10
EC
F3
FA
FB
F3
02
EC
F6
01
F0
EE
F5
12
15
F4
EE
03
FA
F3
09
12
F1
FC
F0
0A
EE
F1
FC
03
F5
0C
F8
06
FB
11
EF
F8
FC
EE
FD
EF
F1
F2
F4
EB
F4
F7
0B
08
FD
F4
01
FB
F3
0D
04
0E
13
FC
00
0A
FB
F8
10
0D
15
12
F2
04
05
F1
F4
F9
F8
F9
05
02
0A
00
0D
F3
F7
FA
EC
00
01
0F
0E
F4
0D
0E
0E
F6
0C
FE
F6
F5
06
11
08
F1
10
02
F6
0F
0E
F9
F4
11
05
03
00
11
0D
00
00
0B
F3
FA
0B
FB
00
F1
06
0A
00
F5
0E
EF
F2
FF
0C
0B
10
F1
05
F2
09
05
0D
F8
FD
F7
F9
F8
EA
ED
07
0B
01
FB
F2
F0
ED
FC
07
0F
F8
FF
F9
FE
F5
02
02
07
EF
12
10
FE
F1
FF
0C
03
FB
EB
F3
09
15
FE
0F
FA
F3
F1
F1
00
FA
08
11
00
F9
F6
F3
0E
12
F0
FC
F2
EF
FA
FB
03
F5
10
0E
F7
F9
0C
03
10
FF
13
F0
16
FB
EF
F1
11
10
08
09
00
EC
07
13
F8
01
11
F9
06
F7
01
0C
0C
FE
F7
0D
04
12
FC
F4
12
00
12
EF
05
10
FF
00
04
F7
0C
F0
F4
0E
F6
03
10
EE
FC
FF
11
F3
F1
03
01
0A
EF
0A
02
F2
11
0D
EC
F0
F9
F2
EF
07
FE
11
11
FD
04
F8
07
13
01
F7
EF
0F
0C
04
FE
03
0B
0D
FD
FA
0F
FD
13
FC
02
0F
FD
F3
00
0F
FE
FC
F3
F7
13
13
10
07
F8
FD
0C
05
F9
F9
13
09
01
06
0A
0E
04
0B
F9
00
FD
04
04
10
F7
FD
FC
14
02
F5
FB
12
FD
F7
FA
07
F3
0E
F5
EE
15
0C
F5
0F
EB
04
F4
FD
10
0A
F6
F7
0E
02
0D
0B
F8
05
0A
01
FB
F5
ED
07
05
04
11
0F
FD
EF
02
F8
08
05
03
F6
0E
F8
00
0D
EF
10
F0
0C
FB
08
0B
07
F2
F7
FD
F8
F5
06
F6
10
04
03
FC
01
F8
12
F0
FD
FC
07
0B
F0
F8
04
11
08
F3
0E
F8
06
FD
FE
02
FA
0B
0E
0A
02
09
10
EE
F1
FE
10
F6
ED
0E
13
F7
0E
EF
0B
04
EC
F8
11
07
F1
FA
F8
FA
FC
F9
F3
08
F8
FC
FA
EC
10
03
07
FF
F5
0B
01
0D
13
FF
F7
EC
10
F8
F5
0E
04
F2
F6
09
F8
05
0F
FA
05
FB
0D
00
F5
F0
0B
0C
EE
06
12
07
15
F4
FF
F5
0C
04
FA
FB
0C
F0
02
F7
0B
05
10
08
ED
FC
02
05
F5
FE
FA
09
0F
FA
F6
02
F2
03
11
0C
EB
ED
0A
13
F0
03
0E
FD
F8
0A
E9
0D
0B
F3
09
06
0C
FB
FA
F0
F6
FE
0D
02
04
FA
F1
FB
04
0F
07
0E
0F
04
0F
FD
F7
F2
EC
0C
0D
0B
12
ED
08
F1
06
FA
FE
EE
F6
FA
0B
02
00
F0
F3
0D
12
04
16
EE
F2
08
EE
F9
FD
0A
FF
05
EC
FD
EB
07
F0
11
13
FA
13
FB
13
0B
03
F1
FA
FE
FB
FB
FB
F8
F0
F0
05
13
03
08
FF
0C
0F
F8
06
EF
00
F6
01
14
F0
F3
FA
FA
12
FE
F5
10
FC
00
0C
10
0C
01
FB
FB
FD
02
F9
F5
F4
02
F5
0C
F0
F5
F6
FD
13
FC
04
04
10
F3
FA
10
0B
0E
ED
EC
FF
11
F6
F2
08
11
0A
0D
FA
10
0B
F2
F0
11
06
F6
04
FC
FF
00
FD
FB
F2
12
F9
FC
04
EF
F2
FD
00
F2
F1
F1
FB
08
03
FB
F3
F0
F6
EF
FD
07
07
13
0A
07
F0
0E
13
0C
F4
FA
0E
00
0F
F3
09
F5
09
F2
F7
FB
EF
11
04
F8
0B
14
0B
F5
09
F7
FB
FB
11
FF
FA
08
F2
FB
F3
EF
02
F1
03
FA
12
0E
10
FD
F1
F1
FA
03
FB
EF
FF
EF
10
11
EF
EB
FD
0C
F5
08
F1
02
F9
0A
10
03
F1
02
0C
12
FA
F1
05
0B
F5
0D
F4
02
01
0D
11
FB
01
13
F9
F2
F2
F2
0C
14
FA
0A
12
01
EF
12
EF
FB
FD
FE
F0
0D
FF
FF
F9
0B
06
F3
0C
FE
0E
02
F3
00
09
05
08
F8
FD
0E
00
01
04
16
F3
F8
11
05
FF
F5
0F
F9
0A
00
0C
08
03
06
FE
EE
0F
FF
F0
0D
F9
F8
F0
F2
FC
F0
F6
10
10
0D
03
FD
FF
F9
0D
07
EE
F1
09
F4
00
0F
0E
F9
10
0A
0E
FF
FB
10
08
01
FC
F2
02
09
03
10
FE
0F
0F
FF
12
F8
F2
FF
13
11
F9
0A
0F
FB
F5
FB
FB
08
F3
0E
0A
0F
11
00
0E
05
F1
13
0D
02
02
09
F0
09
F0
03
04
0B
07
EB
ED
0A
0A
F0
ED
03
EF
FD
09
FB
FA
0C
04
F1
FB
05
06
FD
F0
F2
0B
EF
01
F1
FF
0E
11
F6
0D
0D
0A
F3
08
FC
FF
07
0E
02
FE
0E
F1
FF
F0
13
FA
FB
00
0B
0B
09
FB
03
ED
FE
F8
FB
07
03
F0
11
05
EE
0C
FA
0B
F1
F6
F5
FD
F7
05
F1
F0
0C
ED
F4
F8
0C
07
06
EC
FE
F6
05
0A
12
04
0B
0B
F6
17
F7
F3
03
F1
03
FB
04
F3
03
FF
F9
F2
0B
EC
0B
FD
F6
13
F5
FE
08
04
0B
FB
0C
EF
0E
07
11
09
F0
FF
09
0F
F7
0F
08
00
0C
0C
0C
02
F1
F5
F0
F9
FD
11
0B
F5
FA
F4
F9
0A
F4
F3
EC
15
FC
FB
06
0C
F5
0B
EF
FC
FF
EF
01
06
0F
F2
F6
EB
F1
F3
F6
0A
EA
0D
EE
FF
11
12
FE
ED
FF
FB
10
07
F6
0A
14
F8
FD
03
FF
14
12
F6
15
0F
EF
ED
FE
F9
00
12
F9
0F
F0
F9
F6
FC
0E
0A
0F
0B
04
0B
03
FA
05
00
0C
01
16
05
0A
14
03
0E
F4
09
EF
06
F0
06
0A
FE
FE
F3
FE
F0
F5
FC
FD
09
F4
0B
F9
EE
FA
00
0F
07
FC
F8
12
01
05
00
08
F9
10
EE
10
07
F7
F7
15
09
F3
09
F9
0A
F6
00
0D
EB
07
11
F4
FE
FD
0D
0A
0B
F2
F4
12
EE
FD
FE
0E
F3
0D
0D
F8
0D
FA
FD
EF
0A
05
FD
0B
0A
04
0B
0D
F0
0B
EA
03
F2
FF
12
0A
13
0B
F2
FC
F8
F7
05
09
FE
EE
FE
08
F9
F6
14
10
12
06
F4
ED
EE
F8
F1
F8
EF
0D
0C
06
0B
04
09
02
11
13
0F
FE
EB
16
F9
0C
F7
EB
05
FD
0A
0A
F1
FC
0D
0D
F2
ED
03
17
0D
F0
F1
FC
13
08
0B
FE
F8
09
FB
EC
00
13
04
FF
14
00
FE
FA
F6
F5
08
FB
09
F0
F0
04
FE
0F
FA
F6
0C
0C
04
15
FD
F4
0D
EB
F4
FA
FB
F6
F0
0B
14
09
13
01
0B
11
0F
0B
09
F8
FF
0C
14
FC
0B
F9
F4
12
FF
05
01
08
EF
F3
12
02
F3
0C
F5
F8
F7
F4
F7
FA
F8
F1
FB
EF
0D
06
FB
01
0C
F8
02
02
07
08
F9
0C
09
F9
07
07
FC
F7
01
F5
F7
0C
FB
06
FD
18
F7
EE
F3
EF
F1
0D
0B
EF
07
05
F0
0C
0A
0C
0B
09
ED
FF
EF
11
0D
F7
F4
02
FF
F9
F6
FB
05
0D
F5
F9
FB
FE
0B
12
13
F3
F2
F1
F8
FE
01
0D
13
0A
F2
10
FB
F8
0E
F4
04
01
01
05
FC
EE
07
EE
04
13
FF
09
F1
FD
02
07
EB
08
05
F9
F5
0E
F5
0B
EA
0E
F0
F7
13
19
09
FC
0A
06
F6
F3
0C
F1
F7
EB
FC
F1
FE
0B
FB
F8
F9
FF
12
08
06
08
05
0C
FF
FB
F9
FA
0A
FC
F0
07
04
0A
14
02
F6
FC
EE
F3
11
08
F2
FC
F4
F4
09
07
F3
0D
05
F2
02
08
F9
06
04
F6
F4
F8
0C
01
00
0C
F5
09
03
F8
F7
08
0E
14
ED
0F
F3
0C
04
13
F1
05
F1
0E
01
FC
14
10
F3
0A
0E
FA
08
14
FF
03
F9
12
F5
F8
0D
EB
F1
00
05
F2
F3
01
08
0E
05
13
08
ED
F3
12
01
10
FA
04
F2
0B
05
0C
14
EF
FB
10
F8
05
ED
F3
F6
08
08
EE
0A
06
12
FE
05
08
F3
12
FF
0B
12
07
05
03
06
06
FE
01
F2
05
FC
F8
0F
07
F1
08
0E
0E
04
F2
F5
04
13
09
EF
06
11
FC
F4
0B
F6
08
10
FB
07
10
08
F2
07
06
F0
EF
F9
ED
EF
0E
15
F2
02
F8
07
F0
F8
F9
0E
EF
FA
00
16
F8
FD
FC
08
05
ED
F7
10
09
F9
F8
FD
FA
0B
F4
04
04
F9
09
FE
0D
08
14
14
FF
F4
04
F8
F7
01
0C
F7
EF
FD
FD
FF
F2
FC
01
04
0F
F9
F6
F8
0B
01
12
10
F8
F1
13
0E
01
ED
10
09
EC
F5
FF
11
F8
08
F1
FF
F3
0B
F2
EE
11
EE
F3
15
FE
08
0B
0E
0A
FC
ED
0D
0C
08
FA
12
F6
F0
10
FA
06
0E
FD
F7
F7
FF
FE
FF
05
F5
FE
0B
F5
00
F2
FA
0D
F0
12
F5
0F
FB
F7
EB
06
03
FD
F9
00
03
EF
F3
12
FA
00
0A
0B
09
0C
FF
EC
F6
F4
F1
11
FF
0D
13
F6
09
F1
0B
0F
0E
FE
F4
0D
12
F6
ED
F5
05
F1
F0
F6
F7
EA
0A
F3
FD
11
FE
ED
FE
13
FB
04
03
12
F4
0D
09
FB
15
F1
F8
00
F0
F1
07
F6
0E
F8
EF
0C
13
F3
F5
F0
03
0E
07
13
04
FE
F5
F1
00
EE
07
06
0B
FC
FF
11
F0
04
0B
06
FD
02
09
F3
F3
0A
05
04
F0
12
0B
04
13
06
FA
06
EB
FF
09
FF
03
0F
0E
FB
14
ED
FC
F0
F6
F1
F3
09
F4
0D
04
0F
0A
10
03
02
FB
02
EF
0D
FE
EE
F4
03
FF
ED
EF
0D
0C
F7
FD
FD
04
EF
10
07
0D
13
0F
F6
F3
F5
0F
01
F4
F0
0C
FD
06
02
0C
0C
EE
FF
FB
F2
0B
09
02
F9
F1
12
02
00
FF
FC
10
03
FE
F2
10
FC
F1
0B
F5
F3
06
F7
F8
0F
09
02
02
FE
00
F4
01
04
FB
FB
F4
13
08
02
08
00
0E
EC
12
02
FE
03
F5
F6
09
05
11
08
13
09
FB
08
13
F5
ED
03
F2
FE
F0
FF
F6
FC
F5
FE
13
10
11
0E
0B
FA
FA
0F
F5
14
06
01
F6
F1
F0
F0
F7
F2
FE
F4
F1
07
0D
09
F6
F9
F4
0E
F8
02
0A
F7
FE
14
ED
FD
FF
12
11
F7
06
02
12
04
06
05
01
F7
03
09
F4
11
F2
F9
FC
F0
02
05
03
00
F8
ED
16
F3
F2
F6
EC
F1
04
00
05
0D
03
0C
10
F4
04
EF
FB
FF
F3
F0
07
01
0C
ED
F3
F1
F2
04
06
F0
F6
0F
0F
F8
FF
0C
FB
FC
FF
FE
FD
EC
F9
06
09
05
05
F0
F0
0F
EF
F1
02
F3
07
04
F3
09
0A
0D
09
11
F5
13
F3
F7
0C
FD
EE
08
F7
F0
F0
FB
0D
03
FE
04
EF
FF
06
FD
0D
05
03
05
F8
03
10
F5
FA
0E
FA
F9
1B
03
0E
F2
F4
F8
F1
13
10
F9
F2
ED
0F
11
0E
01
10
ED
02
EE
04
0D
FF
10
05
07
07
01
09
FA
05
03
EE
01
FC
0D
09
12
11
FC
06
F4
17
FF
09
0D
0B
F1
12
ED
0A
F5
FC
13
F4
F6
FF
11
FD
ED
12
F7
17
EC
00
0A
00
12
0B
FB
0F
0D
F0
ED
EE
F7
0B
FC
F6
F7
09
0B
05
F8
06
02
11
01
0A
10
FA
10
F9
0A
F8
06
F6
0E
F3
EC
0F
01
06
05
EF
F3
F6
F1
10
FE
ED
F0
F8
00
F0
06
FE
0C
01
FC
01
12
0B
15
13
13
F6
FE
E7
16
03
03
06
0D
F9
0A
0A
0E
04
02
F6
10
F5
05
0F
11
02
09
10
F3
0E
07
06
0C
0B
FF
F6
02
0C
00
F7
09
01
0E
06
F3
ED
FB
F5
0F
F4
FA
03
03
0B
EF
F4
F6
09
EB
F4
F2
0F
0A
06
F2
0A
11
F1
11
F6
03
F1
07
FE
00
13
11
05
07
F1
EF
03
12
05
FF
0A
ED
F7
0C
06
05
FB
FD
FE
08
0D
ED
10
00
0D
06
09
FE
F6
06
F0
03
0A
FD
F8
00
12
F2
0D
FC
F0
F5
F3
FB
EC
11
FB
14
0C
0F
0C
FE
FC
00
06
0B
F7
05
F0
FF
F9
FB
FE
09
EC
00
F8
FC
04
F3
16
EE
F9
0D
FB
0E
F0
F3
0C
F6
F6
10
F2
0C
FC
0C
F6
04
05
06
F1
01
09
F5
14
0E
FB
0D
10
EE
12
F0
13
12
F4
FA
11
00
FC
ED
F3
0C
F3
FB
FE
FC
FF
07
FE
F5
FC
0A
0B
F5
0C
F1
FF
EE
EE
0D
F6
F8
07
FC
F5
F5
EE
F4
FD
00
0D
FB
EF
F6
10
0D
10
FE
F2
0F
FA
ED
04
FD
05
F2
08
0B
F2
05
0A
F9
F2
EE
08
04
FD
FC
FB
F7
03
13
F6
F1
07
FF
0E
F6
10
00
0D
10
0F
12
0B
FD
FA
F2
F5
00
F1
02
EE
07
03
FC
12
ED
F9
0E
11
03
0D
04
00
11
EF
04
EF
00
F8
11
FE
03
04
0C
12
F9
0C
09
F3
13
0C
F0
0C
05
FB
04
05
FD
F1
F6
FD
12
0B
0F
FF
ED
12
FB
0F
F7
EE
EB
0A
F9
06
F1
0D
F4
04
FA
06
EE
0C
F0
05
01
01
EB
EE
FB
0C
FE
FE
F7
01
02
FA
0C
F5
07
01
0B
03
F4
FD
10
F0
F8
F9
08
0B
F4
07
F8
FE
F2
0C
0C
EF
FA
FE
FB
15
F0
07
12
F0
F9
03
10
12
F3
13
0F
0F
FC
E9
F2
11
F7
01
FF
11
F6
09
F2
0B
01
F3
01
06
0F
F5
02
FE
06
14
F1
F0
09
03
06
FB
00
F4
FE
FB
11
0D
F7
F3
F1
0A
F9
FC
00
00
0F
11
03
06
EF
06
05
10
11
F6
FD
09
F3
06
11
08
F5
0C
0F
F4
05
F6
0B
02
FD
0A
F9
F3
0F
01
F4
0D
08
EE
FB
0F
FA
FD
0A
0C
09
04
01
06
07
EB
00
07
F1
F0
FC
04
F3
07
04
09
F5
08
0A
0B
0D
FE
0D
0E
FA
FA
F1
14
07
01
01
FD
08
0A
F5
06
F0
EB
0E
03
05
13
0D
05
0C
0E
ED
F3
F9
FB
15
13
F7
02
F7
FF
F4
F4
0F
03
09
FF
EE
F1
0B
F4
ED
12
10
14
06
11
11
00
EF
0A
03
EE
F5
F5
09
11
F5
FB
EE
0B
04
F9
F7
F8
F3
07
03
0F
FB
FC
00
F2
0A
F2
11
0A
11
F3
F3
F3
F4
FE
ED
14
0E
F8
0A
F3
F5
F9
FB
00
08
0D
F5
13
0D
13
EC
F4
12
F4
0E
FE
09
F7
F9
0C
EF
07
EE
0E
F4
11
F2
0D
07
09
09
01
FA
07
EF
F0
F3
FF
EC
00
10
06
0F
03
05
0B
FB
EF
FC
12
FC
F5
11
F6
0C
F0
FF
05
F9
FC
FD
F5
F2
FB
00
FA
FB
04
14
0F
FF
09
12
EE
FE
FF
01
F0
10
0D
FF
F3
08
FC
11
09
F5
01
FE
FD
EE
EF
FA
EF
F9
F6
F7
EF
01
07
FE
02
08
04
F9
11
13
F3
F8
ED
03
14
FB
ED
10
0F
0E
F7
FD
02
0C
F6
05
FD
F6
10
07
0A
F8
F5
EF
EF
05
FE
F1
F1
FE
EE
07
F0
F8
F2
F9
EF
01
02
03
EB
09
09
05
F9
01
ED
0F
FE
FB
FF
12
0D
FB
0D
EF
01
02
06
0A
12
01
0F
05
03
FD
03
F1
EC
0B
06
13
F0
F7
06
ED
10
F9
FF
00
03
03
13
F4
F6
FE
13
0D
0D
12
ED
0A
EE
0A
08
02
FE
F1
F5
F5
10
12
F4
F9
0B
0E
0C
05
07
FE
FC
F0
01
FE
04
F6
F6
01
11
14
02
0D
09
0D
12
0A
05
F5
F2
FC
F2
02
0F
12
FE
06
FF
0B
0E
08
04
0C
01
00
FD
06
16
F0
05
EF
F9
09
F3
05
11
F7
F9
F4
FE
FB
0D
0D
0A
EF
F9
FC
F4
0B
07
F9
0E
00
F1
08
F2
11
FC
F4
F7
F2
05
00
03
F6
09
14
0A
09
12
E8
FB
0B
04
FD
F4
05
10
05
04
0F
0D
06
EB
EE
FF
00
0A
01
F5
0E
F3
F4
F1
0F
12
F8
0F
10
F1
FA
12
04
EE
02
0A
F2
14
F2
ED
11
14
F9
EF
F4
0B
FE
EF
FB
ED
FE
F6
F2
F2
0A
EF
EC
F2
FD
0E
13
09
07
FD
F9
09
0C
F4
FA
07
F1
F5
0D
EE
09
F9
10
02
F7
F4
04
0C
F4
0D
0B
FD
05
FE
00
F9
0B
0D
02
02
FC
10
F5
FE
01
11
F6
FB
FC
07
FC
0D
06
0F
10
08
FE
07
FE
F8
F9
04
0A
0B
02
F8
0F
F8
07
FA
11
08
F2
FB
F1
F4
FC
F5
12
05
FE
00
ED
F4
0F
05
00
09
09
F7
FB
F3
FC
07
09
14
02
01
F5
FA
FA
FF
EE
09
F6
00
05
15
03
F4
FF
04
02
F4
10
F7
F8
07
F7
F4
0A
12
0B
FC
0A
F6
F5
04
05
F4
07
16
FA
F6
FF
EF
F1
FD
13
0B
EE
0B
FB
ED
F9
02
08
FB
FE
07
EE
0F
03
FD
09
F6
FF
F3
0D
0E
0D
0B
F9
02
07
F7
F5
10
01
F1
F5
05
0C
FB
FB
FE
F3
ED
F4
FF
01
EF
FF
03
00
02
0F
FE
09
F7
0A
FE
FF
04
03
F2
00
FC
F3
0A
F3
FE
0B
03
F6
13
F4
F1
04
F5
0F
0B
0F
F2
09
08
06
EF
F1
04
0B
F4
F3
FE
05
06
F6
00
08
F6
F9
FA
0E
0D
FE
00
FA
13
09
03
ED
EE
F7
FE
FD
0E
F4
0A
00
FC
F9
00
F0
F1
FC
11
F6
0B
F4
05
EA
11
FA
14
07
F4
FF
06
07
05
0D
06
07
03
FC
01
04
EF
0B
03
0D
EB
EF
F8
02
F5
01
11
FB
EF
12
FE
FF
F4
0C
15
FA
02
ED
F0
04
09
0D
03
F1
08
0A
00
F7
0A
F1
F8
07
FA
FF
FC
09
0A
0A
FC
04
01
03
FA
F3
F4
10
F8
0A
0A
02
08
F4
F2
FE
F3
FA
FD
0A
15
F9
07
FA
FB
00
F2
14
0D
0B
0F
FB
14
FE
EE
FB
00
0D
03
F3
FC
00
12
F3
01
02
F4
13
09
F5
FA
00
13
01
04
0D
F8
0A
EE
F2
F8
12
07
FF
09
12
0F
10
11
0C
F0
F7
01
12
F5
0F
00
F2
F4
08
06
13
0F
04
FC
0A
EC
E9
F6
EF
04
02
11
F6
0B
FC
0F
EF
10
05
0C
09
F8
0D
06
F5
FF
F6
11
F8
0A
0F
FB
05
0A
04
08
08
00
FA
FF
F4
EE
12
07
05
0F
00
11
09
0A
04
06
09
0D
EE
0B
FB
09
03
F7
0B
00
12
0C
F7
0D
0D
12
09
08
06
0A
ED
14
05
F5
F0
11
12
F0
0F
F0
F7
F9
0A
03
05
01
08
12
12
01
F6
01
0C
0E
06
0D
01
03
FC
F8
F1
FB
12
FC
F2
0B
12
11
F2
F1
09
FC
F8
08
F7
0A
12
08
04
0E
03
05
0B
FF
F0
0E
12
11
0C
F7
F8
EC
0C
03
0E
F0
FF
F1
11
0A
03
01
ED
0A
04
0A
F5
FF
0E
08
05
EF
02
FD
03
F2
08
FC
09
0A
F9
12
0B
F8
04
08
11
F5
11
F0
F8
EE
0F
FC
0C
11
06
FF
0F
F7
F4
13
FE
0A
13
04
0A
08
F6
FD
14
F6
F5
F5
09
0B
EF
01
EE
0F
EB
01
EF
0A
0C
0E
04
EE
FD
0B
03
0B
F0
00
F7
E9
F8
0B
12
0F
FE
07
0F
01
15
0F
F7
03
0E
13
0A
02
13
0E
02
13
ED
F0
FD
09
FF
0E
F8
F5
11
EB
0E
0A
05
00
0F
01
08
10
F4
05
F3
F6
FE
F7
0F
0D
EC
EE
0B
0F
00
F4
0C
0F
0C
0D
F5
02
F0
F5
0D
0A
07
03
0E
FF
FC
04
F7
08
15
F9
FF
ED
0E
FD
09
19
FE
FA
F3
F4
FA
01
13
0E
EE
03
0D
08
11
09
F1
0A
01
08
F3
04
EE
09
04
10
07
EB
FD
04
F2
12
07
12
11
FA
07
F9
FC
12
11
09
F4
FB
EE
F7
09
F8
FE
06
17
13
F2
FE
FC
F6
FC
0B
EF
F5
06
0E
F0
EF
EE
FC
FE
EF
14
14
00
0C
02
F6
10
06
0C
FF
F1
F4
F0
F1
06
FC
08
FC
12
F1
01
0A
10
04
09
F6
FE
0D
0E
06
F7
FA
05
07
14
05
13
10
0A
FC
F8
13
13
13
FB
10
F9
FE
03
EA
00
FA
F3
FD
09
FB
0D
FD
12
04
F2
F3
F2
F5
F0
09
FA
FC
0A
16
ED
06
FD
FA
EF
08
EC
F7
F6
FB
12
F6
10
0D
02
02
0D
01
0D
11
11
04
14
FC
F4
0D
05
12
F1
15
11
11
0B
06
0C
02
05
F6
F3
10
F9
EC
ED
0C
FC
01
F9
06
00
FC
0C
11
04
01
F1
FA
F4
F0
FD
0C
0B
08
FD
04
F6
F3
F1
FA
09
07
11
01
07
EE
04
EF
03
FE
F6
F7
EF
0B
09
0C
EB
F8
13
0B
0C
08
F6
13
FB
00
F2
FB
0B
13
13
F6
FA
02
06
02
F5
ED
F2
FF
F2
0D
10
07
FF
F7
F9
F7
0B
07
F2
F1
03
F3
06
0F
FC
02
F9
0B
F0
03
EE
04
0F
15
F8
11
F9
ED
FD
F0
EC
02
11
EF
07
EB
09
F0
FF
06
03
EE
EC
F3
FC
05
13
0F
05
01
03
11
08
FE
F8
11
03
FC
EE
0D
02
F2
F0
F1
F1
12
FD
F8
FA
0F
FE
01
0B
09
14
F4
FB
09
0C
03
F2
0A
F0
0B
09
F5
03
00
02
F6
11
09
14
03
F0
08
F9
0F
11
F7
10
01
FE
0B
05
04
01
12
11
10
09
FD
F6
18
06
FD
FB
F8
0B
0A
EF
F0
03
0E
FE
08
04
0A
F9
14
F9
0B
01
04
F8
0B
FB
F1
F5
FD
03
00
11
0F
0E
F0
08
F0
0B
0F
0A
FB
FD
06
02
F0
0C
01
01
EF
FE
F2
FA
0F
10
F4
FE
08
F2
06
FC
F7
03
08
EE
F7
FF
FF
06
09
EB
F4
F5
EC
02
11
F3
FD
07
14
F9
FD
07
FF
F6
02
EF
02
15
06
08
0E
FA
04
F6
0A
07
11
FB
04
FF
F9
F6
FA
FD
FE
F9
EE
07
F6
FD
0B
F9
FD
FA
12
0E
0D
08
09
00
05
ED
ED
EF
F4
08
FE
0B
0B
FB
F5
15
ED
11
08
F9
10
EF
11
0F
14
EE
F2
03
FC
FA
0C
F3
02
FA
03
F3
00
10
03
FD
FA
05
F4
13
07
08
06
FC
0E
F8
05
F6
10
06
F6
01
0D
0C
01
0E
FC
F0
02
FF
09
01
FE
EF
0A
04
F7
11
F8
12
0B
04
EE
10
F0
0A
0B
0D
EE
EE
09
FB
11
02
EF
06
EC
08
FC
F6
0E
F4
03
FB
06
00
FD
09
F9
F5
FB
0E
09
FD
F0
01
01
FF
03
FF
FC
09
F1
FC
F1
01
FC
08
05
0A
14
00
03
0D
FF
F6
EC
FF
F6
F5
0B
09
FC
FF
F3
04
FB
13
0D
FE
03
12
03
EF
08
EE
FF
01
10
EF
F4
00
F5
0B
FA
F1
0A
EF
11
F7
00
F9
F1
0C
11
EE
F3
F4
FC
11
F3
EF
06
EF
0D
03
FC
F1
06
08
EF
FD
FB
13
11
FB
F6
16
0A
08
08
08
F5
0C
FA
F7
FF
ED
03
03
04
FA
14
ED
07
15
FB
F6
F3
F2
03
F9
F2
F1
EE
FB
F6
01
F2
03
05
FE
01
07
0C
F2
05
F9
EE
13
02
10
F9
13
F5
F2
0C
FB
02
F8
F7
0F
14
F9
0A
FD
02
FE
0B
0F
0A
F3
09
F9
02
0D
F2
15
0D
0E
0F
0C
10
0F
F1
F7
FB
12
FA
F7
0A
05
F1
FD
04
05
0C
13
F5
00
00
0D
F3
0E
FB
0E
05
0F
EC
EF
F3
0C
EC
0F
13
00
EB
0E
00
0E
F6
FA
0C
EA
00
FA
04
F0
EE
11
F9
FF
03
FE
F2
FB
02
F2
F4
FF
0B
09
0B
F8
06
FA
0E
EB
15
14
14
04
F0
01
12
0A
EA
0B
F4
00
0B
F8
0D
01
ED
FD
F1
FB
0F
EF
03
FB
FF
FA
FA
14
F0
03
0D
F8
F4
F8
F4
F5
0A
ED
F4
07
EE
02
04
00
F7
0C
06
05
07
F2
0D
11
11
F4
F4
06
10
FE
FC
0A
FE
03
FE
FE
01
07
0E
FC
08
FC
08
FE
09
0C
ED
F2
F5
09
0A
0E
F2
F6
13
00
01
02
08
EE
01
FF
F3
F5
0F
01
F8
F4
01
0F
F7
F5
09
0E
FD
FA
FD
EB
10
FC
F4
0D
01
EE
0C
F2
12
09
EE
EC
0B
F9
14
13
07
F4
05
0D
06
F1
F5
F8
08
10
0F
F4
02
F3
15
F7
F9
F5
F8
02
03
F1
09
F1
00
F1
03
F9
0F
00
06
00
03
0D
0C
04
F6
0C
12
FB
0F
0D
EE
13
15
08
01
00
F1
FB
0B
02
0D
EC
01
EF
02
EF
FB
0C
F3
0D
EF
06
F1
00
00
0C
06
FF
18
0E
F3
02
0C
0D
06
11
10
05
05
F1
F8
EF
04
FF
FD
FF
FD
F9
F9
F7
05
03
07
0D
F8
F2
EC
0E
0F
F1
09
04
0D
F9
0E
0A
01
0D
0A
07
F6
EE
F5
0B
F5
04
10
F9
FD
F6
EF
F0
F3
F9
05
0B
0A
F2
0D
06
03
FD
FD
FE
0A
F4
01
0E
F4
FF
07
F3
03
15
0A
13
0B
03
08
01
F5
FA
FD
09
0C
03
FF
F8
01
0F
07
01
F2
F8
01
0B
F3
F7
01
06
09
0F
F5
F2
FC
F1
10
0A
08
FE
11
0E
15
F1
F6
05
EF
0F
EA
0F
0A
06
03
FE
F3
F7
FE
EA
16
F5
F2
F6
0D
EF
FE
F6
05
10
F2
FE
F9
02
FD
13
06
EF
03
12
14
FF
01
F6
EF
F7
14
02
F3
EE
09
0F
0A
F7
EC
13
0B
0A
F6
11
FD
12
F4
0C
10
FE
09
15
F9
FF
FD
0D
FE
0E
FA
F2
10
ED
12
09
05
F6
08
0F
0C
FA
06
F3
FF
F7
F1
07
0C
04
0D
F8
EE
FF
10
0A
07
03
F6
FB
09
0B
FB
00
06
06
08
F0
03
08
01
EF
F0
0C
03
F5
0D
13
FD
EE
F5
F3
F3
F9
0C
08
F8
FE
0C
05
16
0E
F1
FF
FC
FD
F4
F0
F7
01
F1
F7
F9
06
F5
F8
FF
EA
03
EC
FE
09
06
F8
0D
F2
13
00
F2
13
F7
04
04
10
F8
FA
F7
F6
FE
0D
0E
08
F2
FE
EF
0B
FD
0A
EC
FD
02
10
F0
F5
F4
ED
ED
06
03
FB
FD
FA
03
F4
0F
F9
09
F9
0F
0A
F6
14
FA
0F
0D
01
F1
F4
FF
0A
F0
03
F1
0C
0C
03
F2
16
04
00
F0
09
0B
07
0F
12
FC
0B
FE
F2
0A
FD
F0
13
EF
10
F7
F3
F0
01
00
0E
14
03
08
F9
01
F0
07
F9
EE
F0
F4
05
01
FC
15
12
0B
03
00
02
F5
00
F9
0D
EF
F9
0D
11
EC
F4
F7
F8
01
F1
05
00
F8
F9
FF
0A
F5
F4
FF
03
FE
F3
F3
10
FF
FE
0A
03
00
F5
0E
FD
11
F4
06
FF
EF
05
12
08
0C
03
F6
08
07
01
FB
04
EE
06
FF
F3
11
F6
F5
F5
09
FB
0F
EE
FD
02
09
FE
13
EF
07
07
ED
EF
E7
08
EF
07
03
0C
12
FF
F7
FF
00
F2
12
F1
F5
F5
F7
F1
03
09
03
11
F7
0C
02
FF
01
02
EF
0F
FE
0F
0A
F7
F2
F3
F1
0C
09
EF
F0
F1
11
F5
EE
FE
FB
02
FB
0E
F2
05
0B
0E
09
01
F9
F0
06
FB
02
03
F1
ED
0B
06
06
00
05
0E
09
F6
00
02
0A
F7
10
03
02
F6
0C
00
06
F0
EF
06
FC
F1
F3
07
13
FF
FC
F6
F0
F1
F3
FE
F1
0D
0F
0A
13
FE
09
EF
FC
EF
F9
FB
13
F0
F7
E8
04
F9
0E
07
0E
EE
0E
0F
01
F9
10
0E
09
07
ED
0E
03
02
FB
ED
F0
01
06
FA
08
0B
13
F5
F8
0C
07
FB
F8
F4
0B
EA
FD
03
F0
0A
08
0C
07
EE
07
05
F5
00
04
ED
F3
FA
0F
F9
0E
FA
0D
07
01
10
07
F2
0E
06
FD
FD
12
F8
10
0B
0A
11
FC
F6
F0
0C
ED
06
14
00
0C
04
02
FA
04
0C
FE
F5
F0
FE
F4
F5
FC
FD
F5
07
F4
F6
0E
FE
07
15
F4
F4
FC
08
F6
02
FC
ED
F9
0E
F1
04
13
0A
00
FC
F6
0B
F8
00
EB
F4
0F
F0
F0
0C
FC
FA
07
F2
E9
0B
07
05
10
F2
F8
02
0B
03
04
F5
FC
F2
0E
FA
08
03
ED
F9
01
FF
F4
04
F4
F9
09
09
EF
0C
10
F1
F0
0B
03
0D
FF
0A
0A
0A
FD
ED
0F
04
01
00
02
03
11
00
FD
F7
FD
FF
FA
00
16
05
FF
10
F0
FC
07
EF
08
0A
ED
0B
FA
08
F7
10
16
F9
0E
FE
F1
F6
0F
F8
01
13
06
0B
08
F9
F1
FF
F8
F5
13
F0
FB
F0
04
11
FF
F8
F8
0A
05
FC
FE
12
ED
09
0C
F3
FE
EE
00
0A
0F
08
13
F3
EF
11
08
FF
08
0E
02
0C
F7
F0
07
06
0D
FE
01
00
05
04
0A
08
0E
0A
05
F1
0B
07
0B
0F
0B
03
09
08
F5
FB
FA
11
FD
F5
0F
10
FB
FF
0A
ED
06
F4
11
F1
08
00
FA
0D
F9
12
06
10
F3
EB
14
F1
05
F3
F5
0E
00
F5
0E
0A
FC
04
FB
02
EF
FB
FE
FE
0D
F5
12
FE
08
ED
0B
03
01
03
EC
FC
0D
10
EF
FA
F0
F5
11
11
04
FE
0B
13
F6
F6
04
F9
F0
F8
0C
FF
13
EF
0B
02
FA
0F
02
FA
05
09
09
F0
0B
0C
01
FA
F1
FA
EE
EF
10
F8
0B
ED
F4
ED
03
00
EE
F0
EF
14
FD
F0
EF
03
F4
10
F6
ED
FB
F9
F4
F2
FA
F6
05
09
F9
F2
09
02
09
0A
F2
10
0C
F1
FF
FF
ED
02
FB
08
ED
FE
0E
F9
F2
F0
0B
07
01
07
F3
FC
EE
09
02
0B
EF
08
FA
FA
03
FF
FE
0A
05
F5
10
0C
05
F2
F4
00
03
F0
06
09
08
15
03
0A
0E
03
0A
00
0A
08
0E
04
08
10
04
F5
FE
13
0C
FB
FC
0A
0E
0D
FD
05
06
11
12
0F
F5
00
06
EF
00
0B
05
F3
09
F2
0C
FE
0D
10
05
ED
00
11
0F
FB
FB
F6
F9
0B
08
F1
10
F9
0D
FA
09
EF
F0
06
0F
09
FA
04
F8
0C
07
13
05
08
EE
EB
0F
F9
0C
FB
00
EB
01
10
02
FC
F5
0A
08
FE
03
F4
0B
F2
EF
EE
0F
0B
07
EE
00
F4
0D
FE
02
12
F5
01
F9
F0
FE
08
EB
EC
FD
EE
02
F1
F2
F6
F2
02
EF
0B
0B
02
0A
FA
FD
EB
F7
F5
F2
09
0D
00
EB
02
09
0D
F2
02
F4
11
F5
F0
F4
00
02
F4
12
FC
F4
03
07
F9
0E
F3
0C
F1
F9
0A
F2
06
F8
F4
FF
F2
FC
F2
F0
FF
11
F7
04
0A
F1
0F
0F
10
EE
02
F3
0A
FC
F7
0B
FC
07
09
06
ED
09
FB
F6
FF
02
05
FC
03
F4
FA
01
0A
F0
FA
F1
14
FD
04
F1
09
F0
EE
0E
10
EE
F7
0B
F1
10
0C
F2
08
06
EF
0C
02
00
01
16
17
00
0D
F3
07
10
03
07
08
11
F3
F1
EE
EE
FA
03
05
FC
F9
0D
EF
08
0E
00
01
F2
F1
10
F1
0A
F3
04
0F
F7
01
0E
10
F2
F8
03
05
FF
F6
11
F5
FB
F8
EF
F7
09
11
02
F0
07
0D
EE
FA
06
FA
F5
04
04
12
08
FC
12
FA
F3
10
13
08
0B
FF
F0
F2
ED
10
0E
F5
07
07
01
F1
FC
F3
F6
01
0D
0D
09
01
F2
EF
08
F7
17
EF
0B
0E
06
F3
EF
0D
ED
01
F1
13
01
ED
0E
0C
F3
F7
01
0A
13
10
05
F7
F0
05
F6
0D
02
00
FE
F6
0C
F6
06
02
ED
16
F2
01
EE
06
FF
F3
04
F6
F5
FE
FE
FF
F0
13
06
11
F3
0E
FC
F2
F5
F8
08
EB
0E
0C
0B
FC
F5
F8
03
EE
02
0E
F9
0A
FB
EE
12
FA
0D
EC
F7
0A
00
04
F5
0B
F3
12
03
FE
08
FF
03
F3
0A
06
09
F4
00
0A
02
04
03
0C
EC
F0
10
FD
0F
FD
F1
00
14
05
EC
ED
EE
0D
FB
10
F1
EF
00
0F
EF
FA
0A
FC
F2
F8
FB
0A
12
FE
FD
07
FC
08
0E
FA
FB
FB
FB
12
F2
FA
F0
12
F3
11
0B
0A
F6
07
05
01
05
FD
F7
0B
F6
07
0C
13
12
ED
10
FE
14
00
08
08
05
EF
F6
FF
F9
F9
F4
04
FC
03
FA
10
FD
F3
F4
FC
EE
FF
F1
06
05
10
09
EA
EE
EF
12
09
00
EF
10
F3
FE
FE
12
01
EC
10
F0
F8
F8
13
00
0D
04
FE
11
F9
13
FA
EC
0E
F6
EF
EF
02
03
F0
F0
05
11
FF
03
F0
FD
0D
F4
0D
04
0D
FE
F8
F8
FC
FF
12
10
13
EB
F1
03
F6
11
07
04
05
09
F0
F8
F1
03
0A
11
07
F4
0E
08
FF
F7
FA
FF
12
F8
0C
F7
09
EA
F9
0C
F4
05
F4
F4
00
F3
05
04
FC
FA
01
F0
11
EE
12
0D
02
FB
F1
F8
FD
09
F3
EF
F1
F8
F8
E8
F5
01
04
01
13
05
0D
F5
08
02
06
03
FE
FE
F2
0C
08
15
F0
0E
01
0B
0D
0C
EE
12
FE
09
08
F8
0E
0C
ED
01
F2
0B
F9
12
EB
0C
00
FF
FF
0E
0E
04
EB
EF
0E
0B
0D
F6
F0
F1
FB
01
F6
F2
0E
0F
07
FF
F7
08
03
FC
F9
0D
01
0E
FD
F0
F0
0B
03
07
FC
0B
FA
0B
0C
F9
FD
F5
12
01
FD
01
02
08
0E
0F
F0
0B
02
03
0F
01
07
0D
09
F6
11
FF
EF
F3
0E
F7
0B
0A
EF
04
09
FA
FF
F4
11
13
0C
F0
F7
F4
13
12
EE
FE
0D
EF
0E
01
07
F3
F4
09
11
12
04
EF
F7
FB
07
02
FE
03
FF
0C
0E
F4
07
07
F3
06
EE
04
10
13
F0
F2
F2
02
0B
0F
0D
F6
F4
00
06
0C
FD
FD
0B
10
13
05
EE
11
EE
04
F6
12
FA
00
F6
0C
EF
11
04
EE
0C
FC
11
F9
03
FF
FD
09
FD
07
F9
FF
13
05
F2
01
FA
0D
F3
FE
FA
EF
0D
FF
F5
F2
01
0E
10
16
EE
10
F3
F7
01
01
FE
F0
FA
F4
05
04
EF
F2
0F
00
05
11
10
F9
09
FC
07
09
01
0A
0F
07
EF
04
13
F0
EF
0C
11
11
0A
14
08
F8
F4
EF
FB
0C
07
FB
F8
FB
11
EF
15
F2
FA
F0
FA
08
0A
15
FF
0B
0E
EE
0F
F6
FA
0F
10
0A
F8
FC
05
0A
02
F8
F4
07
EF
FE
0F
F3
0B
F2
F3
F7
ED
12
F0
F4
EC
07
00
F9
F2
FF
10
13
F4
0A
FD
10
06
F4
F8
F9
00
EE
09
FF
F0
F5
EE
FE
F1
EE
0E
F7
12
FE
F2
09
FD
05
00
10
0C
0D
FE
F1
08
F1
F7
FC
FA
0E
ED
08
08
ED
08
FA
F2
FE
FE
0E
0B
FB
0F
F6
FE
0D
F8
03
08
10
F8
12
01
F2
11
F2
F6
01
02
08
F0
0D
11
EF
0B
F1
F5
F7
FA
F7
F3
FD
05
F9
03
0A
F6
F5
F2
F2
F1
0B
FA
FA
0E
F8
F8
F5
13
F6
0B
0F
05
00
10
EF
FB
0F
F8
F7
F4
05
EF
F3
ED
EF
08
F3
05
F5
FE
EC
0E
F4
FF
0F
03
F4
03
F3
FC
FA
18
EE
F8
FB
0D
FF
F6
F5
07
0C
10
06
EA
0F
03
0D
02
13
EF
0F
ED
02
04
00
0D
11
02
01
11
ED
F0
ED
FB
02
F4
FB
00
02
F8
F7
FB
01
FF
08
F4
12
05
F6
01
02
F0
0C
F2
ED
F3
05
FA
03
FE
01
F1
09
02
0D
11
06
EF
EF
09
0E
FF
09
F4
0C
01
EB
07
0B
10
F8
EC
FC
11
0C
F8
0F
F1
ED
0A
F7
F5
EF
11
FC
09
04
F6
EF
F5
F9
0A
FD
11
FF
0E
00
F4
F1
F7
FD
F8
F4
10
05
F6
00
13
FB
FA
F5
07
F6
EA
10
F4
FE
FD
EF
07
F5
FF
08
10
F9
0A
0B
03
EE
07
FF
F2
F3
FB
FB
08
F6
11
00
07
13
FE
00
05
F8
EE
F3
EF
04
F1
05
0D
0E
00
0A
02
FC
FE
07
13
02
F2
F4
00
0C
02
07
08
07
06
13
EF
03
11
FC
00
02
F2
08
F9
F6
FD
08
EC
12
14
12
08
06
ED
F8
F3
00
FA
12
F7
FD
FE
EE
F7
0B
11
03
11
0A
08
F7
0F
F6
FD
FE
FD
07
09
FC
0F
F4
FA
00
F1
00
ED
F4
0D
F7
0E
04
FC
10
08
03
F6
05
F0
02
FA
0C
06
05
FC
FB
F7
08
F9
ED
0E
F2
F6
FB
03
F8
0D
0A
FB
FF
FD
EC
01
05
0E
F8
F0
0B
0D
04
0F
F8
F0
F5
FE
F5
FB
F0
FE
F9
02
0A
0E
12
FC
FE
03
FD
F4
04
01
0C
00
0C
F3
F9
14
FA
EF
06
FA
12
F5
FF
01
F1
0A
07
06
0B
0E
03
FE
ED
FA
F3
F7
F9
03
F8
0C
F8
F5
FA
0C
08
01
06
07
0F
07
FE
FB
06
14
11
04
E7
16
0A
00
09
01
FD
F8
EF
F7
EF
F3
F6
07
07
FC
F5
FA
F3
F2
EF
FE
FD
09
F3
04
11
FA
0B
F2
FF
08
11
F6
03
F6
14
13
F0
F0
FA
F8
00
EC
0F
07
FA
F4
0E
EC
03
ED
00
08
F4
FB
FA
02
EE
11
F2
03
EA
00
F1
06
0E
F9
04
0E
0E
F1
0C
F6
0D
05
F6
09
EF
06
05
F5
F5
EC
FC
04
10
F4
0C
F2
03
FB
0E
FD
05
11
0C
06
FD
F9
F6
F0
F8
F3
FC
F0
07
06
F3
06
FA
0C
15
00
F2
0A
12
ED
05
F6
FA
05
ED
10
02
EA
03
06
F4
F4
08
F4
11
0F
12
01
03
03
04
0C
FE
08
0D
EE
02
07
FC
0C
12
06
11
FC
ED
FD
F7
F2
ED
F8
F8
05
F6
F9
0E
01
F1
15
F0
FA
08
FA
01
F1
F2
00
10
14
FC
10
0B
FA
EA
06
07
0A
06
F6
0A
F3
FC
FB
0C
0D
F3
F4
F6
EF
EE
0F
0D
0B
13
10
F1
09
0E
0B
FB
12
F5
0B
F6
12
F3
0B
F4
02
09
02
F9
00
0C
15
F8
F6
05
00
00
0B
03
05
11
F9
01
FA
F1
13
FD
00
0B
F8
FD
03
F4
F9
03
F8
02
F7
04
0D
F0
F4
ED
0B
0F
FD
02
08
0C
10
ED
00
08
01
F3
07
F0
0F
08
13
F9
F0
EF
05
08
F0
0C
06
F9
01
FC
F7
01
F7
12
FD
02
01
00
EE
F9
F5
08
F7
08
FE
F8
F7
F5
F9
F3
14
08
F9
EE
11
0B
F7
13
EE
F5
F8
0A
F2
F5
EC
FA
14
F5
EE
FD
10
EC
F4
F8
FA
FE
11
F6
F7
06
EF
07
FD
EF
EE
0B
0E
F6
F6
10
08
12
FF
12
FD
F3
FC
F4
F0
F9
F4
FE
11
14
F9
FB
F3
F5
F5
03
FF
0C
F2
13
FF
01
05
EF
F0
EC
0A
11
0D
0F
F7
0E
12
0D
0D
0F
FB
F5
FF
FD
06
03
07
00
02
EE
F3
FA
00
F4
EE
F6
F4
EF
F4
F3
EB
F7
03
ED
0A
FF
F9
0D
15
F3
F2
0E
13
EC
0A
09
EF
0F
FF
F1
06
06
0E
F9
0C
FB
05
FE
07
13
10
15
F4
0A
F4
0E
00
F5
F5
F3
FC
06
F1
F6
FD
02
FC
09
0F
FC
F2
00
11
06
14
F3
12
FA
F4
EE
F7
F6
11
00
F4
0D
0E
FD
FF
0B
FB
00
10
0B
F8
0F
FE
04
05
14
F1
02
07
F8
0E
0B
01
EF
0E
FB
FA
FD
0C
F2
FE
03
0E
EF
F0
09
0F
FC
0A
F6
08
FE
06
0A
FC
0A
F7
FC
0D
09
EE
F7
FC
EE
0F
01
F9
F1
10
07
FC
04
0F
10
0C
11
ED
03
0E
10
FB
12
00
05
F3
ED
F8
FC
08
05
FA
05
F8
10
0F
FF
FF
01
0F
02
0A
F1
F6
ED
FB
03
F9
0D
01
F4
0B
10
F9
FD
F2
0A
09
11
F5
EC
F7
0C
07
EB
F6
0B
EF
03
10
09
FE
F2
07
0D
09
02
ED
F7
08
FC
FF
04
0A
EF
FD
07
F2
F1
FF
F5
FF
FC
01
08
00
FB
FC
0C
F3
08
0F
04
02
F4
0F
0E
EC
04
0E
0F
0E
F0
F3
11
FE
F5
F2
EF
09
F4
05
F5
0B
05
05
02
F6
0B
F2
FA
F9
EE
03
0D
F4
F7
0D
01
02
07
F6
0B
F2
13
FE
F6
F6
07
F1
0A
FF
08
F1
FC
02
EC
EC
F7
0E
0A
0D
FD
10
10
13
00
03
FB
FE
09
EF
04
F2
08
01
14
10
FF
EC
0F
FA
12
0A
FE
0D
08
0C
02
F0
F8
01
01
F9
F8
09
F2
11
F3
FC
FA
EE
04
03
11
0E
FE
03
04
09
09
11
00
EC
F7
FE
06
03
0B
F5
ED
0F
FC
05
01
F3
01
F2
F7
0C
F1
F7
EC
F0
05
07
05
FF
07
06
0C
09
0F
0C
02
05
F9
12
05
00
0C
FD
F4
FC
F9
F8
02
14
0A
13
12
0C
08
07
F7
ED
01
0B
00
F2
FE
FF
01
04
0E
FA
FD
05
F3
F3
F3
0E
00
EF
FC
11
FE
F0
F2
05
06
E9
F3
13
FA
05
F7
FB
FF
EE
F0
F5
04
ED
FB
0E
08
10
F4
14
08
FE
FA
F6
04
F5
FF
04
02
02
F3
FC
F9
EF
15
F2
0C
FD
08
0A
F5
00
F8
12
FB
FB
FF
0B
01
12
14
F2
FF
05
EF
01
0F
14
04
EE
10
F7
10
15
F7
F2
0F
F3
0E
0B
F9
08
F1
F6
0F
13
0B
F5
F6
FD
0F
10
11
07
04
FB
FC
FF
F1
F8
0A
EF
0A
10
0A
F3
06
F3
12
0D
0B
07
F7
F4
0B
0E
0C
13
13
17
F1
FF
F3
0E
FB
EF
FD
11
F7
0B
09
FF
F4
00
FB
F1
03
F0
F4
06
F1
F7
F4
08
FD
F7
06
FC
05
F2
09
FF
FA
12
F1
F7
F0
13
08
16
EC
08
F0
F7
05
FF
FC
03
F4
0E
0D
F5
FE
F8
F2
FF
11
02
F1
09
04
0D
0B
0F
F1
00
0E
ED
F7
FD
F1
08
F3
F2
0A
01
0F
F9
FA
F3
FF
F8
0B
EF
10
F4
05
FF
FA
15
10
12
F0
09
15
0F
17
01
F9
F8
03
FC
F5
12
00
0D
03
FB
02
FD
08
FF
FB
F9
F3
F2
04
EE
00
F9
0F
F0
F6
F8
0C
FB
06
00
FC
EF
06
05
00
F8
0D
F2
0E
0F
08
F3
01
0F
04
EF
F1
0A
0C
09
F0
FF
00
F8
13
14
F3
EE
F2
00
0A
FE
FE
ED
02
EF
FE
09
0C
0C
F0
07
F4
0A
EF
FF
F9
0E
FB
FA
FF
10
06
FA
F6
04
09
FF
02
05
F5
06
F9
09
FC
06
F5
00
FF
0B
FF
F0
12
FF
09
FC
03
F4
F9
03
FF
FF
02
0C
02
0D
10
F2
10
FB
F5
FD
13
F9
10
F2
ED
04
FC
06
0D
0A
07
EE
F0
FF
09
10
10
F9
FA
0B
F0
F8
01
FF
F5
F5
F7
EC
0B
0C
0E
05
00
F1
13
02
F9
13
0B
F2
00
F7
0D
E9
F6
02
F1
F2
FE
0B
07
F1
F4
FC
11
FF
F5
17
02
11
09
F9
F7
FE
08
0B
FD
F8
0B
08
0A
F1
0C
FC
FC
F0
FE
05
10
16
FB
0A
F0
F3
FD
12
10
0D
