F4
0B
11
F0
02
FC
F5
15
06
F2
10
F3
03
05
02
03
EE
04
15
07
09
FD
EC
05
F1
F0
07
03
02
01
0A
F7
0F
FB
03
0A
0C
F5
F6
F3
FE
EF
13
FC
F9
F5
FA
EF
FC
F3
0E
FB
11
09
14
06
10
F5
F2
06
06
F4
0C
F7
0B
0E
05
05
13
02
0B
07
FC
01
FA
09
0A
F0
F5
05
10
F5
10
F4
0E
0C
FD
0A
0B
FF
10
0E
FE
F7
0C
01
11
FB
10
0F
04
14
0D
F4
FE
FC
FE
0A
F0
0A
0A
F2
F9
0B
04
EE
F3
FE
00
01
FD
19
F8
F4
F6
F8
0F
F4
03
F2
F1
0B
FC
F8
F7
FC
0F
00
0C
EF
F5
05
0A
FD
05
10
F3
13
0D
0D
F9
11
F0
F7
FC
06
FE
0F
EE
0B
07
0A
0D
EE
FB
03
04
F3
13
EF
02
0E
05
EB
05
13
0F
F3
F3
F8
F6
F9
08
10
03
F8
F0
01
0A
ED
0E
02
0F
ED
F3
04
16
01
00
01
01
F5
F5
EC
12
F7
FD
FA
F5
FF
0A
F7
F8
FB
0A
FD
F5
0B
0A
F5
01
02
FA
F9
04
F7
0B
FF
F0
F7
F4
0E
F6
00
06
02
0C
F5
0C
F6
07
F8
F4
01
F5
01
F1
F4
01
F7
FC
F3
0D
FB
FC
10
ED
02
F2
04
F6
02
08
F5
FF
06
04
0C
FE
F1
0C
08
EE
FA
F1
EF
05
F4
FC
07
08
F1
02
0E
00
13
FC
10
F6
00
F5
06
F4
08
F6
F4
03
FE
F6
FF
F2
F7
F3
FC
0D
F3
F5
F7
02
09
0E
ED
F9
F5
FC
04
FA
EE
00
F3
F4
FA
EE
04
EF
11
0E
04
10
11
0D
F6
F3
04
0D
F7
07
F8
11
13
FA
10
F8
0C
F3
00
05
F2
0A
0E
0E
0F
FC
EF
01
12
FC
0B
0B
07
FD
EF
EF
FA
0B
0F
ED
08
F1
FA
07
EE
04
F8
F0
12
0D
F7
03
06
F2
FA
0A
0A
01
F3
08
07
F0
0A
FB
19
08
F8
EE
F4
13
EC
08
FC
FC
0B
01
0B
EE
0A
12
14
FB
08
06
EF
04
03
05
17
00
F4
F6
EE
0A
0E
F7
04
FE
0E
FA
F6
FE
F9
11
F0
F5
0D
0E
F2
FC
FF
F8
02
09
12
F4
0E
EF
EA
FB
01
F3
08
05
FD
F5
0D
06
0A
FD
06
FE
FD
0D
F4
F1
F6
14
02
F5
0A
F4
F2
07
0E
FC
F7
09
16
01
0B
EC
F3
15
10
EF
EC
00
F0
F0
09
02
11
00
07
F3
12
FF
F6
F6
EC
0D
F9
FF
0A
14
10
F5
0F
10
F5
F8
FD
F6
F4
0D
F1
00
FC
FC
F7
ED
02
04
0B
01
11
12
FD
F1
FF
FD
02
01
0B
08
0F
05
02
FF
0A
08
EF
F7
01
06
0F
F5
F3
01
EC
F6
09
0C
EA
F9
00
13
F7
F9
0A
FF
F8
F0
F5
06
FF
09
ED
0B
FC
00
F7
0F
0C
0F
03
FC
10
EF
F0
0E
F1
01
0D
FA
08
07
F3
F4
07
14
03
F5
10
16
07
F3
06
12
07
03
14
0C
0D
0D
F2
EC
FA
FE
F8
06
09
07
0E
FC
FC
F4
EC
F5
01
0F
F2
FC
09
FE
01
F1
EB
04
0B
02
15
05
F8
F3
09
FA
14
07
12
0F
FE
ED
07
F8
F9
F5
FB
0D
0F
F4
13
F8
10
0C
F2
06
13
F6
11
FC
0C
0B
FB
EB
04
06
EF
07
0B
0B
14
0B
08
0C
0A
FE
0F
0F
0F
F7
FD
FE
0A
F4
12
0B
F9
11
00
F5
07
F9
FD
FE
0E
F2
12
08
FA
0D
F4
04
F0
F8
0E
02
EB
0F
F6
0E
00
FA
09
12
05
FD
FF
16
FE
FC
09
0D
12
0D
08
08
F2
ED
13
FF
FD
0D
03
06
FE
06
08
F4
11
0B
F8
FD
FB
13
F6
EB
0C
F8
EE
09
0D
F2
FB
F3
F9
FF
EC
F7
10
14
FB
FC
07
11
05
F9
F8
01
0D
F4
F1
08
EE
03
F0
F0
FC
00
05
10
FD
06
05
F8
F0
EE
F2
07
09
0F
04
FB
F3
02
FC
F9
F0
EE
FA
04
F2
07
FE
F8
FD
F9
F6
09
11
F6
14
F0
10
F8
07
03
F4
0B
F7
F7
04
F6
10
05
09
03
13
06
F4
EF
FC
F6
F2
F6
FB
FA
EF
FE
0E
07
F2
FF
F0
F7
F5
0C
00
FD
EF
03
0A
02
14
12
F1
02
04
F8
FA
0E
F6
EF
F9
FF
0E
0E
0B
FE
FD
03
F5
F5
02
10
16
EE
F3
11
FD
0A
F5
FB
FF
03
09
04
F2
06
FE
03
F4
05
02
09
FB
0B
EE
05
EE
F6
0C
09
08
F3
F2
F0
07
F2
FB
FC
08
EE
F9
00
F4
F8
12
ED
01
F7
F4
F8
08
F6
10
11
0A
11
F9
00
13
F3
13
F2
05
0C
FF
F7
09
0B
FB
11
0B
0D
FC
F9
FE
11
F5
04
ED
F2
F3
13
0F
0D
0D
0F
F1
0B
F6
F4
F3
FE
FD
F4
0F
FD
F0
09
0A
EF
EE
12
F0
07
F3
0A
0D
07
07
FB
05
00
F0
10
FD
10
FD
F2
FD
EF
F7
FD
0C
FF
00
F3
04
09
EF
0D
11
04
07
FB
FE
FE
0C
00
FD
F1
09
FE
12
0B
0B
F7
01
F8
13
08
00
0B
0A
09
0F
13
EF
05
02
F6
E9
FD
F7
ED
11
08
FE
FF
F0
0A
13
01
FF
0A
FC
F6
0D
FB
F8
06
F9
00
E4
FD
06
ED
04
0C
F0
06
05
F4
EE
FE
F0
11
EB
07
0F
0D
F2
F2
14
0C
FF
13
FE
F1
F0
FF
FF
0C
F8
FF
FE
16
0B
EF
F7
FC
F4
04
0D
F5
FC
F6
03
F3
F6
05
EF
E9
07
FF
F4
0B
04
0B
F1
FD
F6
0B
EF
09
13
FC
16
F6
F4
FC
11
0B
03
FA
0C
FE
FD
0B
00
0D
11
01
08
FD
12
0C
17
F3
13
0E
0C
F7
EC
10
02
03
0B
F6
11
0A
07
09
08
07
02
FB
F4
F2
F3
13
0F
0F
09
13
FD
EC
10
07
F6
EF
EE
11
F9
EC
FE
F6
EF
F8
12
10
12
FB
F2
F8
FA
F6
FC
FA
EF
FA
02
00
EB
0A
F7
EC
10
0E
F9
0D
09
F3
07
F0
EF
FC
EE
00
F8
EF
0D
F0
F8
FE
FB
0D
FC
EE
03
04
0D
F6
F6
13
F3
0B
07
0C
F4
14
EF
FB
0A
F0
0C
FA
09
EF
0F
0D
FB
00
EF
02
FC
FD
0D
FF
FB
0D
F0
0E
06
11
09
01
00
FA
F2
01
FB
0B
FB
FE
F5
11
10
F8
FB
F1
F6
F8
01
09
02
09
F9
F8
0A
F6
10
F0
F5
11
11
02
F4
11
09
06
F5
0D
0A
0C
FA
F3
07
F4
03
F2
08
FC
F4
F4
09
0E
06
00
12
07
0E
F5
FF
0C
07
FA
EB
F9
05
F1
F9
EF
07
EC
00
F2
EE
02
FE
F6
04
F9
10
F4
12
05
0C
10
12
12
F4
0B
F2
03
F5
ED
03
F0
FD
F4
0C
F0
15
07
F5
F3
10
0B
13
12
10
F8
02
F3
06
0D
FB
FB
00
07
F1
0D
00
0A
07
02
FD
FD
F2
F3
F0
F4
F3
EE
F6
14
F8
FC
FC
F6
FA
FA
09
0A
05
03
FB
03
0A
0F
F7
08
09
06
FB
FA
08
FA
07
F5
04
07
0A
FE
14
00
FF
F6
07
FA
FF
F0
06
08
13
F1
0F
06
11
FE
03
F6
FB
14
00
F1
08
FB
0F
FD
0B
09
F3
FC
FC
F1
FE
F9
00
FA
FA
05
0A
0C
06
00
EA
EE
0D
EE
09
12
0F
0C
00
09
0E
10
F4
FC
09
F6
0C
12
F1
04
10
FE
F1
14
EB
F9
FB
06
00
05
EB
F3
FA
0D
0C
09
0C
11
07
06
FD
FD
0F
FD
F2
F4
F3
F1
FB
01
EE
E8
F0
10
0E
F3
07
FE
FF
0C
F8
EB
F3
FB
ED
0E
14
12
04
FF
F9
F3
0A
F6
06
F9
11
12
FB
0C
F5
05
03
F9
EF
07
FB
11
12
FC
01
07
F8
F1
0A
0E
0C
FA
0B
06
03
FB
ED
12
F3
EE
0C
FF
FF
0A
F1
06
04
F1
F6
10
FF
08
04
0A
F2
F6
F5
F3
EB
0C
ED
F7
F2
FB
03
09
0E
03
0E
09
08
12
0E
FC
FF
07
F6
F1
00
F2
01
F8
F4
F8
11
FA
FE
03
0C
0F
F7
02
04
00
FE
05
F4
02
0A
F3
14
FF
05
11
08
10
F1
00
EE
11
F0
F0
F9
03
F4
FC
0B
08
F9
F9
EC
06
F3
06
07
0D
04
FF
FA
0B
0F
F1
07
0A
04
0D
FB
0C
FB
0D
08
F2
11
F2
F3
12
12
0E
12
11
08
F3
03
EF
F5
00
06
09
F5
0A
E9
F3
0F
02
07
FB
03
FE
ED
F4
F3
F2
05
07
01
0E
F7
FB
EE
10
0B
F3
FB
00
12
08
FC
F9
F7
04
03
EF
0E
EE
08
09
F0
0E
FD
FD
07
0A
F9
0F
0C
FA
FF
0E
06
07
11
02
05
F4
0C
01
01
08
F8
F9
04
F2
01
0D
EE
F4
F4
10
02
FB
F0
FA
F3
F6
07
EE
F8
F3
FD
03
FC
ED
FA
05
0B
FA
0E
07
06
FF
06
ED
13
F5
F2
00
01
FA
F5
14
EE
08
13
F6
15
EC
ED
08
FC
EF
05
F4
0D
F3
11
03
F8
0E
04
09
0E
FB
FE
0B
FE
FB
0D
FF
FC
0D
0D
EE
02
FD
F1
FA
FE
0F
15
0A
F7
FA
ED
13
0F
EF
F9
F0
07
05
EC
F7
F0
F9
02
FA
F7
0E
0F
F1
FC
0F
F2
06
FA
F0
0C
F7
F8
0C
0B
FF
F9
0C
F5
FC
05
EB
13
F5
12
11
F8
0B
13
06
10
F9
FF
F2
F4
F0
09
07
F0
0C
F7
F5
04
F9
10
F4
F8
F5
F4
07
F4
FE
01
FD
05
07
13
F2
F3
11
0A
FF
0E
0A
FB
F6
FF
03
FC
F6
11
0C
F5
EF
EE
02
FD
01
14
F1
12
0B
F3
F4
0E
EE
F3
01
F8
02
FD
FF
ED
06
FA
FE
F4
01
EA
02
F5
F7
F3
0E
04
FC
00
0D
05
0C
12
FE
F6
04
0C
F5
10
0F
07
04
F2
0A
00
F5
F4
EF
09
F3
0E
09
F2
FC
FD
F7
08
F7
0E
F2
EE
0B
FC
11
F2
F3
06
ED
F1
F4
0C
0E
F6
F3
FF
F0
F6
EF
0C
05
FE
00
FC
05
04
0B
06
F9
08
FF
F8
0C
05
FE
F1
00
03
EE
F8
08
0B
0F
15
05
F4
F3
FC
FA
08
FB
EF
EE
10
11
0F
ED
02
F8
F9
FC
05
F5
0E
FF
FD
05
03
F4
03
EF
12
F1
0F
0D
11
EA
06
00
FA
FB
FE
FD
00
F8
FB
ED
F0
08
EE
08
00
FE
F0
13
F6
0E
01
ED
01
F5
09
ED
00
09
12
09
F5
F1
02
FB
07
FD
0D
06
02
FA
F4
EC
EC
11
F3
F2
F0
01
14
F1
12
F3
ED
F5
02
0C
EE
F9
FB
14
08
05
0B
F9
FC
FC
EF
FF
05
F3
0E
FF
0A
04
F3
FA
01
0C
13
F4
FE
F0
FE
04
FC
15
10
04
F2
00
F8
F3
F5
F6
00
02
00
09
01
F2
FA
06
F6
02
F5
F4
15
08
00
F0
FE
0D
00
FC
17
00
02
01
03
06
09
11
F7
F6
F9
00
F8
09
0B
01
0B
0E
07
EF
01
F2
0C
03
F5
F4
13
F1
F2
ED
10
F2
EF
04
F5
F5
0D
F8
13
F5
0A
F2
01
FF
02
FE
11
FF
F0
07
F8
FF
ED
01
ED
04
05
12
13
0E
08
01
0E
09
05
03
00
00
F1
0F
EF
F1
15
EC
EC
F4
FA
F1
EC
0F
FB
06
FB
FD
FF
FF
ED
F2
0B
F0
14
FC
02
0C
09
FB
FC
02
01
0B
FE
0F
0E
11
02
09
01
FB
0E
EC
F9
06
F0
0E
14
0F
09
F5
ED
F4
04
F2
F3
0C
07
0E
F8
12
FD
FC
10
12
00
F5
0E
F9
FB
13
F6
FE
13
09
16
09
16
FB
F0
0C
06
F8
11
EF
F2
02
08
00
F5
F0
05
03
08
08
10
0A
07
05
FF
06
15
F0
09
0B
EF
02
F7
05
0A
FB
EE
FA
09
F5
05
0F
FD
EE
0A
FC
F1
ED
F1
03
ED
F5
F9
08
03
F2
F7
EF
0A
F9
00
F2
F6
11
FD
10
FC
14
FC
00
FA
FD
F0
12
F9
0D
01
F8
09
F9
FB
09
F7
FF
F4
FE
05
F0
0D
07
02
F0
05
F0
00
F8
F8
0B
F6
11
EF
F5
03
F7
0E
F1
06
F9
F3
F7
F1
FD
10
09
15
0A
FB
F9
FD
F1
FB
03
00
0D
01
F9
EC
FA
01
F2
08
F6
F2
10
FC
0B
0C
06
FB
FD
03
EE
F7
FC
F7
04
02
00
F8
02
F3
12
F4
0A
F8
F9
0E
08
F9
FD
00
FD
FD
FE
14
F0
FC
EE
11
00
03
F7
0B
09
EF
F0
09
F6
11
0C
FA
FF
0B
0C
0A
0F
0F
FB
07
FE
06
EF
F1
F7
11
F9
08
10
FE
01
08
02
FE
0C
F4
05
F9
FA
F6
EF
F2
0E
F5
10
F0
06
F6
F8
F4
F3
F9
00
0B
F1
EE
0E
0C
FC
0F
EF
FD
EF
F1
09
FC
FA
F7
F7
11
01
F9
F9
00
03
01
FF
F8
07
03
F9
F5
04
02
00
05
F1
03
FA
EE
FF
EE
0B
12
F3
03
F2
F4
F6
F1
0A
0B
11
03
F1
11
FB
0D
F6
0F
01
0F
FB
F8
03
09
04
F6
0D
12
14
11
0A
10
F2
0A
F1
0A
07
F0
09
07
04
F0
F9
0D
03
F4
0C
03
08
F7
F0
0C
00
FE
F6
12
F8
08
EF
FC
0B
13
0C
EC
09
03
FE
F6
FB
F4
F1
FF
FE
13
F3
07
FD
00
F8
F0
00
FB
FE
F7
F5
FC
11
01
01
F7
06
F9
05
13
F2
F9
F0
0D
F2
F6
F1
FF
08
F4
EB
0C
12
03
F8
0C
F2
F0
FD
FB
FC
FF
F5
FD
F2
F0
F2
FF
F5
0C
F3
03
0E
F4
0B
0C
09
06
03
0F
FF
04
0B
10
03
EE
0A
FC
01
F0
F7
FF
0B
EF
0C
FA
03
EF
08
0E
05
FF
12
09
F9
03
02
09
F3
04
F1
07
06
FD
F5
F5
00
0E
FF
0E
04
F6
F9
0B
04
F2
07
ED
F2
0B
F4
F5
F4
0F
FC
02
09
15
FE
03
F3
F4
F5
11
14
0E
08
06
12
0C
F7
0D
F6
10
F0
FC
09
F5
03
FD
FB
0E
EE
F8
06
F9
F6
0A
FD
EE
FA
FD
0D
0D
07
12
EF
FC
0F
00
FD
07
F6
EF
F3
06
10
FA
EE
13
09
0E
F5
10
F9
09
09
15
06
F7
F3
F4
F5
08
F1
11
0E
09
FD
02
11
01
F5
EF
0F
F4
0E
05
FE
0C
03
FE
0F
05
11
0B
F9
07
0F
01
EB
F4
0E
10
0D
F0
01
EF
F8
0C
0B
00
F6
05
0B
F9
08
F0
10
FE
F5
EE
EE
EC
F3
EB
05
0D
F7
F9
0A
F1
0B
01
F1
09
01
02
04
FF
09
01
0E
0F
04
F1
FF
0F
0B
0D
03
0F
02
EC
F3
F2
06
00
11
0F
EF
F1
F4
01
14
FF
FD
0F
F0
F7
03
EE
0D
F2
F3
FF
00
FF
F4
F9
03
0C
0A
FC
05
04
F9
F8
17
12
10
F9
0C
0A
FA
0C
07
FE
05
FC
02
0F
03
00
FC
06
02
FA
02
ED
13
0E
0A
F6
F7
EA
13
02
F8
06
01
0C
09
FF
F3
EE
08
F2
FF
F3
0B
EC
04
08
03
0B
F1
FD
F4
02
13
F1
FF
F7
00
0C
EB
FE
F9
02
04
EC
03
F4
0E
F3
FC
F1
0B
04
F4
EB
11
0A
10
04
07
EE
00
FC
F3
FC
F8
FD
05
F0
0C
10
FE
F2
05
02
01
F8
FD
06
EF
F6
F8
04
EF
FE
08
F2
FD
F1
04
F5
02
0D
07
0D
0E
EA
01
F2
05
F2
0C
FB
F9
F9
07
F2
F7
03
17
0E
02
F3
00
FC
EE
09
02
F6
12
0B
FB
ED
0B
00
F1
08
EF
EE
06
F9
FC
F4
0B
0A
F3
EF
F3
07
FA
12
EF
10
09
F4
FC
EC
10
00
FE
06
0C
0B
0B
FB
03
F4
F4
0E
F7
0C
FF
F5
0C
06
F4
EC
FF
14
F0
EE
F9
EF
FE
F0
0D
02
F9
FC
F4
F6
F0
01
F5
03
F3
10
F7
FF
0D
EE
03
F0
FA
00
F3
0F
07
01
FC
EF
F2
06
0C
F7
08
02
12
F8
0B
00
10
F4
EF
EE
F3
12
F1
FB
F6
F9
F1
00
FC
EE
0B
FA
F6
01
0A
03
0E
FA
10
00
0D
F6
F5
F7
0C
F9
EF
0D
14
04
EC
06
EF
05
F3
FE
0C
FE
00
FC
F8
12
01
FE
13
FF
F0
FC
EF
06
F6
05
0B
F2
F5
FA
07
0B
F7
FE
08
EF
03
10
FF
0C
0F
F6
11
02
F6
12
F3
0D
F3
16
F6
00
0C
0C
03
16
0B
EF
0F
EE
F4
05
05
0E
16
02
11
F7
07
01
F5
0F
05
0B
08
FE
F3
F8
FF
F9
10
00
0F
0C
F1
10
F0
03
F1
F1
F2
0C
03
F7
0B
03
06
F4
F0
FA
F7
FF
10
16
FB
16
0D
08
00
02
09
F6
10
02
14
02
08
FD
EE
FC
07
14
07
F9
F5
FE
FA
0F
05
10
FE
19
F8
10
F8
07
F2
F7
05
F2
01
10
05
0D
F8
00
FF
F1
08
F6
0C
09
0D
F0
11
F8
F1
03
0B
F9
FD
09
01
FB
F1
FD
EF
F9
E9
F6
FC
0B
06
02
FA
EE
10
F9
10
03
05
FC
F5
0D
08
06
0C
F7
F8
F9
12
0F
ED
EE
FB
12
09
04
F0
0F
FA
E8
EE
0A
F9
08
0E
F3
FC
12
FB
FE
10
02
06
0B
03
09
06
EF
01
F0
EF
0C
10
FD
EF
F1
FE
F1
ED
06
F2
FE
F1
0E
F7
0D
09
F0
13
EF
08
0A
FE
F7
03
F4
0B
FF
0B
F6
11
07
F1
09
F8
F9
13
03
11
F6
F9
F2
0C
0F
0D
13
09
EE
04
0D
F7
00
F2
03
FB
03
FA
F1
F7
04
04
F6
F9
F5
0F
08
F2
F2
10
12
FF
F7
F7
09
0C
09
03
F1
00
EC
FA
09
05
02
03
FD
0A
F4
05
FC
14
0E
F0
0D
FE
F2
04
F9
02
11
F8
04
08
F1
07
F7
12
F1
10
0F
0A
11
07
0A
F5
FF
01
11
0F
FA
04
FA
02
F9
FB
FE
FA
02
F2
FD
06
10
F7
FD
0F
FB
EE
12
0D
F6
F3
04
F3
F4
EF
F3
05
08
0F
0A
F0
F2
09
F1
00
09
0E
04
F4
FE
00
0B
F7
FA
09
0B
F1
F1
02
04
07
13
F0
F2
0E
0C
03
07
EF
FA
EF
07
14
FA
07
EA
F2
F0
F6
F2
0B
09
08
F6
02
0E
0E
F6
FA
0A
F5
0E
EA
00
06
F8
F2
05
F2
F4
01
F0
01
04
F6
13
FD
11
0B
FD
F8
FA
FE
F1
02
0C
05
EF
F3
F4
06
01
01
07
F7
13
F8
F7
F5
F1
0C
F9
13
01
01
F5
01
FB
04
F1
EA
08
12
12
FC
07
10
EE
13
F0
06
10
05
02
FC
02
FF
0F
09
FC
15
F5
01
F3
0A
0E
F1
09
05
FC
FA
02
FC
F6
0E
F6
F1
07
F6
F1
F7
F1
FA
06
F8
11
0C
F3
FD
09
FB
0A
02
13
14
09
FE
05
F9
F0
12
12
03
06
00
FE
0B
F4
EF
F4
04
0B
0C
0E
FA
0A
FC
04
10
08
06
0C
F8
EF
F9
FA
0E
F3
0D
F0
F7
03
04
11
F9
FE
FA
08
0C
F5
F0
0F
0D
F0
F5
FA
07
F0
FA
FE
13
06
0B
12
02
05
0E
06
0E
F9
EC
F6
FA
00
F1
07
F8
F6
0D
F0
04
F3
08
EE
14
09
F4
07
F7
02
07
F0
0F
06
F1
0C
04
0A
FA
FF
EC
F8
11
FE
F2
F1
13
0E
FB
06
F6
12
10
01
15
0B
09
05
F8
F2
15
05
0E
EE
04
F5
0E
ED
FD
F6
07
EF
F7
0E
00
10
0F
F7
F5
F6
F0
02
FA
10
0A
ED
F8
F8
FE
12
F8
03
EF
FA
F4
12
FE
F7
F8
0E
00
FA
FD
F2
FB
12
F1
0F
FC
0C
0C
0F
10
F6
F0
10
08
FE
F4
F3
EB
09
FE
0E
F4
0E
02
05
04
ED
10
07
F5
06
EF
F3
ED
F7
09
02
ED
F1
F5
EE
F5
EF
0E
02
FA
0A
15
FA
05
F9
08
F4
FD
F6
11
F6
F0
15
FF
14
03
0D
0A
05
FE
14
E9
04
05
00
F7
0D
EE
FE
09
11
F3
F9
06
07
09
0F
06
FC
F4
F6
03
F7
12
0D
F0
0E
07
03
07
FD
FC
08
F5
03
ED
FF
F4
F7
05
0D
0D
10
11
01
FA
0A
F9
FA
03
08
F0
F2
F6
0C
FA
14
FE
ED
FE
FC
F4
03
0B
F1
08
F3
14
09
06
F1
09
0F
FA
FE
F1
0A
0C
0C
00
FD
02
02
FF
FA
13
F3
11
09
10
0F
06
04
10
08
F2
EC
09
FD
F0
08
05
F8
09
0E
10
02
0D
11
08
02
04
F4
FF
16
13
06
F9
EB
0B
0D
FA
FA
0B
F6
EE
0A
EF
04
F7
10
EF
F5
12
F8
0C
0E
FD
0C
0E
FF
FC
EF
FB
EE
F9
11
09
EE
03
0D
F3
FA
FC
0C
08
FD
0C
13
F9
10
FD
F0
FC
EE
F0
0D
F5
FA
F5
F3
0F
FA
EF
F9
F4
10
FC
F0
F8
F8
07
FE
F8
07
FD
0D
0F
F9
FF
FB
04
F3
EC
FF
01
FD
FB
10
0C
F1
06
04
06
F4
09
F0
F7
09
FD
00
F1
14
F7
01
F8
0A
F8
0D
00
EF
FC
FB
F5
08
EF
04
07
F9
04
01
0C
0F
0B
F4
09
05
F3
F5
F9
0D
F3
01
F1
F8
F6
FC
07
12
FC
04
F2
F5
F6
12
16
0C
F9
0E
F5
03
F5
07
0D
FD
0B
F4
F0
FE
03
F8
F3
FB
0B
0C
FB
F5
F0
06
12
FC
05
FF
04
F4
F4
03
FA
14
F2
FF
F9
02
FE
02
13
0C
F9
EB
F5
F4
07
FA
EF
FC
07
F4
FF
FB
13
FF
12
02
0F
00
F4
F5
15
04
0E
0A
04
F3
03
09
0E
0B
07
06
05
0B
0D
0A
FD
FA
0F
EB
00
12
FA
0A
10
FD
11
0B
FB
0D
10
0C
13
0F
F1
16
ED
03
0E
F7
F9
09
F5
00
04
04
08
FE
03
0A
EC
F4
F6
08
F6
F5
F1
0A
F0
F0
00
EF
0A
0D
07
F0
09
FD
ED
FF
ED
FE
F8
F9
10
05
FF
F3
01
0A
F1
0C
F4
08
01
F8
F2
06
FD
0E
EF
FA
F5
00
F7
03
0F
FA
04
04
F6
F9
FD
F6
0D
0E
0A
F0
03
FC
FE
04
F3
F9
0A
14
FF
F1
F5
EB
F7
F3
F6
01
FE
05
F8
0A
F1
FD
14
F0
08
F5
09
FC
F9
00
09
F3
00
0D
03
F7
F2
0D
10
FA
FE
F5
F8
03
FA
EF
0C
13
07
F0
12
05
F1
02
12
FF
EF
12
08
F9
08
08
FA
F9
FA
F7
15
ED
03
0E
08
02
00
F5
FA
F4
F1
FA
F4
F7
12
09
EF
FB
FA
08
10
F6
FD
FE
EF
02
06
08
EF
F2
F2
0B
00
FD
07
FB
F3
FC
01
EE
06
EC
0A
EF
EE
ED
0B
F9
0F
F3
FB
F7
09
0D
F2
06
EF
F0
F4
F3
FF
0F
FD
FF
FF
F0
09
0C
F0
F6
F0
05
FD
10
00
FA
F3
0F
FF
F0
05
F0
05
F1
F4
03
0E
02
F8
F1
ED
0F
FB
0D
FC
F4
EF
0A
13
FD
0F
F4
06
F0
13
0F
02
FF
14
F0
F8
FE
FE
08
11
01
F9
0D
F6
03
11
F4
FB
01
F7
FE
04
FF
10
FF
F0
04
F3
FA
12
00
0C
FD
08
11
FD
0D
F8
13
04
0C
01
04
FF
11
F9
F3
F6
02
0B
03
06
FB
06
13
F3
FF
FF
0A
0B
02
F8
FF
F1
02
FF
00
0A
ED
FC
F7
F0
00
F7
FB
FB
00
F3
F3
FE
0B
0F
EC
0D
F7
FC
0E
04
09
00
FB
F6
EF
F8
F4
08
03
04
F4
FA
EE
14
06
03
F9
FF
00
FE
10
FD
F6
0C
05
02
03
0D
04
F8
0E
FD
0D
08
0B
09
FC
F2
F9
FB
EC
FF
07
FB
FA
15
FF
F7
F7
0A
F0
FE
F7
0B
10
07
14
FE
02
11
EF
F4
FC
FF
F0
FB
F2
00
14
0E
03
F4
04
07
02
FF
FF
FA
0C
EB
0B
FC
F8
11
F4
F1
0D
FF
01
F1
0A
0A
F8
02
0C
14
ED
F1
10
00
0D
06
0E
F7
FB
01
06
0D
0F
0C
04
F0
FC
FE
F4
F2
0B
F9
10
EA
EE
F6
FD
F5
F9
03
F8
02
FC
07
F1
03
01
FF
F1
F1
F6
F5
FF
F1
F5
0A
FF
EE
03
FF
01
F7
02
0A
0D
F6
F4
F7
FA
0D
09
F8
F7
F0
FE
01
F2
F0
FC
11
FB
08
F6
F1
F4
0E
F2
F8
F1
04
03
F3
03
EA
06
0E
0C
10
02
FA
0E
F9
F0
0C
F4
FC
01
F2
F1
F5
11
F0
F7
05
04
F0
F5
0B
F1
0B
F6
0D
0A
07
06
04
09
12
F7
FC
0D
FC
F4
F7
FD
F1
F8
F9
10
F5
F0
F3
0A
F6
F6
15
FB
13
EF
FC
0A
0B
10
F2
F7
FD
FD
FD
FF
0B
F6
F8
02
F3
07
ED
06
F8
0C
F9
FF
06
04
06
05
04
12
0B
12
13
F5
01
FA
FF
F5
17
F3
02
05
F3
F9
0F
00
0D
F8
05
05
07
03
00
F2
ED
F0
10
ED
01
0B
F1
F7
11
F8
09
EE
FE
02
F5
F0
F4
F6
01
EF
FC
F1
F0
01
04
F6
EF
FA
02
EF
0E
FC
0B
F1
F1
06
FF
07
0A
F0
F6
0F
F3
07
11
F7
ED
F9
EF
F4
E3
09
0C
F6
03
03
14
ED
F0
01
11
F9
08
04
15
F3
03
F7
F6
FB
FA
FD
00
F6
FD
F5
10
0B
0D
12
0C
02
10
0E
FD
FC
02
0A
05
F7
0A
0F
FE
F8
13
F5
F8
07
FC
F7
FE
0A
EE
FC
F6
0B
12
FB
FA
12
01
FC
F9
01
14
F4
0C
F7
ED
00
0B
02
F6
EF
FE
0A
F9
F5
09
FB
0C
09
F9
00
EF
FF
04
FC
FB
F0
F6
0F
F9
10
07
00
F8
14
0C
F9
08
08
FF
03
F9
F6
0F
FA
00
13
F9
12
18
F1
11
F5
F4
FE
03
EE
15
06
10
F4
EF
09
F4
E9
14
0A
F9
F7
FE
01
05
FC
FD
F3
F5
0E
F4
09
05
0F
F6
08
12
09
0E
F7
F0
05
06
01
07
0D
FD
F5
F3
F5
FD
ED
F6
FC
EF
08
08
FA
09
13
03
0B
12
06
F1
F4
0C
FF
07
F1
F8
FF
11
15
F9
0B
02
07
F6
09
0F
12
F5
F4
10
FB
F4
FB
ED
02
08
12
FF
04
FA
FA
0A
F5
F8
F6
0F
0A
F5
F8
F4
0C
F6
F7
FC
06
0F
FF
F2
F4
0E
F9
0E
F7
F4
11
F4
F2
09
F6
03
FA
0E
F4
11
F1
0B
0E
F6
0E
F8
05
F3
F7
FB
02
F9
07
EE
14
F4
F3
06
F7
FF
FB
F8
EC
07
F8
EE
FF
F6
F7
F9
EF
01
02
F6
04
06
EF
01
F9
0B
ED
FC
FC
FA
F0
FE
01
03
06
02
0C
0A
02
F6
F6
EB
08
00
10
EF
00
F2
07
08
01
0D
02
F2
13
0D
0D
03
02
0C
F2
0E
03
08
FA
FF
12
0C
F5
EB
16
07
04
0E
10
0F
F9
FF
F5
EE
FB
01
FB
FD
12
0F
07
13
13
EE
F8
15
FE
0B
FF
0A
F5
F0
F1
01
12
0F
ED
06
F0
F5
F2
FD
F5
FE
03
EC
0E
10
FF
01
01
11
FA
12
F0
11
0C
F7
F0
13
F8
F8
F2
F4
EC
05
0F
11
05
FE
F2
F6
FC
FD
05
F2
FA
FE
F0
02
0F
F9
FA
EE
03
F8
10
0B
F2
05
EC
07
0B
F3
ED
0F
03
00
FD
FB
05
FB
01
0D
01
FD
FF
FE
F5
EE
F6
01
10
0D
00
F9
10
FC
0C
09
F5
0D
ED
FC
F1
0F
F5
FB
FB
FB
03
F8
0B
13
EB
F1
05
0A
F0
12
F1
FB
15
ED
0A
04
EC
FC
F4
F3
FD
F0
FE
FB
07
F6
F0
0B
03
05
FB
14
0C
F2
FA
FF
F7
01
FB
EE
12
09
ED
F8
01
F4
05
F9
FD
FC
FC
EA
06
11
04
F1
0A
FB
00
F1
EE
13
F2
EF
04
EF
10
0B
08
EC
F8
00
0C
EE
FC
0E
0E
13
04
08
F8
EF
02
09
EF
00
10
06
F6
10
12
04
0B
01
06
13
FE
06
F6
F1
09
10
12
14
ED
14
F2
EE
F1
02
FE
0A
12
F5
FE
14
09
11
05
F2
06
04
F4
FD
F1
02
0E
ED
F6
08
00
14
09
0D
F9
F4
0A
F4
11
F8
F1
F2
FC
0C
F4
F4
07
00
FF
0E
0A
FC
F0
F5
FB
0E
F4
F9
01
F3
0F
12
0A
F6
F0
F3
0D
FB
EF
FA
F5
07
06
F8
F8
F1
11
F6
F5
FE
F8
09
F0
13
F9
EC
EA
12
FF
09
10
09
0D
F7
F7
0C
05
F0
F2
04
05
F4
04
13
0C
F0
0A
15
F6
0A
FE
F0
F2
F9
F0
F3
EE
F0
0C
FE
0C
EF
11
F6
13
05
01
07
ED
F2
F8
0E
02
FD
06
0D
FC
F3
F8
12
02
11
04
12
0F
FE
F1
0F
F0
06
FB
0A
F3
02
01
09
0C
06
0B
FC
F0
04
F0
F3
FA
EE
E7
05
F4
F9
07
FA
08
F7
F3
EB
F5
0A
07
FF
0E
0B
00
0C
15
FC
EC
09
FE
0A
F3
09
F3
F6
F5
0B
F5
03
07
11
FD
F0
0A
F8
01
04
09
0C
FD
12
EF
FD
13
04
0D
FD
F7
00
F4
FB
08
EF
FD
F7
F9
11
F4
02
00
F9
06
0E
10
12
04
12
F3
FD
FB
FF
00
0F
0D
0C
FE
F2
F8
0B
06
11
F8
13
01
F7
0E
15
F7
F0
07
0B
0D
F9
12
FB
FE
FD
0D
0B
0E
F0
F6
F0
F7
F6
05
0A
0F
FB
01
06
F7
07
F1
F2
07
13
07
02
04
EF
F9
EE
05
F3
02
F8
02
14
F5
F2
04
16
EB
04
0F
12
FF
EE
F4
02
00
0B
16
FF
F4
0E
10
05
10
FC
EF
0B
F2
EE
03
EB
F8
0C
F8
F7
EF
0A
14
FA
EE
0F
F1
F0
0D
07
F3
FE
11
EF
0B
10
ED
F4
EF
04
0B
F2
04
05
03
F9
07
00
11
F1
F3
0F
FC
F7
02
FB
07
04
EE
0C
F4
FA
F1
F0
10
FE
FE
04
F4
F5
05
04
00
F9
FE
F7
FE
F6
06
FF
02
0E
06
F8
F7
FE
0B
F6
F5
0C
05
0A
0A
0F
FD
01
16
F5
0B
F9
F3
F1
FC
FC
F3
F0
EE
F7
FD
F1
09
0B
EF
0E
0C
10
04
F3
13
F3
03
12
0A
ED
F2
15
FA
EE
09
0D
10
ED
EE
FD
F3
EB
13
ED
0C
0A
FF
0A
05
FB
F7
02
0B
F3
F2
0B
09
0F
0A
F9
12
FC
02
FF
10
F3
10
0E
F9
F6
12
F9
FD
03
0E
FE
EB
05
FE
F3
FE
F5
0D
FC
EB
F7
0F
F6
05
02
03
05
F6
F2
0B
0B
02
EC
FD
FB
02
01
08
0A
0F
0D
EF
12
12
0C
F5
04
EE
FB
0A
FD
08
02
16
FA
05
FD
F7
EF
0D
03
04
0C
EC
05
02
FB
F4
FA
12
0E
F0
14
0D
FE
0F
FB
F4
EE
FC
12
EC
FF
01
0F
03
05
EF
F3
FE
EE
0A
F7
0E
F0
03
FF
13
F5
FD
01
12
F8
ED
10
03
06
0D
F2
09
0D
07
0B
11
F6
04
F1
ED
F6
05
F4
F0
0C
EF
03
FE
09
08
F3
F2
12
10
F9
0D
FD
05
09
F6
12
F7
04
F7
00
F7
0E
03
F0
F2
EB
07
0B
0B
F8
FB
11
F3
0E
0D
FC
EC
0B
04
02
FB
0C
FD
04
04
03
F7
FD
F9
F3
F9
13
06
12
03
01
F4
F1
F5
EF
FD
F8
10
F6
0B
06
04
04
08
F0
07
09
02
FF
0B
0A
0D
0A
06
FA
FB
01
FD
FD
0A
F0
08
FB
0B
03
FF
FA
08
08
04
EF
ED
0D
0E
0F
13
EA
F3
F3
13
EB
F8
F9
0F
EC
0B
0D
F1
00
F1
F5
F8
00
15
07
14
0E
13
13
0B
07
FE
F1
08
07
0D
F1
F4
FE
02
EA
F8
0C
F2
F8
08
09
F7
0D
10
14
11
09
F7
12
EE
07
09
FA
0F
F9
13
EF
12
F8
12
13
F4
02
01
0F
01
FC
08
F0
F9
04
05
F7
12
F1
08
04
12
F1
FE
FC
11
F3
EE
10
00
F4
06
F3
05
F1
05
07
04
00
FD
FA
0D
04
ED
FE
FA
02
EF
00
FF
F3
0B
F4
03
0C
0B
FC
F1
01
FD
08
ED
FF
EC
0A
12
F7
06
F0
02
FB
0E
0E
EA
10
FC
FE
FA
08
11
0B
EE
06
15
10
F6
F6
F7
0B
0B
10
0E
0E
F4
FB
0F
0C
09
FC
14
10
09
F7
00
0A
F4
0A
00
EF
F6
F0
05
F9
05
0F
F1
03
03
F2
11
0F
08
F3
F1
FA
F2
03
08
0D
0E
14
05
09
F5
FA
12
F1
08
0F
08
F7
01
F1
F3
01
0F
09
02
12
FE
02
F1
EE
F4
F9
F6
F4
06
EF
01
FD
F9
02
F8
0F
FC
F2
FE
F4
04
F6
00
F6
FE
13
EF
01
FB
EF
05
0F
0C
14
EC
EC
0B
02
F8
FA
F0
01
11
03
F7
F6
EF
02
07
EE
0B
F0
0F
0C
F8
14
0A
EF
0A
F0
0A
EF
F4
0D
FD
08
F9
F7
10
14
F1
F3
10
F9
07
0C
F0
01
F6
01
FD
10
02
F9
07
0E
F1
05
12
10
06
12
F6
12
05
10
FC
0B
F5
FB
FC
11
11
F4
F3
0D
02
0C
F5
0B
08
01
10
F5
17
F1
F3
03
02
F5
FC
04
ED
FB
12
FC
01
EE
06
EC
0A
10
ED
08
06
0F
12
F5
0B
06
F3
EF
F2
F3
EE
F9
10
08
11
F8
F1
13
05
F5
03
F4
01
15
11
F4
FF
FD
0D
FD
F2
FE
F3
00
03
F1
09
F9
02
04
13
15
EE
0D
FA
0D
09
F0
06
17
04
F5
FF
F6
FB
03
11
F0
F0
FF
0C
03
0A
F7
02
14
F8
EF
F9
09
0E
00
0F
F5
17
F1
06
F5
05
FE
F0
FE
FC
03
F8
00
FE
09
F8
04
F3
07
F6
03
F2
F9
03
00
F3
0E
F5
EF
F4
17
F1
F6
F3
FB
F6
F0
F1
0E
F9
15
0F
09
05
F2
03
FC
0D
0C
FC
09
03
FF
FB
04
0E
F7
07
0E
EF
0A
F4
FF
0C
FA
FF
0A
05
00
ED
FA
00
07
F2
12
01
EE
FB
FA
EE
0E
F2
F7
FE
10
FB
0F
F0
F0
0C
0B
09
0B
FB
12
FE
F1
0F
F2
0F
F4
10
05
0F
F5
0F
0F
FA
06
09
12
04
F2
06
0B
FD
FA
F8
F4
03
09
0B
07
10
06
08
07
F2
F7
EC
08
F1
F5
04
07
10
07
0D
0D
09
F9
EF
0D
EA
F5
F9
F5
00
0F
EF
0E
FD
F0
EF
EF
0F
13
F4
F2
FB
01
FC
EA
0F
0A
F9
F1
FF
F4
01
09
F5
F9
FA
12
F7
FE
FE
F7
FB
F7
00
EE
F5
F4
F1
F7
03
F2
12
EC
02
08
00
00
FF
0C
00
0D
0E
17
05
FD
0E
EC
F7
FE
FB
EF
FA
05
08
0F
11
04
05
11
F2
F5
F4
02
EC
08
F8
FC
F4
12
FD
FE
F3
F9
EE
F3
0E
F7
03
12
FE
0B
FB
EF
00
F0
F2
05
04
02
10
F4
07
0C
0A
FD
F4
0F
0D
09
15
F6
EF
FB
0D
0B
F9
FD
F9
F4
04
00
F8
F9
F6
F4
0C
EE
FF
14
F8
03
FC
10
F7
F4
02
EB
0C
0F
00
EC
FD
03
FA
F7
0C
F1
ED
02
F1
FE
13
FA
03
FD
F4
0F
0A
02
FB
F7
04
FD
F6
0D
F1
F3
01
02
05
FB
FE
F2
EF
F7
FC
F3
EB
10
FE
EF
FB
F2
0B
F2
F8
02
FE
14
06
FC
10
FA
F8
12
0F
FD
01
ED
EC
12
F5
FF
FC
09
F4
F1
00
03
10
FA
F9
02
F5
06
06
06
0B
14
F7
FF
00
05
07
0C
05
00
0D
F4
12
F4
F4
0E
0B
05
F3
FF
09
F9
14
0B
01
0C
ED
04
FC
12
10
05
03
F8
EE
F1
01
13
14
F8
F4
F9
14
05
EF
FB
0A
03
FE
14
00
FC
00
0F
08
EF
07
F4
F0
06
03
0D
04
F9
02
11
05
12
FC
12
09
12
11
10
10
06
FA
0D
F9
0A
FA
F7
F0
FD
04
F4
ED
EE
08
07
FF
F3
F5
10
09
11
0C
FA
11
FD
0B
06
FE
0F
F5
F4
FB
04
15
F3
0C
0F
F0
F5
FF
EE
F2
11
01
FB
04
0A
16
0E
FA
F6
F3
F0
F6
0F
F6
0E
FB
11
0F
03
15
F0
FF
11
10
0B
FE
EB
0B
F7
EB
F7
05
12
FF
ED
F9
ED
01
06
10
0C
0D
FC
06
F0
07
06
F4
0C
01
0E
0F
F0
01
12
F0
F0
F0
F1
F7
F2
0B
EF
0A
F4
F1
F6
FD
EE
FA
F3
10
11
04
00
07
FF
F0
0F
FF
06
00
F4
09
FA
0C
FA
F1
ED
F3
08
13
EF
EF
ED
F6
12
FD
F4
01
F0
F0
09
09
F0
00
0C
FC
F7
04
10
0C
07
00
F9
FD
FD
F1
13
0E
13
10
0B
F4
F2
F9
F2
EF
F1
0E
F6
01
04
00
F8
F9
0D
02
04
F4
EE
F1
F3
FF
FE
08
06
FE
12
FB
0F
F6
10
0E
EC
03
EF
13
10
10
0A
F6
04
12
03
07
03
EF
EE
EF
10
05
11
01
FE
0C
F9
04
11
F9
F2
F3
0A
F1
06
EF
09
0A
08
FB
EE
0D
F4
EF
12
FF
05
F9
03
08
14
EE
F6
09
ED
00
F8
FA
05
F8
0C
14
FA
01
FF
F8
04
04
09
ED
EF
07
03
F6
04
F0
F1
FE
F5
0C
06
13
0E
F0
EE
0B
00
F0
F9
F5
03
F9
05
00
10
08
05
EE
F0
09
12
F8
13
02
F8
FB
00
13
09
EC
0C
07
EC
0A
FE
F4
FA
03
0B
0C
0A
FB
FD
FB
0A
12
09
F8
10
0B
0D
09
02
F2
10
F7
01
0F
0C
10
FD
F4
09
F6
F3
00
F7
02
FF
07
F3
10
FC
05
10
FC
0D
0E
F7
FE
0D
FB
F1
13
12
12
F1
F5
05
00
0A
F9
FA
00
00
12
F0
EE
FC
F0
F2
ED
FB
FF
FD
00
FD
09
F5
F2
F2
F9
08
04
F2
0F
0A
EB
05
FD
01
FB
14
FF
EF
08
03
12
F2
16
0E
05
EF
F4
01
0C
F3
14
F0
ED
EE
07
03
08
01
F9
10
FA
04
FD
F9
F6
09
03
F9
0F
EF
07
05
13
F8
F8
00
00
05
0F
F2
FE
0E
F5
F2
FB
04
11
F5
FB
FF
00
F8
F0
F6
07
F3
F4
FA
07
12
13
07
EE
02
F6
F0
0F
06
F1
E9
F7
08
F0
EE
02
F9
07
FE
09
FF
E9
F5
0F
04
14
14
F5
FF
FB
0B
F8
11
FB
FA
06
EE
09
07
07
06
0C
0E
11
06
14
F5
10
01
06
F4
0F
0B
07
0B
ED
15
08
0E
EF
ED
EE
0D
F8
02
11
F9
12
F8
F3
0E
FE
F3
EF
0B
F8
03
09
F4
FA
11
02
02
EE
FE
07
F3
09
02
11
00
02
F2
01
07
F0
13
F3
EE
05
0C
08
0C
FC
0D
FE
0B
F8
00
F1
06
F8
F0
F6
F8
FC
0D
F7
01
15
FA
F3
EC
0A
05
13
F2
F0
F9
04
FD
F5
FD
10
F3
06
12
04
06
F8
0C
01
13
04
ED
EE
FD
ED
0B
0E
0F
0F
0D
F1
FA
14
F5
F8
09
FB
04
F6
03
F5
11
10
FA
07
FD
FF
0D
10
F0
06
EF
07
EF
07
10
FC
F6
FA
EC
F2
F4
FC
0C
05
ED
0E
07
FE
05
0C
F6
FF
EA
F0
03
FC
05
0A
05
00
0D
F3
F1
0E
0B
EC
10
0B
12
00
0C
13
04
F5
FF
05
0A
04
0B
0D
03
16
0A
0B
FB
15
01
05
F0
12
F7
FE
06
0B
F9
0A
02
F5
04
F5
0C
09
10
FD
07
0A
00
FC
F8
EE
0F
02
06
00
F7
0A
F3
01
F9
F3
0A
04
16
10
F3
F6
13
0C
0E
08
02
EB
12
EF
0D
01
F6
09
EC
06
00
0C
06
EC
F2
F5
04
FD
12
EE
01
03
F6
F2
11
FD
F5
06
09
F6
FD
03
F7
04
F6
FB
EA
02
F2
0B
05
11
09
F0
F0
07
10
F1
11
13
07
0E
0B
0B
FD
11
08
0C
00
0D
09
0D
02
FD
02
13
F0
F8
0E
09
11
02
16
03
EF
0C
0E
F6
FB
14
F7
EF
06
0E
05
14
EF
F2
0B
0A
11
FC
F8
05
0B
F8
FB
F7
00
F9
FD
0C
FB
F1
00
F5
13
F8
F1
FE
F6
F5
FE
F4
0F
0F
01
EF
F4
ED
11
03
06
F9
0C
10
08
FD
FC
FA
FB
F9
FD
F4
F9
03
EF
F3
0A
F0
FE
F8
F1
FF
00
0A
F2
03
10
03
01
F3
04
03
FA
0E
03
03
15
08
10
F4
FA
EF
0A
F0
F2
F3
F3
F8
FD
FE
01
02
0B
01
F1
00
0F
F1
F7
06
08
0D
11
01
F2
FA
08
F5
EF
F4
03
0C
02
F6
FC
F4
EE
F2
05
03
00
EE
0F
0A
0D
05
05
EA
0E
F1
EE
0F
FF
EC
00
EC
F1
06
F1
FE
0D
FA
10
EE
11
0F
09
0F
FA
F4
0A
0D
FB
F2
F9
F3
ED
F7
F7
EE
F4
F1
02
03
FD
08
08
FF
05
F6
03
FD
F0
08
02
00
FF
ED
01
10
07
FA
0B
05
06
EE
00
04
0A
05
14
01
12
FA
04
0D
11
FB
14
04
F2
02
EF
F6
11
FF
F4
FA
F4
0C
FD
09
06
06
0B
FB
FA
F2
F8
0E
0E
F1
03
00
10
F3
16
F2
EF
FD
F5
F1
00
F5
04
FE
F9
11
13
02
15
00
09
F8
0D
00
03
F5
F0
EF
0D
12
0B
F5
01
EF
F5
E5
F1
04
0C
FC
F8
F8
0D
FF
04
F5
13
15
FC
FD
0D
0C
F4
04
FE
EC
03
0D
08
16
F4
01
EE
FB
FD
03
0C
08
03
12
EC
F8
09
F1
05
FA
00
01
F4
16
F6
0D
FF
F8
F1
16
FC
0A
13
F2
EE
13
F7
05
F7
FD
13
F8
F9
0F
FC
06
FD
10
10
F5
F6
01
01
0D
FB
13
13
12
14
01
0B
FD
04
06
F0
FE
0D
06
0A
02
0E
FF
07
F4
F0
EE
14
EE
F6
0C
F8
08
0D
14
F2
EF
F0
FD
0E
01
F1
FB
06
FC
FB
F0
02
00
05
0D
0F
0C
03
F7
0E
F4
F2
FD
FF
06
11
10
FE
F1
0C
F5
03
F5
F1
F4
EB
01
07
09
FF
11
F6
F9
13
FF
09
FE
0B
07
F1
F8
04
04
F0
07
F7
03
F4
09
F6
07
F6
00
12
0A
FB
FD
04
11
0B
FF
10
07
04
00
0A
F7
03
01
08
F1
F1
FA
03
ED
F6
0B
F3
00
0A
01
EF
12
F7
EC
FC
02
F5
F0
00
10
11
F8
01
08
02
13
08
09
FD
02
02
FA
FD
EF
02
15
15
F5
0A
FB
F7
F1
F3
EC
ED
F2
12
0F
F0
02
FD
06
F5
0B
FE
0E
00
F7
08
0B
12
0E
F8
FD
FC
13
FA
FD
F7
EB
FC
FD
FB
06
FC
0D
0D
F5
06
06
02
EE
FC
F0
F6
09
10
F9
0E
10
F8
FA
F2
F7
FD
F0
F5
0C
F5
FA
01
F1
F9
FA
0A
07
0D
FB
0A
11
0C
10
FC
09
08
06
11
0D
F5
04
F5
FA
F1
08
F4
0C
05
10
04
05
12
02
00
EF
07
F2
EC
F9
EF
06
0C
F5
06
FB
03
F7
12
02
11
09
FB
10
0C
08
EE
0F
FE
01
F7
10
F7
09
10
FB
F9
F5
F4
11
F8
10
FB
03
F3
12
0F
ED
0D
F9
0F
F0
F0
0F
09
0C
FA
02
F8
04
01
06
07
F5
09
F7
03
F9
0E
0C
F1
FF
FA
0B
15
FE
F3
F2
0D
05
00
13
0F
F6
F8
03
0B
03
EC
F3
09
F7
ED
FC
F3
06
09
FD
F3
F5
06
02
FE
0E
02
10
FD
0F
F7
F6
FA
08
0C
06
13
01
05
0A
14
04
0A
0B
04
F8
FE
02
08
11
FB
13
03
0B
10
F9
08
F9
EE
F0
FB
F0
02
F0
F7
FE
13
01
08
00
EE
00
F8
FC
05
FC
FD
03
15
F9
00
FF
EC
F4
04
09
F5
13
04
EF
F3
ED
05
EC
EF
F3
F1
04
10
0F
F6
F2
FF
0F
14
F7
FF
EE
F2
04
FA
0B
11
F9
FF
F8
06
F6
05
F6
11
F4
F9
F1
10
07
F1
07
0C
F0
ED
F9
05
FB
07
F1
06
00
FC
0C
13
08
06
05
12
14
09
12
FC
FF
0C
07
FD
F4
F1
02
F2
F3
F0
06
FD
0F
EE
FF
01
F5
0C
F0
ED
12
FF
FE
03
01
05
05
10
06
0C
02
12
07
F0
14
00
01
F4
0B
0F
09
02
F8
F4
FE
0A
09
F9
08
FC
08
F9
F5
F9
F4
04
FA
14
06
FE
02
FB
FE
EF
03
07
0D
0A
FA
0F
0F
07
0F
FF
F3
00
01
FD
FC
FA
EF
05
10
FC
0F
05
05
F4
F4
F3
FA
EF
FA
0C
F5
F2
11
F7
F5
ED
11
12
F1
F1
EF
ED
F6
F1
F3
F8
F1
FC
12
02
FB
0D
F5
F4
02
0B
07
0F
F6
08
0F
07
11
06
0A
F8
FD
F1
03
FA
F7
10
0B
F2
04
09
EE
12
F7
0B
02
EE
02
FD
F0
EA
FC
0B
FB
07
13
ED
F0
FB
04
F5
FB
F8
08
00
02
F1
11
FC
0B
EF
F3
00
EE
F9
F6
11
01
F4
F8
08
F8
FE
0E
FB
0A
09
00
06
0F
FC
F4
00
F9
09
0A
FC
FF
02
04
ED
F1
11
F9
FA
12
06
06
F7
0C
13
0D
F6
09
01
ED
F4
03
01
0A
EE
11
FE
FD
F7
03
F6
11
F8
FC
F7
FE
ED
0D
EE
FE
11
05
0E
FD
04
FF
13
FB
F8
FB
0B
02
0F
0D
10
F7
0E
FF
0E
FA
F8
F8
11
FC
12
F9
F9
F5
08
F9
0B
07
05
13
F7
EF
06
01
04
04
0D
F8
14
EE
F3
F9
FE
05
04
0E
F1
F8
0C
F8
0D
F4
04
0F
FD
FB
05
EF
F8
FB
05
05
EE
08
F9
04
05
09
0F
10
06
F7
01
03
09
F5
ED
F8
01
F9
0D
03
0F
0C
06
11
F3
F3
00
0A
F5
F8
0A
F5
F5
09
03
EE
06
06
F0
0F
FE
0E
FE
FA
FC
0C
F1
F2
FF
FF
F3
FF
FF
00
F1
01
0F
06
ED
F8
FD
F6
12
03
11
0F
10
F3
11
0B
13
F3
F1
FF
EC
F3
FA
08
F5
01
10
0B
0E
EE
FA
F3
09
F4
04
EF
F2
14
04
FE
F8
FA
F7
F2
F6
01
08
F7
F3
F5
F5
FF
0F
0B
F6
10
F3
F0
F7
FB
04
02
F5
EF
0B
F1
0E
EF
0F
FF
FB
F0
EE
0A
EE
0B
FD
FD
07
ED
07
F5
F0
F8
ED
FF
FB
F0
FC
F5
F0
05
05
ED
0C
FB
F3
03
0C
F6
0B
F5
0A
0F
FC
10
FE
0C
FB
EF
10
12
12
03
F4
02
EC
08
FF
F0
0D
08
F6
FD
02
F0
FB
07
10
F6
F6
FB
10
F4
F8
12
F6
ED
FC
FE
0A
FD
03
04
03
F7
F8
02
F5
F4
F3
0C
01
F8
01
EE
F9
0C
0B
EC
EC
0E
F7
FB
F4
F0
11
00
11
FE
F3
F0
06
0D
F9
FC
FE
F8
07
FF
F6
F7
10
F9
EC
EE
0C
F0
F1
FB
F8
0A
10
F1
FD
09
F5
FF
F6
FF
05
10
EE
FF
FB
EF
F3
FB
04
00
11
11
13
03
F0
FE
05
F3
0E
10
0A
10
0A
FE
EC
FD
11
EE
0D
EE
05
F5
F0
FC
F9
EE
EE
F3
EE
02
03
09
EF
0C
EF
F7
05
F8
FF
0A
FC
ED
F1
F2
11
FD
F8
09
F8
03
EF
01
10
11
13
0B
05
F3
0B
EE
04
06
F6
13
EE
03
FC
0B
FF
12
FE
F3
F4
EF
FE
F5
02
10
06
00
FE
0A
F3
F5
FC
06
F8
F5
F4
11
FF
F2
FB
F4
EF
06
10
0B
0E
01
F5
07
F9
FF
F3
0F
FD
00
0A
F8
F4
F5
0D
F7
04
02
FA
00
FE
FE
08
05
FF
0D
F1
0A
F1
13
FF
F0
0F
01
F2
F2
F5
F5
08
F1
FC
0A
F9
06
14
11
F3
F3
F7
F7
0E
0C
F1
0A
F7
0A
10
06
FC
0C
0E
F0
18
07
01
F5
F4
FE
FB
02
04
05
10
10
04
F8
F2
F9
FD
FC
FC
FD
0C
02
04
13
ED
F4
02
06
0A
EC
F3
F5
05
05
F0
0E
08
F2
05
0C
EC
00
EF
03
F7
F2
F9
F3
F2
F1
F5
02
11
ED
F5
0E
F1
FE
06
F2
05
F2
01
EE
EC
07
F5
05
0B
F6
0A
02
F4
01
FD
EF
08
01
0D
01
E7
F1
F7
EE
13
07
F0
04
EB
F4
0C
EF
0A
0D
FF
F0
03
FE
F7
13
07
11
15
FA
F2
0B
F0
EA
F3
08
FC
EE
FF
0E
EF
04
00
FE
01
EC
F6
FB
FA
FE
FE
04
0A
FD
14
10
01
00
FA
06
F5
0E
04
F1
FC
03
04
04
0B
FA
F6
0E
F6
F9
FD
F5
00
EE
03
06
F1
FF
F7
FF
0E
14
FE
F3
F6
07
0D
F7
06
15
F5
09
F2
FA
0D
00
F4
F4
05
0B
0E
08
F5
F5
13
FB
F4
08
FC
F4
EE
00
06
0F
E9
0B
11
04
00
F3
EC
02
FE
12
F3
F3
FC
F2
0C
EB
FF
0D
0D
FF
0F
13
0A
0C
EF
FA
13
F9
12
07
07
08
0B
10
F0
F1
15
01
03
0A
06
FF
F4
06
F5
05
F6
03
F0
F3
F6
0F
10
F1
08
F8
13
F5
F0
00
F0
F7
03
00
EF
01
06
06
EE
12
FA
06
03
F3
ED
01
08
F4
0D
05
07
FC
FE
F6
0E
F0
09
01
03
FF
FF
01
FD
F5
ED
F4
00
0D
12
0C
F0
02
F4
00
11
FB
F6
FD
EF
0D
0F
0C
11
FA
0E
F2
0F
0F
0F
12
13
0A
F6
0B
01
F4
F3
0A
01
F3
0E
0D
F0
14
F0
07
FC
0C
06
05
FE
EF
09
13
0E
FB
EF
05
F8
F3
00
05
04
FB
F6
FC
05
06
F2
0E
01
F0
03
F3
F2
00
05
07
EC
06
01
FD
00
0C
0B
08
10
EE
FF
FE
0E
ED
0A
EE
F0
FF
09
01
FF
F2
01
03
F5
02
F1
04
F2
F9
FC
00
ED
04
13
FF
0E
EC
10
ED
FF
03
07
08
04
FD
F7
0B
08
10
F2
FD
0B
FA
0F
FF
F2
0C
09
0F
F0
EE
F1
FE
0F
0C
F5
EC
F9
03
FB
01
10
02
0F
F1
01
F3
F3
FA
F7
F0
01
06
FD
0F
0F
03
12
FD
F6
F8
FD
0E
08
13
FD
05
04
F6
F9
02
F1
0C
01
ED
09
F9
14
EF
F9
02
04
F3
0B
F3
F6
F8
F2
07
0C
00
0F
0F
08
05
EE
F3
F1
FB
0A
FE
F0
FA
0B
F4
10
F4
07
F3
F2
EF
0D
0B
02
F5
F0
FD
F4
02
FE
FB
0F
FD
04
06
F9
0F
F7
ED
08
FB
F2
FB
EC
0A
07
07
F5
FC
FD
00
0D
10
F1
06
01
03
06
EE
F7
FF
0F
F0
03
F4
FC
0C
FA
0C
10
01
F3
F8
11
F1
FD
F2
F6
F1
0F
F0
04
0D
0C
F6
FE
F2
05
03
ED
06
F5
0C
EE
F2
F6
F6
02
F1
02
F5
EE
F0
FE
0B
F9
0C
01
11
06
EB
F2
0F
04
0A
06
F2
0E
F8
01
F3
09
F7
04
0A
FE
F8
F0
12
10
0C
FF
ED
03
FB
0A
12
F0
FD
F3
0E
FD
01
F2
01
FF
F7
FD
07
FA
FE
F6
0B
03
06
F8
04
0C
14
03
08
FF
F2
EE
02
03
F6
FC
FF
EE
FF
08
02
FC
F7
F2
F4
03
04
F0
FA
FF
F2
0B
F9
F6
FF
FC
10
F8
01
04
F4
0D
F4
02
F2
07
F9
13
11
01
08
07
13
F3
EC
F1
08
F6
00
EC
03
0E
FC
06
04
FA
F6
09
12
FD
F0
F6
0B
01
0B
F7
FD
FE
F8
02
F6
04
0D
10
F8
00
F8
02
F8
0C
F9
11
0D
F6
03
08
F6
F3
00
0C
F1
0C
04
FB
10
FC
10
0A
02
10
FE
10
0F
F3
09
FB
FA
11
0B
EE
05
F3
F6
F5
F5
F0
0D
05
F4
09
12
10
14
10
09
03
0F
EB
04
F7
0A
FC
03
0F
01
05
00
10
FF
0B
F8
F3
F0
EF
F1
F3
05
0F
FB
F0
FD
0C
F0
04
11
F6
12
EE
FB
F0
0D
12
EF
F9
FD
F0
0E
02
0A
0C
0A
07
FC
10
0C
08
F3
02
F0
F5
09
0D
0C
F8
02
FE
02
0C
00
01
09
06
04
F6
FE
01
0C
0B
EE
02
F3
FA
0C
F7
FA
FD
F3
05
F8
0B
F9
F2
12
FB
FD
FD
EE
F7
02
F3
0F
FC
14
0B
F2
0C
0D
EF
08
F7
0E
0B
14
ED
01
11
FC
FF
02
FD
11
02
0F
02
FD
ED
07
03
07
03
00
06
F9
0D
0A
12
09
F4
FC
F3
0B
04
00
F3
F2
05
EE
00
04
10
0D
EF
FE
F4
0A
FD
F8
FD
0E
10
08
FA
08
0E
F2
F3
11
05
0D
FE
0C
FC
0F
02
04
F1
01
F7
FD
0B
12
0D
F1
05
EE
F3
06
FA
F3
12
0C
08
04
EE
EA
F9
02
F5
04
FE
00
0D
0B
F4
F4
F8
07
0A
0C
07
12
FE
08
FB
06
FF
06
12
F4
ED
09
F0
01
00
11
07
EF
02
12
10
F2
EE
08
12
FB
14
F2
05
FC
F3
0E
F5
0E
0A
F4
FA
0F
05
03
0A
F9
0E
FB
11
07
F4
08
FB
0E
F3
FA
FE
08
F3
10
F7
12
05
10
10
02
04
04
F8
01
13
EE
12
F9
F8
01
FF
0E
FB
01
EF
13
0A
F7
FD
FA
EF
F4
05
0A
09
F9
0C
0F
0A
F3
FA
F8
EC
0F
0F
FF
07
FB
0C
F5
F7
FF
F2
F5
F6
06
F7
12
F0
FA
F6
FF
F2
EE
FB
F6
FC
08
08
12
00
0C
0B
EE
0E
FB
F5
EE
F5
01
EF
03
07
05
06
01
F9
EE
EF
EC
10
EE
0B
10
E9
F8
00
EE
02
FF
F6
F5
FC
FF
F5
0A
04
ED
F2
04
F5
F6
08
09
F6
0B
03
0D
0B
0D
01
13
0D
0D
F7
F7
02
F5
F1
FF
11
F0
0C
08
00
FC
F4
FE
0A
EA
0B
FD
FA
F2
0B
0D
F7
0C
00
EE
0B
02
0B
10
EF
FA
09
0E
EF
FC
EF
FC
0E
02
F2
ED
0D
FA
12
ED
07
01
FA
FF
FC
FA
05
01
08
02
06
03
08
EE
FA
07
ED
ED
FD
04
F9
0A
09
04
EF
11
EC
06
FC
01
F2
FE
08
13
0E
0E
10
FE
FD
F2
11
F0
09
F9
EE
F5
0D
F7
ED
F5
02
0A
0E
F2
F7
F2
F9
F9
ED
FD
FB
FF
06
0A
F6
F7
0D
11
F1
06
F9
01
EF
EF
F2
10
FF
FF
13
0A
08
04
F7
16
0F
FB
05
09
04
09
0B
F4
F1
02
F7
03
FF
08
06
02
EF
FB
13
FD
F7
ED
0D
12
07
F8
08
F6
16
00
04
F6
06
F5
FE
13
F8
03
05
05
F4
06
08
08
09
11
06
FC
02
06
ED
F9
FA
07
13
10
09
0B
0E
F2
EF
F5
10
05
10
06
F7
F6
08
13
FB
FB
FA
04
06
F6
F4
12
0B
0F
F1
F2
08
09
04
01
FD
F0
08
11
EE
FF
FB
F6
F2
02
F2
03
FB
02
0C
FF
F1
06
0A
F6
06
F7
EF
F9
F3
09
EC
F9
0F
0F
F2
F1
F5
04
FC
0D
04
03
12
02
01
07
02
10
F8
F1
F8
11
FA
EB
05
FD
FB
F3
07
08
00
FB
F1
09
12
FC
02
0A
F8
FD
EF
FD
F0
0A
04
FD
0E
00
0D
03
0D
03
01
FA
00
05
EE
F1
EC
01
0D
FB
F4
0A
09
F8
EE
0B
F7
0A
0B
F1
F4
EE
FD
FF
ED
0F
09
03
03
EE
14
F9
00
0E
F3
07
0F
F0
02
FD
05
03
0F
06
EF
00
F4
FA
EB
FC
15
F5
F4
0F
05
F1
07
0C
FA
F0
0C
FD
F9
11
EF
05
12
03
F2
03
12
F2
09
F5
0B
04
06
13
06
FE
FB
F8
F3
01
F3
0A
F5
00
FD
F7
FC
F8
03
05
05
F7
F7
FD
0B
03
0C
00
14
F4
06
01
F2
0B
F0
0F
F3
F2
10
12
0E
FF
F8
F0
EC
FC
FD
09
11
14
10
0D
ED
F6
14
05
0A
F9
03
05
13
05
04
0C
13
02
F9
FA
12
F1
08
FF
12
12
11
FF
F1
F3
F1
04
0F
FF
12
F1
02
F3
05
07
0B
FE
F7
EF
0D
02
11
F5
F5
F2
06
06
FB
EB
F3
00
0E
14
FF
F0
0B
12
0C
F3
FA
05
04
FF
11
F2
09
EC
F2
05
F9
0E
14
0D
F8
F4
F4
05
06
F9
02
00
04
11
F2
12
05
F0
07
0B
02
F4
F0
F9
F3
F0
F6
F1
09
EF
06
F2
F5
08
0E
0B
F2
10
F6
ED
FA
EF
14
07
12
0D
ED
ED
06
EF
12
F5
FD
05
0C
14
FF
11
02
F0
01
FD
0E
F0
F8
00
EF
02
FD
08
FE
03
13
07
0C
F2
FF
11
05
0D
12
04
EF
F0
05
0C
07
00
F0
F9
03
07
FE
03
02
FF
11
05
14
F1
05
ED
10
F0
FA
13
04
12
01
F6
09
F6
F2
03
05
11
09
F4
06
FA
FB
06
EF
0E
F4
02
F4
FF
F6
00
12
F6
ED
F4
F2
F1
F5
02
FC
FC
01
04
ED
11
04
12
F5
04
06
09
F5
F9
04
15
EE
F3
F8
FD
EE
05
EF
0B
11
05
14
ED
03
05
F0
05
10
F5
04
09
FC
FE
02
F0
0D
FD
09
04
FE
F0
01
05
F8
0E
09
10
F1
FA
F6
0C
00
02
08
01
FE
FF
0B
EE
F8
0A
F0
14
08
08
FA
12
FF
F8
EA
F0
00
F1
F2
F0
E9
00
01
02
10
FC
14
FE
F4
F7
0D
ED
FF
ED
ED
10
07
F2
F3
15
EE
FE
FC
F6
06
00
F8
02
15
EF
F4
FB
F7
00
FF
01
FB
ED
FF
F9
07
FF
05
F4
08
11
0D
FE
06
02
06
01
F7
FC
07
F2
F1
F1
01
04
08
F9
08
0C
07
F5
04
10
0A
00
FE
0C
10
08
FB
01
10
07
11
10
06
06
00
F0
F2
EF
ED
10
F1
0D
F9
11
FE
10
0D
02
0B
F6
0D
F2
07
04
04
09
06
03
06
F8
06
04
11
04
03
FE
F8
F0
FA
FF
02
F9
13
06
13
0D
13
03
F5
04
F9
F8
F6
F6
13
00
FF
04
F4
F9
F0
FB
F9
0C
F4
0F
F4
01
00
02
0B
EF
F0
05
EB
0F
0E
F6
03
FF
F7
04
11
06
FC
F4
12
09
FB
F4
F8
00
FB
F5
F2
10
EF
00
FE
F6
0C
0D
F5
01
11
05
FE
0C
0F
F8
FA
EF
02
EF
03
01
00
00
F5
10
0C
12
EE
EE
FA
F7
F0
12
FE
08
F9
07
F8
14
00
04
0B
F5
FC
04
EA
13
0D
01
F9
14
F2
F7
0F
F3
09
F0
EF
FA
03
F4
FA
FD
EB
0C
F7
FC
18
0A
F2
0E
EB
F8
FB
FB
08
F1
FB
FA
EE
07
12
F6
FF
00
07
11
0B
FF
09
F2
11
F3
01
12
F4
FD
F3
ED
F2
FB
F9
FB
FE
0C
0D
00
ED
03
F1
F0
0E
ED
06
F7
0A
06
FF
FE
FD
FA
F5
F7
F5
F0
0E
F1
F1
FC
FB
16
F2
0E
FE
0E
F4
F4
F3
08
FA
F2
06
FA
0F
F8
F8
00
FD
08
F7
00
FF
09
01
07
14
09
F3
FB
FE
14
FB
F3
ED
0B
01
14
F0
0F
F5
08
F7
F8
07
0D
EE
EF
0D
08
F0
01
03
08
F7
FA
0B
0E
11
09
0C
05
09
03
F5
00
10
F2
FE
F4
FC
F6
F9
0F
FC
FC
F7
F6
FB
F0
06
01
09
0F
11
FF
FC
0C
FC
09
06
09
0C
F4
09
F9
06
FC
01
13
F3
16
EA
11
F0
07
EF
06
FA
FE
09
EF
0F
EC
07
F5
0F
F8
04
FE
0A
F6
05
00
0F
F8
FC
04
08
FC
0C
F3
EC
04
05
FA
FD
05
06
12
FB
05
F7
00
11
F9
04
F4
F4
0E
03
FD
FB
04
14
05
0E
FA
FB
0E
09
06
06
05
FC
11
0D
10
00
F5
0B
FA
04
0F
0A
FC
FA
0B
02
FD
0D
01
04
0D
F5
0F
F5
0C
FA
F0
0E
F9
04
F8
FC
07
01
F0
F3
FB
0B
F7
FF
0B
0C
F5
ED
F1
03
F9
EC
FB
FC
01
FF
F9
EE
04
11
11
04
0C
10
EE
FC
F1
09
FA
0E
F4
0D
F2
F4
0F
11
EF
07
0A
FD
00
03
F4
00
12
05
07
FB
EE
0F
07
F5
FB
0D
FD
11
FB
0C
F2
F3
F1
FB
F8
EF
04
0C
02
02
F8
02
06
01
EC
0B
FB
0F
F5
0A
EB
EF
14
06
F0
08
F0
11
FA
03
09
07
F1
F1
FF
07
FC
FB
F1
07
F8
00
FB
09
F3
07
F9
F9
F4
F9
0B
FE
EE
06
00
F1
06
F2
F8
F2
F4
0F
0B
0E
FB
FA
01
F2
F3
0F
EA
13
0D
09
ED
0C
FB
12
11
F8
F9
EF
03
FA
04
07
0D
05
FF
F2
13
04
12
F0
F8
0D
0B
0D
12
0C
FA
0D
06
F7
F4
FA
FA
10
12
04
0B
03
FF
F6
F2
07
0B
F8
F4
EC
F2
0D
02
EC
F3
F3
0F
FC
F8
07
0B
01
01
F0
12
09
0E
09
F2
10
F6
EF
09
F9
04
11
12
F8
FD
11
FD
F3
F8
0F
0C
0A
13
12
12
FF
F6
0F
16
F6
05
0C
0E
F6
FB
F4
0C
FA
0F
EF
0F
F2
0C
F3
06
06
07
F1
F2
01
08
EF
0B
F0
0C
07
F6
ED
07
06
03
04
FE
FB
EE
FA
12
FE
EE
13
08
03
07
03
0A
03
0B
F2
F3
02
F2
0B
04
F3
08
10
0C
FA
0A
F0
F2
0E
0E
09
11
11
00
F5
FE
0D
F0
07
04
07
08
EA
EC
0F
0A
EC
15
F9
0F
F4
FC
0D
F6
F1
FA
0C
FB
FB
0E
0D
F7
FA
FD
10
13
03
04
0F
FE
05
F6
09
0C
0B
03
01
0C
05
F4
FD
FF
0C
05
02
F9
0F
EC
F9
FF
F1
0C
00
12
10
04
F8
05
00
F4
07
F1
10
EC
0D
0B
13
01
F3
FF
07
F1
F6
F7
F3
F2
0B
F5
12
EF
EE
13
0B
F6
09
F0
0B
01
09
FF
14
F3
02
F4
FB
F9
03
FB
06
10
F9
09
0A
01
EF
EE
0E
07
EF
0E
02
F3
F3
EF
12
0F
F4
EF
06
05
F7
EF
F2
0A
FE
0D
FF
0A
F3
03
0E
F1
EE
02
10
16
07
F7
F3
0A
04
FC
EE
FE
F2
03
E7
ED
12
EF
03
F6
0D
00
0B
11
0F
02
FA
FC
14
11
11
0A
F8
12
12
17
0A
FA
15
0C
EC
0B
13
FE
0E
10
06
FB
10
EF
FC
F9
05
EC
0A
F2
00
F4
0E
F9
FF
01
11
01
13
F4
F4
00
ED
08
FF
0F
07
FE
08
06
F9
F3
0A
00
EE
FF
F7
0A
14
0F
F2
F6
F0
EF
ED
02
10
F0
F8
ED
0C
04
EE
F9
0D
FE
0F
07
F3
F2
03
FC
FA
04
F8
11
07
09
EE
EF
05
F5
EE
02
07
F0
08
FF
06
FE
FF
0F
F0
FC
04
0F
0E
F2
07
12
F8
0F
01
F5
01
00
F1
F9
0B
F9
FB
05
0F
F8
FC
0B
0E
FB
0E
11
13
05
05
02
FD
06
0D
FE
FE
05
FD
0F
F9
FA
01
11
09
02
12
F8
06
F6
05
13
0B
10
09
01
0B
03
01
EF
07
02
EF
F4
0A
0A
EC
0B
0C
0F
F8
0C
F5
08
FB
0A
0C
13
EE
06
F1
FD
12
0D
FE
FC
0B
F3
09
F0
10
03
FE
F9
04
F4
FB
12
F5
FD
EE
F8
FC
FB
F7
06
F6
0A
01
00
01
FB
13
F7
F9
01
0F
FB
00
08
0D
FC
F1
0E
F9
05
F7
0D
04
0B
0B
F9
05
02
0A
07
F1
05
0A
06
07
F8
09
F1
EF
13
EE
03
02
FE
01
F8
0D
F0
07
FB
FC
FA
0B
FB
EF
11
0B
05
06
0A
0C
03
14
0E
ED
00
FC
F4
F0
08
EC
EF
09
10
09
00
09
07
00
F7
F4
09
0D
0A
0F
0E
08
09
F4
04
12
F2
10
F3
0D
09
0F
10
10
14
04
0A
0D
F1
12
04
0A
FA
03
EF
13
06
10
0B
F6
F1
03
0D
EC
00
F5
0D
F0
0B
0D
F7
F5
F1
EC
06
F8
02
02
F3
FF
10
08
11
FF
FB
08
06
04
FC
0A
F8
F9
F3
F4
F2
11
FE
09
09
02
F6
F8
14
EF
F9
ED
F7
0A
0B
0D
12
08
F4
F8
0C
0D
14
FB
F8
F9
06
11
FE
F1
FA
02
13
F2
F2
10
0E
0F
01
FE
06
0E
FC
E8
12
F4
13
10
FD
05
03
03
0B
F0
F0
01
F7
05
ED
01
FC
FC
FC
06
04
13
F1
FB
FE
FF
EC
0D
FF
0C
12
FF
0E
F6
FA
ED
FD
FF
00
0E
11
0A
F3
FF
FE
FD
03
08
08
0C
F3
08
FC
07
0C
0C
04
F7
FB
EF
FE
06
10
0D
EF
F7
0B
0D
09
EB
FB
10
0D
11
05
09
F0
05
07
F4
0B
06
0D
04
00
F2
12
F3
03
03
F0
F6
F3
05
0C
F6
0F
F4
05
01
FB
0C
F7
04
FB
F8
ED
00
01
02
F9
F8
01
00
0C
F2
F7
06
08
EF
F0
EC
06
FB
F3
14
05
16
0C
F0
EA
F7
ED
04
ED
F7
FC
05
F0
F7
F4
03
FB
08
0F
EE
F8
01
09
EC
11
01
FA
09
08
EF
16
FB
FC
0A
0B
07
03
01
14
ED
FE
EC
F0
F3
EF
13
FE
09
F9
F8
FB
FD
F5
12
08
03
F2
0A
FA
F3
12
0B
F0
0B
F1
EC
F6
FC
EE
FA
FD
06
FE
F6
F7
00
EB
0E
10
06
EC
FD
0F
02
07
EF
F8
EE
FE
F0
14
F7
07
FB
F7
0D
10
EE
ED
F5
15
F9
EA
F2
0F
F1
F2
02
0F
03
10
0C
13
12
FD
F1
11
FF
F0
FC
F6
FA
06
0A
0B
EF
02
F1
12
F4
F6
ED
06
0D
04
10
F3
06
02
15
04
FC
FA
08
03
0A
F3
FF
F9
F9
13
04
07
07
FB
EF
F6
0E
0E
EE
FA
04
0E
F3
0C
F6
03
FA
0A
F8
03
12
F0
13
0C
F1
F0
0A
EF
F2
FC
F9
EB
0D
08
0A
FC
F0
02
07
0E
F7
13
F3
FF
F8
F3
FB
0B
09
06
0C
08
FB
0A
04
0A
09
07
F5
0C
F3
04
0B
0A
03
06
0C
08
F1
14
F3
07
F7
07
0E
0F
03
FA
F4
FB
EC
F1
EE
FB
07
FE
F6
01
05
0F
FE
0C
0B
15
0C
05
04
F7
05
10
F2
07
05
F0
F1
F5
08
FA
FC
F0
F7
F3
F2
FF
0F
06
08
02
F6
03
00
F8
13
0A
04
FF
FB
01
FF
F0
0B
10
EC
F9
FA
03
0D
FE
10
EF
0C
0D
0A
00
F4
01
01
07
03
F4
FC
F4
F7
F5
F0
F6
F5
F0
ED
05
10
10
0C
09
0D
F8
F5
F6
0B
FC
06
EF
FA
0A
04
F3
F2
04
07
0F
05
0A
F3
F5
F9
09
05
EF
13
04
F8
FD
14
00
10
0D
F9
EF
04
09
F1
04
F3
F0
ED
F2
FB
F9
FB
F1
FA
EF
EA
F9
02
08
0A
FB
01
12
FE
F9
11
01
FB
06
06
F5
EE
15
06
F8
FB
F4
04
F0
F8
11
F3
F6
F9
15
FE
FE
00
FE
FA
0B
05
0A
FC
0B
10
01
FA
10
0B
11
EB
F3
11
04
F3
06
F7
0E
0A
FD
01
FC
15
F7
01
0F
F3
F5
F4
0F
FB
EE
13
EB
F6
F4
02
0E
0A
0A
EC
04
0D
00
0A
05
07
10
F6
F2
F0
FE
F5
14
F7
09
0E
F6
0C
14
04
F3
08
14
10
F6
F9
F2
08
0D
09
08
01
10
F2
FD
01
FD
0E
07
F5
08
08
FF
EC
12
03
0F
00
EF
FD
FC
0F
11
02
03
FF
F4
FD
FB
EF
FC
13
F8
F9
F0
05
F5
0F
FB
FF
08
13
F9
ED
F0
F3
00
F3
08
EA
F7
F7
EE
F0
13
F8
02
F6
0C
03
F2
05
03
EE
13
F7
FE
0C
F9
09
F3
F8
F6
01
FE
FB
08
F4
F7
0A
F4
11
F6
0C
FC
07
11
F8
FB
05
0B
06
0C
F8
FB
12
FE
FD
F9
09
F2
F8
F5
FE
FD
0E
F4
09
FD
FC
0B
F9
F7
15
09
02
FA
F8
03
10
F0
05
09
03
F8
F9
03
01
F5
0C
EC
0A
F8
F8
FF
05
FD
F6
12
0D
FC
F6
F7
F7
00
FC
F7
09
14
F6
01
F0
14
0E
FB
0D
0A
00
0A
03
06
F3
06
FF
0F
11
04
FC
F4
F3
FC
F2
11
F3
0F
11
0C
03
10
FB
F2
0B
13
FA
0C
0F
0F
02
F7
F0
FD
09
FF
FE
EE
0D
0C
F3
11
F5
ED
0A
0D
F0
11
EC
FF
04
06
FD
07
F0
FE
0E
EA
FB
F8
FC
EC
F0
FE
10
FE
FF
FD
04
F1
0A
08
13
08
F7
0B
0A
09
03
01
F0
F9
08
0E
05
12
11
FA
EB
12
F5
FF
F9
04
12
10
F2
FB
FE
0D
0E
02
FB
00
F1
06
14
0C
10
05
01
F6
0B
F2
06
06
EF
EE
13
FB
09
0A
FA
EC
F7
12
F0
ED
0F
03
00
F6
FA
EC
FF
FE
FF
F1
F5
F0
0E
02
FF
FB
F9
FF
03
00
13
F1
F7
0A
F6
04
02
06
02
FA
03
00
02
01
05
FD
F9
00
0D
04
F4
F5
04
04
EE
F5
F2
07
08
01
EF
0C
05
08
07
06
09
EE
03
13
F4
0A
0A
FF
ED
07
11
04
0E
08
EF
F8
14
FE
EA
FE
0A
08
EF
0E
EC
F2
F7
FD
0E
00
0A
F9
FC
10
0A
F1
04
0C
04
0F
FC
F7
10
13
02
EC
F2
EF
14
F9
03
F9
EC
F9
09
FD
00
F2
EF
06
EE
0B
00
EF
F3
EC
0D
F4
F5
0F
07
07
00
FD
0C
FC
02
0E
01
EE
07
08
FC
0D
FC
05
0F
03
13
F8
10
EF
F1
FC
09
EE
0D
FF
11
EE
00
F2
FD
06
0F
F1
01
00
03
EF
F5
FC
08
F0
11
F9
0B
0E
EE
0D
F4
12
05
F5
0E
12
07
FB
00
0B
0F
0D
F4
FB
F2
F5
0C
0F
F8
EC
0D
EE
FD
0B
12
0B
FA
FA
FD
06
06
0B
F1
05
FF
11
F9
0E
0A
F5
EF
08
F9
F7
EC
02
06
FC
04
12
F3
05
FD
0F
F7
F1
04
F0
04
EE
07
F6
FF
09
F6
02
F6
F3
FA
F1
FE
F0
F6
FC
F8
00
00
F3
F6
FC
15
13
0A
0A
0A
06
11
03
0B
F9
FB
FA
F5
0E
F0
F7
FD
0A
0D
02
01
FB
F6
FD
0B
11
0F
FC
0E
0C
FA
EC
0F
08
15
06
0C
FF
02
FD
EE
EE
F9
F3
06
11
F3
03
13
0A
F4
06
08
06
FB
04
07
F2
FA
06
0B
EF
F2
0C
12
F1
F7
0D
0A
0C
01
EC
EF
0F
11
FA
08
09
0A
08
F5
01
FE
12
09
F7
0B
04
ED
11
FD
0F
04
0F
F7
F2
0B
04
12
FA
F4
0F
FF
FF
03
0B
08
0D
F1
09
FD
0D
FD
08
F2
F6
F3
08
04
EF
F1
FC
0B
FD
11
EE
FF
12
03
10
0C
EC
03
0E
0B
16
F3
01
06
EA
F7
FB
F4
0E
F8
FD
04
EE
0C
0C
F3
F7
F1
02
FC
FA
FE
13
0C
F7
F4
02
FE
07
FA
EF
FA
06
02
06
03
02
0C
06
12
09
10
06
0C
F3
FF
F5
EF
EE
FD
10
FA
FC
ED
02
F6
0A
EF
10
08
04
15
0A
12
0D
F3
01
F8
01
06
0A
07
06
F3
06
0D
09
00
EE
04
08
04
F9
EC
0B
0E
F7
FC
0B
FE
F0
01
FB
01
01
FC
0F
01
0B
F1
06
F8
0B
FC
01
EC
10
13
15
F1
F7
01
FA
FE
07
11
0F
08
EE
F8
09
06
0D
F6
EF
FC
10
0B
09
F8
FD
FA
03
14
FE
F3
0D
02
08
0D
0A
F4
02
FC
11
EC
03
F7
F1
0B
08
06
0A
06
0A
05
F3
0A
F1
F5
11
F3
0A
F0
F0
04
ED
0A
15
FA
11
12
F3
05
EF
F3
FC
03
FF
F5
FF
14
F3
FB
09
FF
03
FC
F5
03
F2
08
F7
FD
FF
0C
03
0A
0A
0F
EF
F6
0E
01
13
00
06
EC
F9
06
06
09
F7
F4
FE
ED
0A
F5
10
FB
0B
00
ED
F4
07
EE
FB
07
FE
04
04
F3
02
06
F8
11
04
07
01
10
04
08
08
FC
F2
0E
00
F4
F0
EC
FC
10
FD
12
F2
00
01
10
06
FB
0C
0A
03
11
FE
0F
F7
02
0C
FD
07
E9
FC
00
01
F0
FF
10
0F
11
0F
0C
FF
07
F4
02
01
E9
0C
FD
F4
FD
08
F0
F4
F2
06
0C
EE
06
01
F7
12
F7
07
00
F7
F6
02
F1
F0
11
EC
06
EC
0C
12
E9
05
F0
F7
10
0E
FB
F4
FC
F4
FC
13
05
0C
F8
F0
EB
FC
01
FD
FC
03
07
0B
04
03
F2
F2
12
00
04
FB
11
12
F4
F6
0F
10
01
EF
00
0D
FE
F9
04
FE
01
04
F9
06
02
FA
00
EC
0A
F6
0E
07
09
FA
F4
05
F7
02
EC
ED
01
F1
F9
10
F3
0B
05
0F
F6
04
0D
F4
FA
10
0B
F4
F8
FB
10
0F
02
0A
F0
03
0A
0F
13
EC
FB
FC
F0
FE
10
F1
FA
F9
0F
0B
F1
FF
02
FD
F4
05
FA
15
0E
0E
0F
0A
03
FE
09
F5
FE
08
07
03
09
0B
0D
11
01
00
F3
13
03
08
09
02
16
FE
03
F9
11
F0
F8
0B
06
F8
EF
0B
10
0D
EE
ED
FA
FE
F6
10
F8
FF
F6
EE
10
F4
F3
FC
F1
F2
05
ED
00
04
06
F1
EE
11
11
08
10
08
FC
06
0B
01
0F
11
0C
00
08
EE
F3
05
13
00
F7
F0
03
02
10
FB
F3
F1
0E
0C
F7
01
EF
11
03
12
01
02
F2
00
FF
EF
FB
10
11
F8
07
09
FF
F3
F7
0B
13
F9
F5
E9
01
FA
F5
F8
12
F0
06
FB
02
EC
0C
ED
F7
09
13
F4
07
F8
F8
FA
12
06
F8
EB
06
07
03
03
F1
0F
FC
0A
08
FD
FE
05
FB
0E
0D
03
0C
0D
09
07
F3
05
ED
03
FC
04
EF
EE
EE
09
05
0C
F1
12
F7
07
10
FA
F1
F9
08
F4
FC
06
0C
09
EC
0B
0A
EF
FA
13
08
02
04
F4
05
FE
0B
F4
0F
0C
0B
14
ED
F7
10
FE
03
F6
F5
F6
F0
02
00
14
16
0A
0B
FF
FF
17
08
F1
0D
15
F5
F2
08
FF
EB
F0
06
05
0A
10
EE
06
05
08
FD
EE
0F
F9
FD
F9
07
F3
12
FB
01
F1
01
F7
0E
EE
05
F7
01
15
F9
FB
F9
11
0E
FE
FC
F9
F1
F9
F1
04
F7
0E
0E
FE
0E
F9
10
0F
01
00
0D
10
01
FD
F1
0E
06
10
F6
F4
FF
EF
FE
F5
11
0C
F1
FC
EF
12
10
03
07
06
00
FB
02
F1
FE
EA
09
0A
F6
F3
F6
04
09
0C
EF
FF
09
06
FD
F6
FA
0D
F1
EF
06
01
F6
01
FA
05
0A
EB
09
16
F3
F0
00
FA
FC
05
F5
FC
F8
F9
F0
04
04
F3
0F
F9
04
F7
EA
FF
FB
FA
FB
0A
12
0D
F1
ED
0F
13
0B
02
03
0E
F6
10
0B
FD
0D
F2
18
EF
F9
16
07
04
F6
F4
F7
0F
FB
F2
10
17
09
08
02
12
EB
03
06
05
0E
09
EB
0C
0A
F6
F6
02
0C
FA
F5
F5
0A
F0
04
0E
F7
0A
F7
FE
0D
0F
0A
02
02
F1
00
FC
09
07
0A
03
0B
02
0E
F5
F2
F2
11
05
FB
06
FB
08
02
FF
06
FD
0E
F1
01
F3
FE
10
F8
EC
07
FC
F0
0B
07
EC
F7
F3
EF
F4
0E
01
0A
F3
0C
08
09
14
F4
0A
F3
F8
FB
01
01
F1
08
0B
FC
F7
FD
EB
F1
0E
04
0A
09
F2
F9
12
0A
0F
F8
0E
EC
13
FA
FD
06
03
0C
02
01
FC
09
09
F5
F2
07
03
0E
F1
F4
05
F4
F5
07
F8
FC
0C
F1
0C
F0
EF
FC
FA
F9
FD
ED
F3
F4
F6
05
EE
0C
F5
02
FD
05
F1
F4
F3
07
0F
11
09
ED
06
FC
F5
0F
13
F1
F8
11
06
F6
12
11
FE
EB
08
0D
08
01
EE
EC
F1
0A
03
FE
06
F6
EF
F6
05
EC
06
07
FE
0B
FC
F9
EC
06
F1
01
0C
F5
F0
F8
0F
EB
EE
07
EF
13
01
11
0F
F8
0C
FC
0B
01
EE
F6
12
15
EE
F7
02
00
0A
FF
0B
FC
F1
15
F5
EE
0A
00
07
FE
F7
04
0D
02
FA
FE
F6
FC
02
FC
04
04
F3
F0
FA
03
0E
02
0A
08
10
0B
08
11
F6
04
EE
0D
0E
F4
11
F2
F6
F4
01
F1
09
F4
11
FB
F8
0D
FA
EE
F0
01
04
0D
0C
0C
0C
00
FC
10
FC
14
0D
F4
FB
08
08
EF
F6
F8
09
FE
06
F6
F7
FF
F7
F4
0D
0F
FF
FD
10
FB
F7
F8
0F
04
0B
05
11
10
09
FC
F8
F3
0B
F0
FA
F9
FE
0A
0C
02
F0
FD
EF
07
EB
F8
0B
FB
14
01
06
FF
ED
04
FF
02
F9
0C
0D
08
FC
FA
F9
08
F0
F4
EE
03
FB
02
FF
F8
02
F5
06
F8
10
EF
0A
F1
F7
FD
03
FC
06
05
11
FF
FA
FA
08
07
13
13
0D
FA
F2
F1
03
FB
FE
01
FC
FB
F0
EE
07
0C
F6
ED
0D
05
0A
0C
11
FF
F9
03
0D
0F
0E
FE
04
FC
F7
FA
0F
EE
FD
FD
ED
01
F5
EE
04
04
01
ED
F0
0A
09
FD
0E
11
F1
06
0F
F6
EE
12
F5
08
FF
06
11
F4
03
F6
03
F5
FA
F5
12
FA
13
F0
0D
FC
07
08
04
F8
12
FD
FC
0C
FA
F7
F7
07
FC
07
13
ED
0D
04
03
F3
03
03
09
04
F3
0D
12
01
0B
0C
07
FD
FA
EC
FB
04
10
01
0D
07
F3
05
0F
F0
FA
F7
F0
F3
0A
0F
ED
F7
10
F8
FF
0A
FB
03
FF
0D
03
F3
FD
05
EE
0C
17
FC
00
17
0C
FA
09
F4
F9
F4
FB
08
EA
0D
09
F5
14
ED
EF
05
03
07
F0
F6
FC
03
04
04
06
EB
FF
0B
0C
FC
0F
01
EE
0B
04
F6
FF
09
F9
FA
F6
08
01
0D
00
05
0D
04
07
17
12
FE
EE
F0
F2
F1
00
EC
13
03
11
F9
06
F4
FF
0D
F1
12
F8
0C
03
FF
0A
09
00
0A
05
0A
FB
0D
08
0E
EB
F1
0F
15
F7
FE
FB
00
0C
11
02
0F
10
01
F8
04
14
FE
F1
F7
0E
FC
0B
F5
0D
FD
F2
FB
08
10
EF
FD
F9
FA
10
F5
EF
FA
01
10
F1
FD
0C
08
02
FA
EF
02
02
F7
F7
12
F1
12
00
07
FB
F1
0B
F9
05
05
F6
F7
00
0F
F5
01
F0
FD
FA
08
11
0E
13
FF
15
F6
12
F9
13
10
0B
FA
05
01
FA
0C
08
06
F1
F0
09
F2
05
07
13
FA
07
FE
0F
15
07
00
10
F5
F5
01
0C
F8
FA
F9
0C
FA
F7
11
0E
F9
0D
05
0C
F9
EF
0A
FF
FF
0B
F7
F3
01
0A
05
0E
12
12
EF
F5
F7
13
13
FD
F9
F5
ED
0A
F7
0C
10
F9
12
01
FD
0A
10
F7
02
04
05
EF
02
10
0B
04
0F
FB
13
03
06
02
F3
FA
0B
F1
11
EF
0D
FB
F2
08
EF
F8
01
ED
F6
0E
F3
FA
12
00
FD
0A
08
0C
F8
05
02
0B
FE
0C
F8
FE
F1
0E
08
0B
EA
FC
0E
0A
09
0F
FD
FA
13
F7
10
00
11
E8
0A
F1
08
12
FA
0A
FD
00
0D
08
01
0D
0D
0C
11
F6
04
F1
02
04
0E
14
F6
14
07
0E
EF
FB
06
04
03
08
0F
05
07
EE
0A
00
00
FB
14
06
0A
11
0B
F9
0C
F4
EE
0E
08
0D
0B
F7
F5
F0
F9
0A
0E
F7
00
EB
05
E9
03
FD
00
0C
12
EF
03
0A
07
FE
05
EE
ED
05
F8
F6
00
10
F4
10
FE
03
F2
0A
FB
0E
0B
F0
13
00
F8
0B
07
F6
0A
07
FC
FA
F5
FE
F7
0C
FF
FB
0C
10
FF
02
F3
FD
F7
F7
03
F6
0B
FD
FE
09
0F
0A
FE
F6
0A
03
FA
0E
15
14
FA
F4
0F
05
01
0A
16
ED
0D
FB
F7
05
FE
12
F3
04
01
10
0C
0C
0B
09
F4
FB
FF
F7
EE
03
09
04
FD
F6
E9
FF
00
0D
0B
F8
0B
0D
0A
EE
EE
FD
F8
0E
0E
ED
F6
FC
FD
FA
F5
04
07
07
03
F9
FE
11
F6
10
09
F7
0D
ED
F1
04
FC
06
F5
00
03
F2
FA
03
F2
10
10
04
0C
11
0F
06
F0
FD
FE
F4
F7
F1
0C
05
FF
10
F3
ED
F7
04
0E
FC
FC
FD
0D
12
FF
17
F3
FF
0C
FF
05
12
EC
16
F7
11
14
13
F5
F8
06
18
03
02
05
F4
F6
EF
02
04
0F
05
10
0E
13
09
FF
10
03
FE
F2
FF
05
F0
F1
0E
05
14
F5
04
0E
13
08
0D
F9
03
ED
0E
FD
0F
02
F3
05
F4
08
07
0B
14
0D
F3
11
F5
FF
0B
F7
EC
ED
0B
0E
F4
F8
F1
F2
F3
F0
FD
08
09
07
F4
F2
F0
0B
02
11
07
ED
01
F4
FD
00
07
11
EE
FF
F8
FC
09
FB
F7
17
F0
05
03
FA
12
0C
0F
0B
F4
F5
0E
FB
FB
F7
00
0F
F1
FF
FC
0D
01
00
E8
F1
F2
07
F8
0F
09
13
ED
04
0A
F2
14
FD
11
11
E9
05
F7
EB
EE
11
F6
00
13
F1
12
06
03
F2
F0
10
17
F4
F2
FF
FF
FD
02
FC
F6
F3
11
16
FA
10
FA
14
F2
F4
F9
F7
F6
06
02
14
EE
10
04
FE
F0
06
0F
0B
09
F4
EE
F6
F6
F5
FC
FA
0B
16
F7
F6
05
0E
08
00
02
F4
06
F8
ED
00
F7
07
0E
EF
11
F3
13
F6
09
F1
F5
0F
F9
10
0E
09
04
0B
13
0D
04
F6
FA
EF
11
08
0A
06
05
04
0B
EE
0F
F0
F5
E9
F1
02
0D
07
07
F9
FB
09
FF
FD
EF
03
01
11
FE
06
02
EB
0A
02
FC
FB
0E
FD
F9
11
08
ED
13
16
FB
0B
F4
15
F7
EB
0D
16
F3
0F
EC
F6
0C
03
F5
F7
F1
ED
F9
FA
F0
F5
F1
FB
0D
0F
0E
F4
0E
0E
12
F1
F5
F3
08
0D
11
F4
08
EF
06
14
FB
F5
ED
F0
0F
11
F5
01
05
02
05
F7
0E
12
0E
FC
0C
02
FE
14
ED
F5
10
EF
FC
0D
0E
F8
03
00
F5
FC
FE
0A
04
FB
FC
ED
02
05
0D
04
0F
11
14
F5
02
0A
0F
07
04
0B
FC
F5
FA
07
ED
F1
F8
FC
05
EE
EF
FD
12
08
01
07
FF
EF
10
12
0A
12
F2
0D
EE
05
FA
F1
FA
01
04
13
04
0F
F6
F6
03
ED
03
EC
F9
10
16
0B
18
FA
ED
0B
F9
F2
F4
F4
07
12
F2
F7
F9
12
FC
03
0B
EF
07
FF
00
F7
09
FA
0F
F4
F7
FE
0F
04
EB
09
FA
FC
02
07
0B
F9
F8
0A
09
FC
F2
18
F2
0D
08
F2
12
FC
07
14
FA
10
F5
F8
FA
0A
F1
0B
F0
07
F6
EE
00
FB
00
00
07
0D
F5
0E
0E
07
0D
FC
FC
F0
F8
EE
03
07
ED
FE
F4
FA
09
06
14
F0
11
FF
15
F7
0A
0F
FF
EC
12
0D
F6
0E
03
F6
0E
F2
0B
00
15
0F
0F
FD
00
0C
FE
09
F3
01
03
13
0F
07
FA
0E
09
F1
08
14
0F
0A
F5
03
0F
00
02
14
F3
11
0C
07
EB
FA
F0
09
11
0F
F1
F3
0E
00
F1
07
05
EE
03
08
16
07
09
06
FC
03
EA
FD
F7
0E
17
FF
12
09
FE
08
FD
FE
FD
08
07
08
01
01
12
