03
F2
F3
0A
EC
F0
EF
04
11
0C
F1
FC
01
FF
03
F4
06
F3
F4
EF
00
0E
10
0E
FF
0D
EF
00
06
EE
05
03
10
08
0C
0D
FC
0D
07
FC
FC
F2
10
11
EE
06
03
F5
0B
FB
0D
EE
F8
F2
0E
05
13
00
02
13
01
0D
EE
0B
02
0E
FE
FD
F0
10
0A
F2
13
F3
F7
0F
FF
F6
07
07
03
EC
0A
11
F4
09
07
0B
F6
0A
F3
FC
FF
F2
07
F7
F8
12
0F
FC
F2
08
05
08
EB
13
F1
EF
0A
04
FC
0E
07
FF
09
F8
13
0F
ED
00
F9
EF
F7
F7
01
F0
F0
FD
02
F9
F3
F6
FB
FF
F5
FE
FA
09
00
0C
EF
FC
F8
F3
11
FC
FE
01
12
03
08
EA
0D
F3
F8
F8
EF
FF
0D
EF
F4
FA
03
13
F0
FB
F6
FA
09
02
FE
F2
10
00
F6
EE
F2
0C
F6
EF
06
F1
00
0A
02
0E
FF
07
0A
06
0A
05
09
F0
F5
FA
F5
09
F2
06
13
FF
01
EF
F7
13
FF
FD
F3
FE
0A
10
F6
00
04
0C
F4
EB
08
0D
0D
04
02
FD
FF
12
FF
00
0C
01
09
F4
06
0E
14
08
0E
0C
F8
0A
0B
08
FA
01
01
10
0F
05
0C
F9
F5
0A
F1
10
0B
FE
07
0A
F6
F0
09
00
F3
13
0B
02
09
07
F3
F3
FB
EE
13
F6
0D
FB
05
F0
03
09
11
12
03
FD
06
16
FC
09
FF
02
F6
FE
FD
FF
FE
EF
11
F2
FE
F2
EE
EB
10
EE
13
EB
04
08
FD
ED
F3
F3
FB
FA
0F
04
02
08
0D
0B
15
00
F3
FC
01
09
0A
F8
06
FB
00
F3
F7
FE
EF
06
08
F4
0E
FF
F3
07
07
0C
04
F1
FD
F9
FD
F7
0E
0B
FD
0F
0E
07
F8
0A
FA
0B
0E
03
03
03
02
F5
F9
0E
FF
FD
05
F7
0F
EE
FF
15
EF
05
00
05
F9
11
0E
03
04
0A
F6
FA
02
EC
01
FF
07
EF
EC
01
12
02
0A
0E
ED
04
0C
FE
02
10
12
0D
13
06
FF
0B
EF
F0
0D
08
00
EC
FF
FE
FA
01
04
12
02
ED
FE
F8
0D
F3
0D
07
FE
FF
F4
09
FC
11
F0
EA
F7
05
09
11
FB
00
0A
12
0A
EF
F8
08
0F
09
0F
10
01
FF
FB
FD
FC
02
F3
0E
F5
05
FA
15
11
10
FA
F1
F5
16
EF
09
EF
F1
08
FB
00
F5
06
FB
08
F2
FA
12
14
0D
EB
FE
EF
EF
FD
0F
14
06
0C
0B
11
06
05
0C
01
01
0D
F4
08
0E
F2
02
EC
EE
03
0D
00
06
04
01
F2
F6
F3
F8
FC
14
11
FA
08
0F
F9
F2
FF
14
01
10
01
12
F8
14
FC
0A
F3
FA
FE
11
02
13
0C
02
06
0E
02
F8
00
ED
EB
EC
EB
02
0F
EC
02
EF
FB
0E
F0
0A
EE
FE
05
FB
03
09
FE
0B
FD
0C
F8
0E
F3
0B
EC
F8
F5
FB
0E
0D
00
09
F2
FE
01
00
F4
FB
13
07
07
FC
04
FC
03
EC
11
0A
FB
FD
05
FD
F5
F5
EF
0F
EE
0A
F6
0C
12
01
08
02
02
05
0D
07
F3
F6
0F
0E
00
FF
F8
07
F9
FD
EC
05
03
0A
FA
12
F4
06
FC
FC
05
F1
FC
F8
F8
0E
F9
F6
04
07
05
0F
05
F3
FD
ED
0E
F7
07
00
F1
08
EE
11
06
EF
F4
FE
08
F9
F2
0F
F3
03
F6
F9
ED
FB
F2
01
F9
0E
FE
04
EF
F0
F8
0B
EA
F4
0C
01
07
07
08
09
13
0F
0B
04
F9
00
0B
F3
F1
0C
03
01
F9
06
0F
00
07
0A
F3
0C
0E
F8
F2
0B
0C
F9
0B
0F
FE
F3
EE
F3
0A
F9
F5
0D
10
EE
FD
FC
0A
10
04
F4
F2
0E
F3
02
0E
0A
0C
FE
F5
F6
F7
FF
F9
0B
F6
FF
00
0A
10
0D
0C
09
FE
F3
F9
06
0B
09
05
02
FC
F2
EF
F2
FA
15
F4
0B
06
03
FF
02
F1
EF
FB
FD
F8
F8
F4
03
F4
F2
F8
07
11
13
0C
02
FD
07
ED
0E
FF
F6
F7
F0
EB
0E
02
FA
03
F5
0E
F7
F6
F4
15
0D
08
16
09
00
11
FD
EC
12
0A
F1
F8
09
00
0F
F3
00
16
FD
08
ED
FE
F5
0D
EF
0C
F4
FC
13
0D
EE
14
04
0A
F1
12
0A
01
EF
EE
10
EF
14
04
05
00
10
F4
F0
0B
EF
02
12
0B
03
06
09
13
08
07
F8
FE
F7
0B
02
10
02
F4
F3
00
06
0D
05
F9
EE
F9
02
F3
FA
03
09
EF
FD
0C
FA
F8
F3
F8
F1
F2
0F
F3
EC
EF
FD
05
08
0B
F6
F7
01
05
F2
F9
0A
10
F1
07
01
F8
05
EC
12
EE
0A
F3
0F
09
0F
FE
ED
F5
FE
03
F3
F7
FF
F4
F7
FD
F5
09
0B
EE
0F
F0
EF
02
FE
F3
01
ED
01
F6
EE
16
EF
F6
FC
13
0D
F1
0F
03
F6
0F
FE
F1
08
10
13
00
04
0D
F2
F6
F0
02
02
10
FB
F7
06
FD
FA
F1
FA
EF
10
0B
0B
F4
F1
FE
F1
06
F5
02
0F
0C
FB
FE
06
00
00
07
10
11
02
05
FC
F8
F5
FB
0D
EC
02
F5
F9
04
01
03
EB
F5
0F
04
F9
07
ED
02
03
0E
F2
02
F6
EB
11
FD
FE
15
07
F1
FF
0E
0C
F8
07
FF
11
F3
F8
04
F7
0B
F7
FF
F9
08
EE
F1
11
12
EF
12
0E
FB
13
09
0D
0D
05
F5
01
08
00
F1
0E
FD
03
02
F5
03
F1
F2
09
F6
0D
FE
FF
FE
F8
FE
FA
FA
F1
F4
F3
07
12
07
F4
F4
03
F8
02
ED
0C
12
02
EE
08
F2
F7
11
10
00
04
FF
0B
12
0D
07
F5
07
11
F5
04
07
01
F8
0C
FE
F4
14
04
FB
10
F6
EE
F2
05
F7
11
FD
0B
F0
0C
06
09
05
FD
03
07
12
09
07
12
04
ED
F6
F0
FB
F1
03
10
F6
0F
FB
FF
F6
02
05
07
ED
02
FD
F0
FC
06
ED
12
08
FF
12
0C
09
F4
F1
07
F7
F6
F7
01
12
F1
02
14
0E
10
11
FA
F5
F0
09
EF
11
01
FA
04
F9
13
FF
10
F6
F8
FD
0C
EF
0C
02
08
F2
F4
02
02
06
0F
09
0B
00
04
F9
FC
F3
F7
EE
08
F5
11
05
F2
00
0C
FA
01
FA
F4
0A
05
F4
08
0F
FA
F2
02
0D
08
F6
EF
F2
02
04
FD
06
F8
F5
10
12
FF
FB
FE
14
F0
13
F9
00
0D
01
F8
FE
0C
01
F2
FC
05
02
12
0E
F3
0C
0E
FD
01
12
EF
01
EE
0F
11
F7
14
0A
F1
F9
08
04
FA
13
0B
04
F6
F1
F3
0B
0A
03
FC
F4
06
FB
F5
0E
FC
08
F5
FD
0E
10
12
0E
0F
EE
F6
F1
FB
F0
0C
F6
F8
05
06
EE
FC
0E
0A
EF
02
05
EC
EE
0B
06
12
F5
EF
F8
FD
10
05
FC
0F
F5
0B
EB
FB
EA
F4
01
0C
F7
11
FE
04
09
11
0B
0D
0F
ED
01
FD
02
FD
10
F4
00
05
04
05
F3
0C
FE
F9
10
F6
ED
ED
F8
05
04
F0
FF
07
F7
0F
0D
13
F8
FA
0D
0D
00
F1
04
F2
08
03
F1
F2
F0
00
0B
08
EE
10
03
01
12
F5
15
EF
EF
08
13
0A
06
0E
F2
01
08
F2
F1
F0
F6
FE
04
04
0E
13
0E
04
09
EB
F5
0A
EF
F8
12
F0
0D
09
0D
03
F1
F4
14
00
03
FE
10
F1
12
F9
F2
10
F4
04
F6
FF
EE
11
FA
FA
03
FA
FA
0E
F5
F2
FA
ED
00
01
0D
FC
F5
FB
F0
FB
10
F8
FD
EF
EB
F1
06
00
01
EC
F0
F1
EC
07
F1
04
08
0A
EE
F6
0B
10
FE
F2
0F
F0
01
FD
F2
F3
FB
07
FC
F8
04
0C
10
09
07
05
F1
10
0D
09
F9
11
08
F4
FB
07
FE
F4
14
EE
0C
0B
05
05
EF
FD
10
04
F2
EF
F4
FE
F9
F3
0A
0F
FE
09
F1
EA
0C
01
F2
0E
0D
FE
00
03
05
F0
05
F9
ED
0C
0A
05
0F
0E
F8
F5
FD
FB
F9
FD
F4
F2
FF
0A
FF
00
11
F9
EE
FD
F1
F8
F0
0A
FF
F1
0F
FF
0A
08
00
FB
F7
11
0D
07
EC
F1
EE
EE
EE
01
06
0F
F6
F4
0F
07
12
F0
15
10
10
FA
0B
0D
FB
F2
09
0C
EF
11
F0
F7
14
F5
05
10
14
FB
F1
08
F4
F1
F7
13
09
EF
F6
F8
FE
FF
F2
0A
08
F6
07
FE
EF
F6
12
F8
F0
01
F9
12
07
F1
EE
02
FD
F9
13
EF
10
03
FD
FB
06
F7
14
0E
FF
09
F2
FC
09
FE
FD
02
F9
01
F2
0F
16
10
02
0A
0F
F1
F1
00
F1
F6
0C
EF
FA
F6
F6
05
0E
F0
06
11
F2
04
ED
F5
FD
0E
02
F5
FD
08
08
05
F7
FC
16
EC
0F
F1
11
01
12
ED
08
F1
07
0C
01
08
F7
0C
EF
0E
05
09
0D
F7
18
00
EE
09
03
05
FB
F5
F6
07
FA
FC
FF
FE
F8
FB
0F
10
F5
FD
F9
04
12
FC
02
11
FC
01
11
0E
F3
0D
02
FD
FB
07
F4
0D
0A
F8
00
13
0F
0B
F8
12
02
FA
F1
FA
FD
11
ED
07
FF
F7
02
09
EE
F1
0C
FA
FA
FF
F4
0F
03
00
11
F0
FC
07
09
F4
ED
F6
FA
FB
FC
13
03
09
01
FE
0F
05
ED
F5
0B
F5
F4
F9
11
F8
12
03
00
08
10
01
F4
F9
F8
F1
10
F9
0C
03
01
FF
10
03
0E
FC
F9
F7
08
F1
07
0B
01
02
00
F1
0D
F4
05
08
FD
F0
0F
EE
F4
F2
08
0B
F1
07
01
0F
10
F4
F4
04
10
01
09
09
06
F5
FF
13
FE
08
F9
04
EE
0A
0A
01
0E
05
FD
F3
F4
FE
01
0C
07
05
0A
FC
03
07
EC
00
0A
06
F8
0B
12
FF
FF
F4
F1
11
01
F1
F8
07
0A
EF
FC
ED
F2
07
EF
F7
09
F3
F1
0B
0B
F0
F6
0D
FC
14
EF
F9
09
FB
F8
0A
FA
10
0D
09
F3
04
ED
05
F0
04
EF
F8
02
F5
14
00
0C
F7
11
FF
ED
FD
FC
F5
F2
FE
06
0E
0C
F2
01
F3
F5
F7
F4
F5
F4
F1
0E
FD
09
F1
F8
01
F7
EE
F5
07
04
01
EE
0F
F6
0B
F4
FF
0A
FB
FC
F1
FC
FF
01
F6
F9
01
F3
FC
F1
0E
05
EE
02
F1
FA
F9
FE
F7
05
02
04
FA
F7
12
F3
0F
F1
09
F8
11
14
FE
03
F8
0C
F6
F0
EC
08
EC
F3
F5
12
0A
0B
FC
01
ED
EF
13
F4
EE
FB
0F
ED
03
F8
05
FB
13
0C
F9
14
ED
04
05
F1
F5
0B
11
11
03
F6
FE
08
0C
F3
04
F3
F9
00
FE
0D
F9
0E
F2
03
05
EB
00
F4
00
F8
EE
F2
F9
F0
F0
0D
ED
EE
0D
02
F3
03
07
03
FB
0F
04
07
01
EF
F4
13
06
F3
F4
F8
F1
13
F9
FA
02
06
FB
0A
13
11
0B
F0
0E
0E
F5
FC
F4
0E
05
04
FD
0C
04
EE
EB
04
F4
F5
FE
10
FE
F0
0C
08
EF
02
01
05
FC
00
F9
11
13
10
13
F5
0D
F7
FE
00
EE
F7
14
EF
0F
14
10
0D
EF
F3
EB
FC
EC
EE
03
0C
FB
FC
EC
13
00
ED
FA
FB
FD
F1
FD
F2
0F
FB
F8
EF
F8
04
01
11
03
FD
FC
0A
F2
03
FC
03
13
EE
F8
06
12
12
EE
FA
FA
0D
EE
04
F5
F8
F8
F4
EE
08
00
FA
FB
0C
F5
11
EA
03
F4
FA
EE
EF
00
03
09
00
0C
0C
04
0D
13
0D
10
F6
00
0C
02
11
F3
0F
0F
0D
00
06
0B
F1
F2
03
0C
F7
F5
FE
00
F0
0F
F5
FC
F4
0F
F2
F2
F2
09
13
11
F0
EF
06
02
FA
06
01
0A
05
01
FE
FF
0B
FB
0E
FA
00
09
0E
14
03
ED
15
0E
03
12
07
0B
F2
0F
0C
EE
01
11
F5
06
F0
02
0B
EF
FB
F3
0D
12
0B
F7
04
05
F2
EC
02
12
ED
F7
F0
F6
FE
FA
F9
EE
F1
F6
EE
F5
0D
F6
09
F4
F1
F0
0A
07
0F
F3
0F
FB
0B
FB
07
FB
F4
14
02
00
F6
F2
F9
F9
02
F5
08
12
0A
FA
11
05
F3
14
08
F1
12
01
10
05
0A
0B
06
0F
0F
0D
EF
00
16
0E
FE
F7
F0
04
F7
F6
F2
02
0C
11
08
11
01
14
FB
F5
07
0D
07
0A
04
ED
EE
FB
FB
F9
04
09
0C
F7
FA
09
14
14
F1
07
02
03
F0
01
EF
04
14
EF
10
09
FD
EB
0F
03
11
00
EE
09
11
F8
0F
F8
07
0B
F2
F1
05
07
02
04
09
F5
08
FB
03
EF
0E
09
F5
FC
FE
15
05
FD
01
08
F3
03
FA
00
F9
F1
F1
FA
F6
F1
11
F2
0B
07
F4
09
FF
12
0E
F6
F3
09
09
00
04
FC
0D
0F
10
02
0B
03
06
07
FC
F9
FC
FC
FD
F0
01
11
F2
05
05
F5
01
FA
FC
00
02
FE
0C
08
F9
F1
FF
ED
0A
F3
0A
10
02
00
F8
04
01
01
FE
07
01
13
FE
FD
F6
01
F2
0C
EC
00
12
F3
F0
11
05
F5
0A
04
10
0A
11
0D
F5
F2
FC
FE
0D
12
01
FA
0E
EC
F5
0B
FF
FD
F9
10
ED
F6
06
EE
F2
F9
05
FB
12
02
09
0E
F1
FC
08
FA
08
0E
F7
F3
11
11
F8
00
00
FD
F9
04
FA
00
0C
07
01
06
15
F3
15
12
F1
F2
01
F3
06
0B
0C
F7
03
F5
FB
0C
F4
0B
04
FB
07
F5
F9
F9
00
0F
01
10
04
08
02
F9
0B
03
F7
00
00
0D
EE
FE
FE
04
13
F7
F2
FE
07
09
16
15
EF
F7
FA
F0
F4
FC
F5
08
F2
0F
F3
0F
07
12
06
06
09
04
03
F7
06
0B
0C
15
06
08
F4
FF
F4
0B
0B
0F
08
11
F3
03
10
11
0E
F4
10
09
F3
F9
0D
F7
F4
03
F2
F0
0F
12
F6
11
F9
0E
12
F5
F9
09
FA
02
FB
10
05
00
FB
0A
F8
EC
FE
0B
F0
0D
00
F0
EE
EE
0F
11
01
F4
F5
0E
07
05
05
11
F5
F3
F7
F2
F3
FB
09
00
14
F7
F8
F6
13
F2
F0
FC
0F
F6
08
0B
F3
F3
00
F5
F1
FA
02
0F
12
FB
F2
0B
08
14
FB
F1
F3
F7
F5
FF
0C
09
0C
02
0A
ED
EC
06
07
0E
12
F3
F3
0C
10
FA
F5
07
09
F7
0B
04
FC
F1
F6
EF
F5
0B
FE
04
F7
FF
0A
ED
0D
F4
FC
EB
07
EA
05
08
F2
05
0D
F4
FF
0D
0A
FD
0A
FE
12
07
FC
0F
08
01
09
EE
F6
FC
F6
FD
F7
F2
0F
F6
F2
F0
03
F8
FD
F7
13
0B
13
EE
FA
F1
EE
0B
FA
F8
07
F1
05
0A
0F
EC
07
0A
02
01
11
F1
FF
F5
F7
F9
F9
ED
04
F7
F1
FC
F1
0E
F4
10
FA
08
0E
EF
02
0E
06
09
02
F5
FB
FF
01
F7
EE
F8
F6
02
FC
08
F9
04
0E
0F
F7
F3
05
01
01
08
F2
0A
F9
FD
F8
EC
08
F9
04
FA
02
02
04
09
FF
0C
05
FC
14
10
F8
FB
FE
0A
F5
0C
05
F4
EC
07
F3
FD
EA
02
FA
EB
01
FB
F5
0C
F4
14
03
14
0A
0A
0E
EB
14
EE
FD
F5
0F
13
FE
EE
0E
05
13
EB
03
09
05
01
0A
EC
FD
01
03
05
01
F3
0D
F2
0D
0C
F5
F8
08
0A
F6
15
F6
12
F6
F5
F4
FC
11
0F
F8
F0
0C
ED
13
12
F3
01
08
03
04
04
F4
02
0D
FF
0C
FC
0C
ED
14
02
06
02
F8
04
0E
EE
F9
04
03
0D
F2
0F
09
F9
11
0F
EF
F1
FE
F2
FB
08
F6
04
FA
00
F6
01
F0
F8
EC
0E
F6
FC
F7
F4
06
F4
07
08
00
08
13
FC
0A
FA
F8
05
F8
06
FA
0F
EF
0F
F2
0B
FC
0A
07
F2
0D
0E
0E
05
F4
09
F2
10
13
FD
12
05
10
00
ED
0C
0E
0B
FF
FA
F4
07
F3
F4
EF
09
F1
F0
09
EF
09
00
08
F1
10
02
F9
0A
F7
F3
EC
F8
09
F6
FD
09
02
02
F8
15
12
0C
FA
F3
07
F2
EE
FA
F3
F6
F0
F3
06
F3
0D
FD
FA
F8
05
0E
FC
14
11
FE
FE
F9
0D
FA
FA
FC
01
07
F7
FE
EF
02
F3
F9
07
18
06
F6
0D
F0
0F
0A
09
EF
16
F8
0C
0E
F4
EF
F8
0C
FC
F8
F7
14
FC
FB
EF
FF
FB
13
E7
07
FD
01
0E
F3
0A
F0
F3
F2
03
02
FA
FC
05
05
13
0E
02
0F
13
0A
F6
F7
F8
FE
FD
0D
FB
15
F2
F0
03
10
17
FD
F4
EF
0E
F2
08
F6
EF
EE
F5
11
FB
11
FF
F5
04
F3
0B
EB
EE
0A
F5
F1
FD
FD
F0
0F
FD
10
EE
12
FF
07
FA
02
00
0E
07
08
F4
01
01
FF
08
F0
FF
09
EF
10
ED
01
F9
F7
FC
06
06
10
EE
F2
06
FE
F2
F7
02
F9
EF
12
F4
FF
FE
0D
F2
04
FC
F0
11
0E
F3
F4
FD
10
10
FD
06
08
F1
10
EA
08
E9
11
0D
F5
0F
FD
F4
F3
0E
FC
F7
07
EF
F9
F5
14
F4
10
FF
F0
FF
04
F1
FC
F3
FD
07
02
F9
F9
F2
00
FD
F4
F5
FE
12
0E
13
0E
F5
04
F8
F3
F5
09
EB
F1
04
08
02
F9
FF
F2
0E
F4
13
09
00
00
07
F0
F9
07
FC
F1
0E
10
08
F6
F1
FE
EF
F4
FB
FF
0B
F8
F9
F5
03
06
F4
F1
FC
F4
07
01
FB
FF
01
F5
F6
F0
0D
F2
EC
F8
00
F9
FB
FE
F4
0B
05
05
15
07
0A
EF
F8
F4
FA
11
F1
F9
FF
05
06
F1
13
F5
FA
F3
06
0B
FA
EF
FC
F9
EF
FB
F8
05
EE
0B
FA
0C
03
0F
FD
FD
F4
02
0B
02
01
F7
EE
01
EC
F4
08
F1
00
02
FB
03
0A
10
FE
F6
EF
13
0A
04
EE
F2
01
0F
F5
08
02
F1
0B
0A
F5
FF
F8
10
13
F3
0B
12
07
12
05
12
F2
FF
ED
EF
F7
00
0E
00
05
FF
0E
06
0A
11
0D
FF
0D
10
01
11
12
0F
F0
03
0D
EC
F1
F2
05
FD
05
08
F5
F5
FC
03
0F
F3
12
0F
04
10
00
05
EF
14
F9
FB
F9
ED
00
F0
0A
13
01
00
FB
F0
0C
12
10
ED
0A
FC
0C
F6
ED
FD
0E
EB
07
04
09
ED
EF
0E
08
0D
F2
0E
12
0A
03
F6
04
02
0B
10
12
F6
05
FA
12
FD
0A
0A
08
0E
08
13
F8
FC
F9
05
06
13
11
F7
13
F5
00
FC
11
05
03
09
FD
EE
F8
12
0C
FB
0C
F4
07
EE
F5
02
F3
02
F7
14
0F
FF
FC
F6
F9
F4
F2
F5
14
F1
03
0B
FF
FB
F0
11
FB
F2
08
EE
F7
FE
F7
07
ED
08
05
F8
FF
0C
0B
EF
F3
0B
06
07
05
F2
FC
11
01
00
0F
0B
EE
0D
11
FB
F6
07
15
06
FD
02
12
F7
05
04
05
0B
09
03
F4
0C
F4
08
0A
FC
FF
FF
06
01
02
07
11
FB
10
12
0B
10
0D
0C
FF
0E
FA
12
11
11
F2
14
EE
FF
0E
FD
FC
F7
08
04
0C
FA
02
EC
FC
0B
03
F8
F9
F4
F8
0F
10
00
04
06
10
F4
EF
0C
FD
F4
01
09
FB
00
09
FA
14
0E
0B
0B
F9
EE
0F
05
08
12
13
FE
F9
11
0E
0F
F2
FA
FE
07
F1
11
F2
FB
13
03
F4
F6
F0
0A
06
F4
FC
0D
02
02
EF
0B
08
ED
F8
0C
EE
F5
F7
06
F0
12
0E
FC
00
EC
EF
F4
FC
07
FE
F4
FE
06
FF
0C
F4
F4
FC
08
EC
03
01
0E
0F
F0
EF
F0
F7
03
F5
FA
F9
F1
07
EE
FB
FA
F3
FF
05
FB
06
13
0A
06
FF
FA
08
05
07
FE
FD
EF
10
EC
F9
F0
0E
F7
07
F9
04
F9
11
F6
01
0F
F6
FA
FC
02
04
04
F3
00
EF
08
F8
FF
01
12
FC
FC
FE
01
03
07
0F
F7
F1
01
F1
12
0A
0A
09
08
FE
F1
FB
0C
07
00
FA
F3
0E
F0
13
F3
0E
F4
03
F9
07
F0
F0
EC
02
F5
12
FA
00
FD
FA
0B
FC
0F
FB
0E
F1
0B
0E
F3
04
13
05
0A
F1
F1
F4
F6
12
F5
F0
09
F7
04
F2
00
F0
FD
F0
08
F7
F7
F6
02
F5
FF
04
F6
F4
12
F8
FA
F4
F1
EE
03
04
F8
F9
02
F5
0B
11
05
12
F9
16
13
FB
F5
F5
01
F7
FA
02
EB
11
F9
0C
14
0E
F5
05
11
ED
0A
0C
06
00
F5
F4
F3
EF
01
0F
12
0E
ED
08
F5
F9
09
09
08
ED
F6
FF
EE
0B
FA
0D
FF
02
0F
ED
14
F6
11
05
F5
F1
F5
0B
F0
0C
02
00
0D
02
11
0D
F3
FA
FD
FC
05
03
FD
F6
16
0E
ED
13
F8
FE
FB
F0
F9
09
03
FD
F4
00
F5
13
F9
EF
FD
09
ED
F7
04
FA
F1
FB
FD
F4
0E
FA
13
13
02
F7
01
13
11
0D
F8
0A
FB
FD
EF
01
F3
F0
01
F3
09
FC
FC
09
EF
F9
00
09
F1
EF
0B
08
FC
0A
F6
06
08
08
0F
FE
07
0A
09
F1
FA
FC
14
01
05
FF
F3
07
0C
F8
0F
06
F7
0E
10
FE
07
FC
F3
F2
12
0F
ED
10
EF
0C
0C
FD
F8
FA
0F
FC
14
F1
0D
F8
F4
F3
0F
0E
F5
03
0A
FE
0F
FE
FA
EC
03
0D
FF
12
0D
11
10
06
00
0E
03
F6
0C
F9
FC
02
EF
07
FD
12
F5
06
F4
11
EE
F4
FA
08
FD
0E
FF
EF
FF
F7
01
05
EE
FB
02
FF
FA
08
0C
F4
FF
00
02
FA
F2
F2
02
F4
01
F6
FB
04
05
12
F3
0F
EF
09
13
0F
FB
F8
FE
F4
0E
05
06
10
F1
F7
F6
0F
FB
13
F5
F5
0F
F9
F5
0E
F5
FF
F8
13
16
FD
EF
0F
11
F0
09
06
EF
FC
FD
FD
FE
F0
F6
F7
F7
0E
EC
FB
09
ED
15
F1
03
19
F5
F3
F9
F4
FF
04
F0
13
ED
01
08
F2
09
13
0C
05
06
04
01
09
07
11
F9
F7
F8
F2
EB
02
F3
F3
EE
F5
EE
14
0B
F1
F3
08
0B
03
00
10
0C
09
05
03
EF
ED
02
11
02
F7
F4
11
06
10
ED
F1
E9
08
07
06
FD
F8
F1
F3
11
07
F0
F3
0B
14
02
08
10
F4
FA
0C
06
03
EF
F2
F4
F8
12
FF
F3
04
11
07
F8
03
FC
F9
F2
FF
EE
14
FD
FD
FF
EF
0A
0B
0C
0B
FC
FF
12
F3
0E
0B
F6
02
FE
00
0C
FB
F5
08
F2
EB
ED
12
F1
11
F3
0C
06
EE
F7
FD
F0
10
0A
13
FF
FB
0A
F4
0F
07
F9
01
F1
0D
F2
04
ED
ED
08
02
11
F5
00
FE
F3
F3
01
FF
09
EF
0C
01
EF
0E
09
FE
FC
FC
EF
02
06
EE
0F
FC
01
0E
09
05
01
07
0B
09
F4
0B
0E
15
EC
0D
02
05
ED
06
05
08
0D
FB
FA
EE
F6
0A
ED
F6
FD
F1
09
0E
01
12
F2
F0
00
03
0A
F8
09
12
F3
EE
0E
FE
F1
00
0E
08
FF
F1
EB
F6
0C
FC
F0
0E
F9
F0
F0
F4
06
01
0A
FA
10
FE
0E
12
F8
FD
F6
EC
02
11
FB
F8
10
0E
05
FA
00
04
0E
FB
08
13
14
FF
02
03
F2
F0
F9
ED
06
F3
F9
EE
0C
0B
0D
FC
03
09
F1
F0
03
F4
F8
FD
07
EF
EE
06
10
09
F8
0F
05
ED
F3
EB
11
FA
FD
06
00
0A
06
F3
05
F9
08
10
FE
11
11
F5
10
F1
02
ED
FF
00
03
FB
F8
F0
F2
EF
13
F3
F4
EF
0C
F3
15
E9
0E
03
F8
09
08
0A
0D
EC
F4
0F
FB
F2
03
06
10
F4
00
14
06
FD
13
0A
F7
12
00
01
FB
11
0B
06
02
12
09
04
13
FA
02
07
0C
FF
05
F5
F3
0B
F1
EF
06
F9
F0
E8
0D
09
03
12
11
0A
09
0E
FD
10
FD
F3
FE
F5
F1
EC
04
F3
EF
09
F0
06
FC
09
0C
05
F7
03
F7
FC
FF
FE
05
FA
F0
FF
0F
0D
12
01
02
0C
01
07
F6
08
01
EC
FC
01
F8
ED
FF
0C
13
F4
05
07
03
08
EC
FF
F6
F6
F0
03
F5
F3
09
0C
FE
ED
04
0E
F5
03
FE
0C
0E
F3
05
05
0D
F4
02
06
F0
FC
0F
08
01
0E
F5
0B
F1
F6
F6
F4
FD
F3
FF
12
F2
FB
F1
06
02
FE
FB
F8
0D
02
EE
F6
0E
02
12
01
F7
F1
05
F3
0F
00
0E
F5
FC
F9
10
F8
F5
EE
F8
0A
06
0A
FB
FC
0C
F5
07
07
FA
0D
FE
10
F1
0B
09
07
FB
08
04
F3
13
FD
06
07
FD
06
03
13
F2
0E
11
FA
09
12
FE
EA
03
FC
06
0C
13
02
FD
0E
FA
FF
01
F0
F7
FE
F2
04
EE
EB
FB
ED
07
10
0D
08
05
0B
08
F3
04
FA
EC
F1
FF
F6
14
F7
04
0C
01
09
FC
02
11
04
F8
02
F4
0F
0A
F6
00
F7
F6
FD
EF
15
07
03
F6
0A
07
0C
FA
10
EF
F6
15
FC
07
0F
10
F2
F6
14
FD
09
09
12
EC
FB
FF
01
0F
F6
EE
FC
F5
13
10
FE
0B
04
FD
0C
02
03
F3
F4
0C
0D
F4
05
0D
06
F0
F5
F1
F1
08
0F
F0
FE
02
01
05
ED
FE
13
06
07
F3
FC
F1
F2
04
00
FD
EE
01
05
13
F1
10
FC
05
F5
FB
EB
0F
0E
F3
EB
EF
11
F3
09
0C
10
F7
F2
FF
11
01
FF
F7
0B
F8
0C
00
03
0F
FF
0D
F4
14
F0
00
FB
03
F4
F9
06
0D
FA
FD
0D
FE
F1
FD
F9
0C
00
F2
0A
F7
FF
10
EF
0E
F4
10
0B
FA
F6
08
F0
0A
F6
F5
0E
0A
EF
03
02
12
04
07
F6
07
05
FC
F1
03
08
0B
0E
13
F3
FC
EF
05
EC
F3
15
EF
08
F4
01
F2
FD
FE
ED
07
FE
0F
F0
0C
F6
0D
FF
F1
F6
FD
03
0C
EB
F7
05
F5
EC
0B
02
F1
F0
F7
08
09
07
FB
ED
0E
EF
10
0E
F4
05
F9
0B
0C
F8
F1
0D
00
FF
F0
FF
05
13
EE
15
10
13
0A
F3
0B
F3
0A
F7
08
F2
F0
12
0C
04
07
FC
0F
03
F1
05
F4
F5
10
00
F4
01
01
FF
10
13
F9
ED
F5
F5
08
EB
FF
F3
01
0B
F8
0B
EF
06
F6
05
12
FE
F1
12
14
00
0F
01
0C
04
F4
12
04
F8
00
F3
0F
EA
F4
FC
F0
13
0A
F6
F6
F8
00
EF
ED
F1
06
FE
FA
F5
FD
F5
FF
09
0C
0A
ED
0B
F9
0D
F1
0D
F4
F5
06
0D
06
12
05
FC
0C
10
FC
09
F7
F6
F3
01
07
F9
03
12
FB
14
0C
06
F4
11
09
FC
F6
F4
0A
EC
00
08
09
12
00
FF
FB
FD
0A
FC
F6
FC
F5
13
F7
08
12
F3
F4
15
FF
03
FC
F9
04
F6
ED
F1
EE
06
F9
07
F9
FD
FC
F0
01
F3
F2
02
12
04
12
01
16
04
F4
EC
FC
F6
F8
05
F1
13
F6
FB
F4
01
04
F4
00
12
FF
08
FF
F1
F6
F6
14
0C
03
F4
07
03
06
F5
EE
FF
F9
06
FB
EF
0B
0F
0C
EC
15
00
03
F4
EF
05
03
F3
F4
02
FA
0E
00
F0
0C
07
09
F4
11
04
02
0A
0A
EE
FD
0D
F0
0E
F2
F1
02
F9
FA
04
0F
F4
0C
0A
F1
FB
F4
F7
13
10
F1
09
14
F6
F8
08
FF
13
FF
F1
FC
FE
06
FA
06
0A
0C
FA
0D
09
00
0A
03
F9
F2
05
00
FD
03
12
FF
F7
F9
11
F3
FF
F8
13
05
0C
02
FA
10
0B
0F
12
EC
F9
0E
FA
F5
0F
0D
FF
0F
F1
06
F2
04
07
17
FB
F7
F0
FF
F6
F6
EE
02
0C
F7
F1
FF
ED
EC
F7
FF
F0
0F
F5
08
0E
13
00
07
01
02
02
EE
12
0C
F6
07
07
09
F2
00
0A
00
FB
FC
F4
EF
08
FC
FD
00
11
FC
11
01
F9
F0
FC
04
F3
12
07
FC
0E
FE
08
12
FB
0B
F6
F8
0E
02
ED
03
F7
F6
F9
04
12
0A
00
FA
13
08
FA
10
FE
FA
08
0D
F3
0C
F8
12
F5
08
0A
07
F5
FA
EB
01
10
FA
04
11
FE
FF
FF
0F
EE
F4
EE
13
00
03
11
F7
0E
F3
0A
00
F4
05
09
F3
07
11
02
F1
0E
14
06
0F
F7
F3
09
FA
F5
0E
0C
F6
F5
F2
0E
FB
FD
FD
F3
01
07
09
13
04
F7
03
EE
0E
0D
07
F0
EF
00
F9
F8
F6
EF
F9
01
0F
02
F3
F1
08
0D
0E
0C
03
FF
F7
0D
0E
0A
EA
F0
12
0F
11
F1
05
12
F4
F9
FE
F1
10
F8
0A
0C
0B
0D
F9
F7
FE
12
FA
F8
FF
0A
06
06
EC
0A
0F
04
FF
F1
0F
F6
13
F2
F0
08
00
08
F2
0C
EE
FA
F2
01
EE
F8
0E
F7
01
0E
0B
FA
0C
0D
F5
0F
F5
0E
02
0C
0D
F6
F1
04
FC
0D
0F
FB
EC
F9
EE
02
12
0E
0B
02
12
F0
ED
F0
0E
02
EE
06
0F
F5
0F
02
08
0D
F4
F6
07
15
14
F6
06
07
EE
06
05
FA
10
03
06
06
0C
01
F7
E9
FC
F6
0B
05
F4
F4
EE
FC
00
EE
F0
F6
11
FC
F9
0C
14
0C
F6
F9
FF
11
0A
EF
04
05
0C
0A
12
F6
0F
FD
FF
0A
11
FF
F7
F4
11
06
FD
F8
0E
F1
12
05
0D
0D
FF
EB
FF
09
08
FC
0C
0A
F5
EF
03
0B
0A
F5
0C
FD
F9
06
06
01
F5
F8
EA
15
06
0F
FB
F3
08
EE
F3
FB
12
ED
10
11
F6
08
12
0A
0C
FA
0E
0B
00
00
FC
06
FB
F6
FD
08
0D
13
06
F6
12
0B
04
ED
13
EC
FA
F8
EC
02
F4
11
EB
F1
12
15
14
EA
EA
12
13
08
05
FE
FA
03
0D
08
12
EE
0B
F0
09
FE
09
0A
FE
F1
02
F6
F8
F7
F0
F6
15
F7
14
0C
F3
ED
F7
18
FE
FC
0F
F0
EF
0B
02
0E
11
01
05
F6
02
0E
10
0A
03
F6
08
FD
0D
F9
F1
10
F3
0A
0A
04
0B
ED
07
F7
F4
08
03
0A
12
0A
F3
0A
09
F6
FD
04
F3
0A
0D
F9
14
EB
FC
0D
0A
FB
F5
0E
EC
FB
EC
02
FC
0D
02
FB
ED
F2
F4
FF
0B
FA
FC
05
10
FA
02
F3
11
FF
0E
06
EE
EF
FB
F6
03
08
FD
EC
FF
11
0B
F1
08
07
F4
08
07
ED
F5
EE
12
FB
F2
F4
08
FF
05
F8
F9
0C
F0
F1
09
01
0C
FE
11
00
0A
03
F4
0D
0C
F1
0E
F7
0B
0A
F1
06
EF
0A
FE
11
08
EC
F7
F4
0E
0C
0A
09
0F
FC
04
F9
F6
FD
F1
FF
F7
05
0A
0A
FD
FC
10
00
0F
F9
ED
08
12
0F
F0
F0
F2
0E
FF
06
04
00
05
08
FF
E7
FE
F7
01
00
0C
09
F8
00
07
0F
13
13
10
06
14
12
FB
03
FC
F8
F3
F4
11
02
04
FD
13
01
03
FE
F7
14
FF
FC
03
11
05
F3
07
15
F7
FF
0A
04
EF
FD
0B
04
F3
FA
FB
F4
FF
08
EE
12
F4
EF
FD
F0
FE
F1
F3
02
03
08
F3
F5
0F
F1
02
FE
11
F5
06
F4
0B
FD
08
10
0E
F0
F4
FE
0C
FF
FF
F4
07
F3
00
F9
FB
FF
10
10
0B
0C
03
FD
EF
F9
10
F9
FA
0D
F1
0D
FC
08
06
F4
F5
F2
F6
0E
F9
EE
07
12
F4
0A
01
F8
0F
F1
F1
F4
07
F2
F4
0B
03
F5
F7
F3
0C
0A
F2
F3
FA
11
05
0B
F2
F8
15
16
F6
05
F6
FE
FA
F1
FB
15
12
EC
0D
08
F9
EB
07
0C
0C
02
ED
02
F9
0F
F8
0B
FC
0B
0A
08
FE
0D
11
F7
F5
04
F0
09
01
01
FD
FF
09
FA
F2
FC
F8
FE
FB
F9
06
EF
10
F2
F0
11
F3
EE
0C
FC
EB
0B
07
EF
EC
F1
08
07
02
F7
EF
0F
F8
02
FC
0A
01
FC
EC
EE
FE
EE
F9
0A
01
F5
F2
FF
09
04
F3
0B
FB
0A
F6
F9
E9
00
10
06
E9
00
04
F0
0B
0D
F5
FB
08
08
0E
0B
09
FC
04
F7
F5
F0
0C
F6
EA
10
E8
EE
F2
08
0A
01
F7
08
F3
FD
ED
0E
F2
0E
12
EF
F9
0B
F4
FE
0F
07
07
05
01
F3
00
10
F2
F9
09
08
02
EC
08
F9
0B
F9
FB
F0
00
0A
01
EF
0A
ED
0E
12
08
F5
15
F7
F2
FC
0A
0F
F4
0A
F5
03
0D
F8
F1
06
FA
F3
0E
07
FA
08
03
02
FE
01
0B
06
11
13
02
09
06
F8
F9
EE
06
07
F1
FE
0E
01
EF
FC
07
03
FD
F6
0E
12
01
12
0C
FB
F4
0A
FA
EF
0C
11
F2
F7
EE
EC
F4
09
03
0A
09
F2
0D
F4
FA
FB
F2
EF
0A
07
FF
FE
05
F8
F2
02
F3
0D
00
06
02
F4
02
14
0D
EB
F5
EC
F6
10
0A
FF
03
F4
0C
10
F9
07
08
02
F8
04
F3
FE
10
0C
07
F7
11
F6
0F
FF
FA
F0
0D
FB
0C
EE
0E
0B
02
07
10
F7
10
12
01
F2
08
FD
0B
F2
0A
EE
10
FE
11
06
F1
ED
13
EE
FC
09
F1
F8
11
04
FB
03
F4
FE
12
04
F2
08
FD
F8
FD
09
EF
EE
F4
00
0A
F2
FC
0D
F4
0A
F9
12
13
09
00
FF
07
0C
01
02
F0
11
02
01
08
0D
ED
F7
F0
F3
06
01
00
13
FC
F6
14
F9
ED
07
FC
05
F8
FA
12
0D
0B
EF
11
05
06
FB
10
EB
06
08
F5
06
02
14
01
06
F8
FA
09
F2
11
04
F6
FD
FC
06
0C
14
17
09
F4
0A
FF
EC
09
FD
EB
F1
F1
01
F0
0A
EB
02
00
05
FC
F8
00
F2
07
17
0B
11
F4
FF
FD
F3
11
0F
10
F6
F3
EE
10
07
0F
F5
07
F8
12
09
0B
EC
0B
00
10
F2
07
11
0D
05
0C
0E
09
06
0A
F2
EE
F0
11
11
00
FC
F7
0F
F1
F5
FA
02
0C
0A
02
0C
08
F7
FA
06
10
F0
0B
03
02
0D
0B
F9
EE
FE
08
F8
0F
F7
11
10
04
0C
0A
EE
11
F2
08
FC
FE
13
01
EB
FB
00
ED
0E
05
01
EE
04
06
EF
FF
F0
FC
06
06
F4
05
0F
EA
F0
ED
06
09
06
F8
FB
0F
FC
F1
03
0A
F7
F2
FB
F4
F9
EE
0E
FF
F8
0B
F1
FE
FE
F4
F6
0D
03
0A
FD
15
0E
FB
F1
12
FB
0E
0D
F4
FD
F8
F1
0C
FF
FB
F7
FE
F0
FA
12
FC
F3
07
EC
F7
F1
00
F7
F3
F3
0F
0C
00
FB
18
00
0E
F0
0C
FA
FD
F8
EA
15
F5
03
FA
F1
E8
F8
11
F7
10
0C
0B
02
00
F6
ED
04
10
10
EC
F0
F0
10
FD
EF
0B
02
F6
02
0A
EA
FA
01
00
F3
F6
FE
05
06
0A
05
FD
F1
13
F0
0F
FD
EE
11
FB
09
F8
F5
FC
EE
EB
0F
0A
FB
08
09
0D
EC
F9
05
04
EF
FD
10
F2
01
05
FA
0D
FF
09
F5
F4
FD
09
0A
F3
04
03
04
00
0B
03
F3
F6
17
FC
0C
14
14
F3
F7
00
F1
05
F8
0A
0E
14
EC
F8
02
11
09
0E
0F
EA
FF
FF
04
15
EB
F4
FF
F0
10
04
F3
F5
15
00
FB
FB
12
01
F7
F0
03
F5
F8
09
E9
FC
0F
EF
F2
FA
F8
F3
02
07
FC
F2
FE
F0
03
EC
03
07
FC
17
F7
F0
EB
F7
06
15
0E
03
F9
06
0C
13
0F
F0
FB
FD
01
FC
0D
FB
0C
F5
FA
09
F6
F9
FB
02
FF
03
FF
FF
01
05
0E
F9
00
0A
FD
F0
08
F2
0D
0D
FB
0D
01
FD
06
F6
E9
0E
09
09
08
F7
0E
EE
EC
FE
07
F2
0E
F3
0C
12
FD
FC
F6
14
F2
FF
15
07
07
01
04
FC
F6
0F
F7
02
EE
E8
12
F6
03
09
F2
07
F5
F7
06
11
F1
FF
F2
12
FE
0A
F1
14
0C
FA
FD
00
F0
00
03
FB
00
0D
F7
01
05
11
FF
11
06
ED
FA
FC
FD
FF
EC
F4
FD
01
FE
10
F8
12
FF
F2
07
FC
16
09
F3
15
EF
FE
10
F8
02
0D
FE
F7
FE
FC
0C
F5
11
01
02
0F
FF
00
F7
0D
06
FE
FE
F8
0C
09
F0
EE
F7
F2
08
F6
F1
04
0B
09
05
EE
11
0C
13
0F
FE
FA
F3
15
F6
F9
01
EF
16
02
02
0D
07
0C
09
F4
11
11
FE
F5
04
F1
12
FA
0F
09
FB
02
11
FE
0E
F5
0E
04
F2
F0
F3
04
FA
07
F4
EF
F5
10
EC
04
FD
F2
F6
06
0C
F1
ED
02
EC
F7
01
F6
FE
05
F0
09
F9
F9
0C
08
11
E8
ED
EC
11
02
FF
01
F0
01
EE
0D
EF
0D
0A
F4
02
F9
FC
F2
0E
F7
FC
F7
0B
0F
0B
EA
F4
FF
08
FE
0B
15
EF
01
F8
EF
FF
12
F6
15
EC
FB
FE
F0
F9
FE
FB
FF
EF
0C
05
03
01
05
FA
FB
FB
FA
F6
F6
0B
14
03
06
F0
F8
F4
F5
F1
FD
F1
00
07
00
02
09
0B
0B
0F
FB
10
09
FB
F2
02
F9
00
EF
11
0A
05
F8
F8
02
F3
F8
0B
F5
0E
FB
EF
F2
FE
EE
0D
F7
11
05
F9
14
0D
04
02
FA
F3
F5
EE
09
16
11
12
F5
06
F0
06
0A
15
02
03
03
15
F0
0A
0C
01
14
F1
07
EB
18
EE
F6
08
0B
FA
14
F8
F9
12
0F
F2
F4
08
ED
00
EE
06
F9
F4
F9
FF
02
08
F7
0A
09
0A
0B
F2
07
0A
F1
0B
FF
F3
11
07
0F
02
FD
0E
FC
01
FF
01
03
F8
F9
F0
02
0D
0B
09
FA
12
FC
FB
0A
EE
11
14
ED
FB
F2
F6
F8
0E
FD
01
15
03
F1
F2
0E
0C
F2
12
0A
0A
F2
F6
0B
F1
F4
F7
FB
0B
11
F7
05
FA
F3
00
00
05
F3
05
F6
09
F6
13
F0
EC
F4
16
FC
F5
F9
0E
F9
03
16
01
FF
FC
F8
03
00
0F
10
11
EF
F6
13
0A
F2
11
FE
04
00
11
FB
07
F4
0D
FF
0F
F4
FB
08
0F
0B
FB
17
F8
FA
EB
06
17
0C
0A
F6
F5
EC
01
FB
FF
0A
10
04
01
10
0A
08
F5
00
11
FD
12
F5
F8
F7
F1
0C
0F
FA
0D
09
F4
00
FD
0C
05
FD
F3
14
10
F0
02
07
FA
0E
07
06
F6
04
05
EF
FC
FE
02
08
F7
15
F2
FA
0C
F7
F5
F4
0C
ED
0F
EF
06
10
0B
04
FC
F7
10
03
13
15
02
09
03
0C
01
06
0A
12
11
F5
FF
F8
08
F3
FC
F6
0E
01
F4
06
0C
09
05
F7
ED
08
06
0C
F6
04
01
F1
02
01
F7
F0
08
F1
09
06
0D
0B
0E
FA
06
02
FA
01
15
08
EF
03
0D
F5
F4
0B
08
07
0E
F9
EC
04
F2
F2
FB
F3
FD
09
FD
0D
F4
FC
F4
09
06
08
F3
12
F5
0C
F7
0C
FD
14
03
03
FC
F0
06
F9
12
0B
FE
0F
FD
FB
0B
F3
07
FD
F4
FF
F1
F2
0C
05
F7
F4
0F
FD
0A
FE
0B
F9
0F
F5
FF
10
06
11
F3
FC
15
06
FF
F1
07
0D
EE
03
FA
07
F1
F1
09
0F
12
01
F7
FD
02
F4
F8
F5
0D
F7
EE
06
ED
F6
02
F8
F7
04
15
F4
FC
0C
06
06
FA
F5
F7
F0
10
12
F2
10
09
FA
FC
F8
F5
F6
FC
F9
0C
13
F9
12
F9
02
F6
03
FE
12
F7
FD
0D
05
11
14
F4
08
F5
15
F4
F4
F5
0C
0F
05
EE
02
05
15
F1
F2
FC
EF
06
0F
09
F6
11
00
FB
0A
FA
06
11
FF
FA
10
0D
0A
F7
F2
0A
F1
0A
F4
FA
02
13
F4
12
FD
F9
10
F8
F7
F3
13
10
F3
F8
01
03
F0
F8
F8
13
0C
13
03
FC
07
F7
FF
00
07
F4
07
F3
F3
08
F8
0B
F9
F7
0E
FA
07
FC
FC
08
0B
F4
F7
ED
F4
0A
F9
F7
F5
09
0E
0C
04
F1
FC
EF
05
F4
01
EC
F3
02
EB
FC
F1
11
EB
FB
FC
F7
0A
0A
F5
FA
FF
F4
FC
F4
FE
EC
0E
0F
F7
F6
F9
10
F4
F7
0C
0A
F1
F4
FC
F7
09
00
14
03
F5
EA
F4
F6
FE
04
10
0D
09
0D
00
03
FD
00
04
FB
0A
FA
F9
08
FA
F5
10
0B
F9
12
F3
FF
F6
12
FD
FC
FF
FA
0A
F9
F7
FD
FF
0E
0C
F9
F0
F4
02
11
F2
EE
02
12
0C
03
00
0A
02
FF
0E
08
EE
0C
03
FC
FF
06
F5
05
0A
11
EE
09
F5
07
F8
FA
07
0F
03
FC
0B
F6
13
F2
F6
08
EF
00
0D
02
02
13
0D
05
02
F9
02
EE
02
FC
02
F1
09
F0
0A
0B
FA
F2
F2
F8
10
FA
05
FC
0A
FE
10
F7
0D
F3
11
F9
0C
F4
F9
06
03
0C
0F
02
05
F3
09
FE
FB
FA
07
F8
04
F4
FF
F2
F2
FC
FF
06
F4
00
F9
F4
ED
EF
F8
ED
0A
FE
05
07
EE
07
F4
F1
03
02
08
F2
0C
0A
14
EB
07
ED
00
F9
FC
FD
12
F7
F8
FE
12
F3
0B
11
05
14
01
FC
01
06
10
07
06
F7
E8
F7
00
0E
F3
0F
EE
04
FA
F6
F1
F5
00
0E
EC
F3
FC
04
03
01
09
F5
FC
06
03
04
F7
11
FA
05
04
02
04
16
FB
F4
F4
05
FA
00
0B
FB
04
03
0C
03
F0
F2
0F
F1
EC
16
EE
00
ED
0F
13
08
09
0A
F1
F1
F7
F9
F0
F8
F9
FA
01
04
09
02
10
ED
12
F5
0E
11
04
02
F7
07
08
FB
FC
01
09
10
04
03
11
F6
FE
F3
0B
0F
02
0E
01
FF
12
03
0F
02
F3
04
02
03
F3
EA
0B
F1
14
08
13
07
10
0C
11
0E
06
F3
FF
F4
F0
F4
11
FF
F4
F4
F9
08
0B
FB
FC
04
FC
0A
12
EF
14
04
EF
0D
10
09
05
0A
03
09
0E
FC
11
F7
10
FA
11
0A
F6
FB
04
0B
02
F5
06
F6
FB
F7
12
F3
08
EF
FA
EC
FF
14
03
FF
06
FC
0F
03
F6
FF
0B
17
14
13
FB
F8
08
00
10
02
0A
F9
F6
EC
F5
FD
EF
13
02
01
08
08
EF
01
0F
F3
0C
F7
FB
0D
07
F9
0D
F4
06
F5
F6
FE
0D
0E
10
F4
F4
0D
10
EB
F6
ED
0D
05
10
0E
08
F0
FD
0F
E8
03
F0
EF
F7
FF
06
16
14
0A
12
0B
F1
FE
F5
F5
02
16
06
06
F3
03
F7
09
07
F1
00
11
05
FA
05
F1
F3
07
F5
FD
EB
FF
02
0E
0C
F9
0C
F2
15
09
F6
FC
0A
08
0C
03
0B
15
13
FF
0B
F6
06
F6
FC
08
F5
F8
04
07
F4
F7
09
FE
0A
F4
EC
17
EF
FE
F8
10
F0
0D
F1
09
00
EA
01
F5
10
EB
0E
F4
15
0E
F5
F7
0B
08
F5
F8
06
0F
06
15
FB
0B
F2
F7
EE
F3
05
14
F8
12
FD
06
EB
04
F8
FF
03
04
FC
EC
FC
0B
02
F3
02
FF
F9
00
FC
F3
EE
0A
EF
0E
0F
EE
11
0C
04
FA
0F
0B
FB
F9
0F
FE
FF
0B
F8
FC
03
F2
0D
F4
FB
FE
E8
06
10
01
02
FD
FC
12
F7
F0
F3
F3
FF
08
12
FE
FC
14
02
FA
F3
F9
08
03
ED
0D
12
03
0D
12
F3
0B
08
F7
FB
0D
05
15
F0
0A
FC
05
EE
FF
02
F3
FE
0E
06
00
FA
00
0D
03
F7
FB
05
11
07
00
09
06
13
F7
08
F6
04
00
FA
FA
0D
FC
10
04
F5
FD
02
F6
0D
02
FF
F3
14
05
FA
04
F5
F5
12
F4
11
E6
08
05
EB
FE
F6
FD
F6
13
EF
FC
FD
FD
FB
FF
FC
0F
09
08
F4
F1
ED
F9
FB
FE
F7
08
F2
08
FA
14
F0
F2
FF
EE
F4
F9
FC
EB
0A
ED
0A
FD
0E
00
F3
01
00
08
17
01
06
F2
F1
10
01
14
F5
06
FF
F9
0A
EF
0A
F6
FB
EE
FD
07
FC
EE
FA
11
F0
16
EF
06
02
01
12
FE
11
F7
05
F7
0D
FE
13
ED
0D
EB
01
F8
EC
09
FF
09
0C
FD
0B
11
EC
04
F7
F4
ED
F8
0A
0C
07
12
10
F7
08
06
FB
10
F8
F9
03
F5
F6
01
FF
00
F4
EC
F4
FC
09
EA
FD
F9
10
01
06
05
F4
EE
03
01
E7
0A
0B
14
F1
F0
00
F9
F2
ED
F8
11
0C
F0
01
FC
05
10
10
16
F3
EB
01
F0
01
02
ED
FD
11
EE
09
08
FE
12
FC
F3
F1
14
10
0E
0B
0C
0F
F9
06
F4
FD
F7
FE
0D
09
ED
09
F2
0E
10
0B
F8
11
FD
0C
EC
F0
F9
EF
F2
03
0F
0C
01
0F
01
F1
14
F2
14
0B
FA
15
11
07
00
11
F8
F3
09
FC
F2
05
FF
F0
0F
F3
04
05
F9
F4
05
F2
E9
04
FF
07
F1
00
F1
F9
0D
0B
13
FA
03
FC
04
E9
17
0D
F8
08
0F
F3
12
F3
01
03
FD
01
F9
FC
F1
0F
12
FD
03
12
07
07
0A
FF
0F
F7
F9
FF
0A
09
F0
03
ED
14
02
10
FD
00
F2
04
F1
11
03
F5
F4
11
01
F2
F1
EE
F7
05
08
0B
13
F7
FB
13
0C
03
F3
11
0F
FA
08
F1
13
05
12
09
10
FD
F2
13
05
FC
06
FA
06
02
F1
F2
FF
08
ED
00
EE
0A
0F
13
03
FE
EB
04
07
08
F6
0A
0F
02
0F
FB
F9
F0
F3
F3
01
03
FF
07
11
03
05
01
F7
04
FE
F1
FC
F6
F8
10
F7
F3
F3
0D
F1
10
11
F6
05
FF
EF
F0
FA
0C
FD
FD
F5
09
0A
13
F6
F0
0A
F8
00
03
0D
FF
11
F3
F0
FE
02
F5
0F
10
ED
F2
02
EF
0F
02
F3
ED
03
00
15
0B
FE
03
16
FA
FE
08
F0
F2
FF
F2
FF
F5
F8
07
09
10
F2
03
0B
FA
F1
09
FC
F9
F8
01
FF
F1
08
FC
FA
03
FB
07
F2
F1
0F
0E
FE
FD
10
F4
F5
FB
FD
F3
EF
01
F8
06
03
03
F9
0E
09
05
EE
FD
F9
0F
F6
04
0D
09
F2
0E
FC
F7
FF
FF
03
10
07
0E
10
EE
EF
F9
F6
11
10
13
FB
12
03
F5
0A
FE
F1
05
0F
FE
F7
F0
0B
06
FE
06
0F
F8
08
02
06
F3
FD
13
FD
F0
F4
F8
0E
F1
03
FF
03
09
FA
10
F3
14
FF
05
FF
F6
FC
FC
EF
14
F3
FA
F7
10
0D
FC
ED
FE
F6
01
08
F4
F1
FD
0B
02
FF
F8
EC
F2
F1
FB
EF
05
F6
FD
03
06
F7
F0
F2
EF
03
01
FE
12
0A
EB
06
F2
01
0D
F2
0F
F8
F2
02
05
02
F5
12
01
F9
00
F9
0A
0F
01
07
08
F1
FD
F6
0F
0B
0B
10
0B
0F
ED
15
0E
08
FF
FE
0E
F6
FE
FC
08
0F
F9
0C
FF
F2
ED
F6
07
0C
F6
02
EF
FD
13
0C
F2
12
09
EE
F6
0D
EE
EF
04
F9
03
FF
11
0D
EF
F2
01
F5
08
06
F0
05
04
FA
EE
04
0E
03
F6
12
02
F3
02
F0
07
F1
FB
FB
13
F0
12
F7
F4
15
05
0D
F9
0A
0E
0E
EF
FB
0A
FE
F6
0E
00
0C
10
F0
FA
FA
10
F3
10
FE
0C
F1
EC
09
0D
FD
F7
F7
FC
FF
0E
F9
F6
0A
00
14
08
FE
12
0C
0C
F5
04
0E
02
08
07
F6
EF
14
0B
04
F8
0B
F7
FB
10
EE
F7
F5
07
FF
ED
07
08
F3
F1
F1
02
F0
0F
0E
12
F9
F0
05
02
00
11
F8
F4
09
0B
0E
00
0F
09
FB
0F
06
0F
05
EE
EA
FB
FE
FF
12
0E
FD
10
F0
0C
ED
F5
F4
F7
F5
FD
15
01
F3
FD
F4
FA
EF
F6
FD
08
F3
05
01
F0
00
0E
F3
0E
FE
FD
EC
F9
F1
02
13
0C
FE
04
0B
08
0C
0E
FE
08
F3
0D
03
FF
F1
F8
F2
0E
EB
EC
0F
05
FF
FE
FA
07
F5
10
0E
EF
F7
F2
FC
0B
0F
FC
F1
11
FC
09
09
F1
F4
F9
07
FA
FC
0C
11
F9
0B
FE
00
11
08
07
FC
0B
0C
F2
EE
01
FD
F4
11
F0
00
05
EA
FC
11
EF
14
01
13
14
0F
FB
FD
FC
F0
08
11
07
0B
00
16
F4
EC
F5
0A
12
0C
01
0D
EE
05
04
F7
F2
0B
F3
FE
F3
12
0A
06
0D
03
12
0E
FA
0F
FD
0A
F8
F9
0E
F3
09
ED
F0
03
0B
F5
0B
F3
F3
FD
0E
FB
FA
FB
09
11
12
FF
ED
FD
F5
EE
0F
F2
FF
F0
F6
F5
07
09
FC
11
04
FB
03
02
F9
0C
05
0E
F5
10
EE
F9
09
FA
F7
FB
F1
F1
ED
06
F7
04
02
EE
0E
FB
09
01
05
EB
03
FF
F4
0E
F0
03
FC
F6
EF
F7
FB
EE
0C
12
F6
FA
03
0D
02
10
F6
EB
EF
0B
0A
10
FD
F3
F2
0E
05
03
01
0F
F7
00
03
F8
FA
F8
11
14
0C
08
F9
0D
F9
10
0D
01
10
EC
0A
FC
FB
FC
EE
01
FA
16
0D
F2
FF
F0
F6
0C
0F
FB
F0
ED
F6
F6
F7
01
0B
0B
0A
00
07
00
06
FD
0E
EB
08
0C
0D
FB
14
08
F9
F7
FF
0E
0D
F3
13
F5
FE
F2
00
F4
04
F2
04
F0
FF
05
FD
F2
04
F0
08
01
07
11
0D
0B
10
0F
F9
05
0D
0C
05
0F
F6
03
EC
06
EB
07
F7
F8
F0
F6
F6
F2
05
08
FC
12
F7
13
08
10
F4
F2
F1
04
F3
F4
06
F3
05
0F
10
F2
F3
F5
01
F5
12
FA
07
0F
EE
F8
0B
00
11
0F
F7
F5
0E
F7
08
F2
08
F5
02
F8
0F
11
00
03
F4
F6
FA
FF
08
04
08
F5
ED
F0
EF
09
FC
0B
FA
F0
F4
F4
0E
07
0F
F7
0A
07
F0
FE
F5
F8
05
F6
14
FF
11
10
08
03
ED
07
0D
05
05
00
F4
F3
13
FD
0B
FE
F9
FC
F6
F9
FB
FD
F2
F9
F9
01
F5
F3
03
FB
EC
F3
F2
F6
01
0A
F4
07
F6
07
EF
09
01
FA
05
F3
0B
F0
F7
0D
FD
F7
0A
0B
FB
01
0F
0D
10
EF
FF
01
FD
07
EF
FD
05
07
F0
F8
03
FC
04
FE
F3
EC
0C
07
09
F0
FA
04
05
13
F0
F4
07
0D
01
08
EE
FA
EA
F2
EB
F9
08
0F
F5
11
FB
06
FF
10
FA
F0
01
13
16
01
10
FF
0D
03
0A
04
0A
FC
F8
FC
F0
0B
F9
09
04
EE
F2
14
F2
F1
FB
0B
06
FA
0E
14
03
0F
01
0D
01
07
04
F5
0B
09
F1
F3
0F
EE
03
04
F6
FB
FF
FF
F6
F7
F7
ED
0F
F7
F7
07
EF
14
F6
F9
0F
00
F8
08
13
ED
00
09
EF
08
EC
F9
01
16
EB
08
F7
F3
F3
01
0A
F2
06
07
0B
04
16
E5
0B
09
0A
F5
0F
0C
F8
FE
07
0C
06
FC
03
03
0A
0E
0C
03
FD
01
0A
F2
FD
FE
14
F1
00
F6
0B
ED
0E
F6
FE
EA
F8
0B
0E
EC
FA
FF
F3
0F
09
0A
FD
FC
08
16
02
06
09
05
04
F4
0B
0A
04
0D
16
06
0C
F3
FB
0E
FF
13
00
0D
03
EF
08
09
05
07
F6
10
F7
ED
09
F1
F2
0C
F8
02
FD
0E
09
ED
03
01
0D
F1
0F
EC
10
F2
F2
02
10
0D
0F
FE
02
03
06
11
05
FE
FC
13
08
F6
07
F2
01
F8
0B
FF
0B
EC
04
F4
EC
F6
F7
09
0D
F7
03
05
FB
F6
F6
FB
05
0E
0E
F9
F2
0E
05
F5
0C
09
03
11
04
0F
04
EA
12
01
12
FA
15
08
0F
12
F0
03
0C
08
FB
F8
F2
0B
F6
0C
12
FB
01
F5
F2
EE
0F
FC
06
ED
02
13
09
06
0B
FE
14
FF
0A
0A
00
ED
09
F5
0B
F5
0C
06
09
0D
FD
0F
FE
0C
F2
0A
FD
08
F8
0C
10
FB
EC
11
11
05
10
02
05
0B
FB
F9
05
FC
F3
EE
0C
10
FF
F2
08
0D
F0
FC
FF
14
0D
F2
F6
FE
F4
13
02
12
FD
03
F0
FB
0D
FB
0E
F7
ED
F5
00
F5
ED
03
15
EE
01
0D
F0
06
F9
08
EE
11
0C
15
FB
EE
12
06
EC
01
FF
FE
F1
F5
01
FC
EE
F9
F9
0C
EE
EB
EF
F1
05
FF
F2
FA
0A
0D
F6
F9
0C
10
F4
F1
03
09
F8
F3
04
FC
0B
0D
0B
F7
F0
FF
11
0D
FD
F8
0F
EB
05
F9
10
05
F4
F2
F7
F2
F3
08
0E
06
FC
10
F2
05
02
F2
FD
05
11
10
0C
14
0E
FB
10
FF
F3
02
F5
12
0B
F8
FC
EE
00
EC
03
F0
0A
EF
FE
07
13
FD
13
04
F9
F3
04
F7
F8
F7
FA
06
02
FD
01
FD
F3
11
16
F1
F1
06
05
04
EE
FC
FF
05
12
EF
07
05
0A
F3
0F
17
0C
0C
F8
0A
FC
12
0F
F1
FA
F3
0D
0A
F2
F0
F8
07
04
FE
F5
14
00
F7
12
EF
03
0A
FE
FA
F1
F8
10
F5
03
F9
F7
F2
EE
EE
F0
0C
08
0E
0A
0D
0C
05
F5
F2
FB
12
0C
06
02
0F
F3
FD
0B
10
04
10
EF
FA
12
09
EE
F5
0F
03
0E
F5
F4
01
00
12
EF
EB
F1
EE
0C
F9
F6
FF
0C
FF
F0
05
F4
F1
EF
EF
0E
12
01
F4
03
0B
F2
F0
0E
11
F1
ED
04
FF
14
0D
F1
FE
FF
F0
FC
EE
11
0E
FC
F6
11
03
02
EF
F1
F6
0F
01
FC
0D
FC
10
03
F7
11
00
FF
0D
08
FC
F0
11
F0
F8
0B
EF
00
F4
0C
0A
0C
10
01
FD
0A
02
FD
09
01
F8
FA
ED
F9
F6
06
EE
FA
0B
07
07
F5
0B
FF
FF
0A
0D
F9
EC
F5
FF
10
FC
F1
F6
03
F8
01
F0
08
0E
FC
F2
0B
F5
0B
08
00
F2
0A
FA
00
EF
0F
F3
0C
0B
EF
FB
FA
0D
F8
06
ED
10
08
F3
F2
04
F6
13
08
EE
F3
F7
0D
F8
F1
EE
12
F1
FA
04
00
F6
FB
FE
0F
08
00
FF
F9
03
09
FF
ED
12
F2
FA
0C
0C
12
FB
01
0F
04
04
10
F4
F4
02
07
10
FA
0D
F0
02
03
0E
FF
03
F6
F5
F4
FB
09
05
FC
EF
FF
10
F5
F3
13
14
09
F0
04
07
02
11
0E
F2
10
FB
0C
15
01
FA
04
FB
F1
01
F4
EF
FD
FE
11
0E
06
F7
10
12
03
0F
02
F8
F2
05
F5
03
0B
0A
0E
07
EC
15
10
12
07
F1
FE
0D
0A
03
01
00
0A
0E
FF
13
ED
08
F7
0D
0E
05
F5
14
0E
F2
08
FA
FA
FD
FC
0B
13
0A
0A
F2
F6
F0
FB
FD
F1
FF
FB
05
01
F9
FD
EC
0B
F2
EF
FC
05
EE
07
F5
F3
F9
02
08
EC
03
02
F7
04
11
05
FC
F7
F6
13
04
0F
0C
F7
06
F5
F0
0B
FD
0E
FC
F5
03
FF
ED
0D
10
0F
FC
FD
00
15
F8
01
03
06
F5
FA
F8
F5
0C
03
FF
F4
F6
07
F2
10
03
12
FC
0D
01
0A
11
0C
0E
FF
F9
13
ED
F1
03
F0
F4
F6
EB
13
F1
F8
FD
ED
F3
ED
F2
F8
0C
F3
F6
0F
0F
F8
0C
FD
04
FE
0F
02
05
F8
EF
09
05
F8
0F
06
EC
06
0D
10
FF
07
FA
02
FA
0E
0F
07
01
F7
0C
F8
FD
FF
0A
FA
F4
01
03
0C
12
FA
0F
0B
10
0F
01
EE
EF
15
0B
12
F0
F6
EF
07
ED
F2
F4
13
0D
FC
F4
00
0D
F0
11
13
FD
00
FF
01
01
F2
EB
05
10
10
09
0A
FB
0B
F0
14
0F
02
F0
F3
FF
0B
11
08
12
02
0D
FA
ED
10
08
12
F4
EC
14
0C
F1
F6
FA
FF
EF
0F
F7
EF
07
14
0A
F4
FD
EC
09
F4
12
FE
F0
03
EC
0F
0A
FC
FF
F2
09
FE
FA
F7
02
0F
F4
00
F4
F7
12
02
0B
05
04
05
F9
FB
05
0A
FE
F6
13
05
FB
EE
EF
13
16
FA
03
FF
F1
16
F4
01
F8
07
FA
02
05
F9
03
F0
ED
FB
F6
EC
0D
F8
FB
03
06
02
FC
0F
10
07
10
05
04
FB
F2
0B
FD
F7
FC
F1
08
F9
EA
F7
FD
ED
F3
12
04
00
F7
02
01
09
03
F8
0A
00
FC
F3
F8
14
0E
13
0E
F4
F3
FA
F0
FA
F5
03
03
05
F4
FE
00
EF
ED
F3
EE
FB
FA
0B
F2
0E
EF
F6
11
0C
07
F6
0F
02
F5
13
FE
11
0B
EB
00
F3
F0
F9
F8
0F
F9
EB
F0
F4
F2
ED
0E
12
02
08
07
0A
05
0B
FD
F2
FE
F2
F4
0B
03
13
12
F2
11
03
EC
14
EE
07
0D
FC
ED
0C
03
03
0E
12
08
0E
F9
09
02
F6
01
FE
0A
0D
01
12
EF
07
EC
0F
FE
F2
02
F5
FC
F4
F4
16
0A
07
0D
F5
F2
FC
EF
FD
EF
06
0C
10
F3
FF
F0
0A
10
00
07
EE
12
0E
FC
00
0C
03
08
12
F9
09
0B
F0
F7
F7
EE
FA
EB
0C
0E
13
FC
02
16
02
EA
05
0E
F3
0F
FC
12
04
0B
0A
EF
FF
0F
F6
05
04
12
06
F7
FF
FD
FB
FB
12
05
08
11
F6
05
F4
08
08
09
F2
EE
0B
F9
09
F7
08
12
10
0F
08
0D
0A
03
02
0E
FA
F2
FE
F7
F6
F9
F7
F6
FF
07
04
F4
FF
ED
13
01
F8
03
FA
02
0D
FE
13
08
0C
05
01
08
0E
F3
FC
F6
ED
F6
0F
F5
F8
FF
FA
0E
F5
0D
FF
F1
FA
F3
08
08
F2
EF
03
00
F2
0A
F8
F4
FA
0B
00
FB
01
FB
0C
07
11
F6
EF
0B
0C
02
F6
10
02
04
FA
14
F0
F7
0F
EE
03
FC
02
F6
0D
11
13
F6
F1
0C
ED
FD
09
08
F4
F4
06
0A
0B
0F
03
F2
0F
0E
F5
F1
F2
0D
11
0D
F4
F0
06
FC
0E
09
07
FD
FC
08
FC
FA
03
F1
04
01
09
FF
F5
0C
EE
FB
F5
05
FE
FB
07
EC
08
15
08
0E
F0
16
00
F5
09
11
F0
0D
F6
F6
01
03
0C
0C
FB
00
0E
F8
0A
0A
EF
11
FA
13
FD
F9
0E
FF
FF
F7
ED
F6
06
F4
ED
03
06
0A
0C
FF
F6
03
02
0C
0F
0B
0F
01
F8
F6
09
05
0A
0A
F1
0C
05
F0
F6
08
EE
0B
0C
FE
0E
ED
06
09
08
0E
FF
F9
F6
09
02
00
01
FE
13
F1
FF
01
F0
FA
05
07
F3
FD
EF
F1
F3
F8
EF
F0
08
F8
F6
F5
07
11
10
F2
0F
0B
F9
0E
0B
F4
FF
E9
F8
00
07
0E
0B
FF
FF
FF
0C
0A
15
FF
FA
F2
06
FB
FE
0F
FF
0E
12
FC
08
F8
F6
0F
0C
F7
11
F5
F4
F4
07
11
FC
0F
F7
01
EE
FA
01
FF
F8
F6
F4
04
0A
F7
FF
F6
04
F5
10
0A
EF
FB
F9
0E
F3
EF
15
0A
FB
0D
09
F2
11
10
F3
09
00
F6
F6
FF
05
15
0F
FD
FC
F8
EC
07
0C
01
EF
00
0D
EF
FE
FC
03
01
0B
FC
10
03
07
12
FE
08
04
12
F6
F4
0D
06
0D
03
F0
F3
0C
03
0B
F0
0C
0B
10
EE
EF
06
11
FB
14
F5
F5
06
FB
0C
05
0E
13
11
0E
F1
12
F1
0F
F4
0C
01
13
F6
F2
FF
08
0A
F1
07
EF
F2
00
0D
0D
0D
07
F9
0A
00
04
F5
EB
0E
00
0E
EE
FE
08
FD
12
0E
15
F6
0D
0B
0F
F2
EE
ED
01
EE
ED
F7
EB
13
F0
0F
0C
09
FE
FD
FD
11
E8
F5
00
04
05
FD
07
16
F0
FD
0B
04
F5
F5
FB
02
EE
0B
F1
12
15
10
05
00
0D
EC
FC
F9
05
04
03
13
0C
0F
0C
F9
04
11
0A
03
0F
FF
EF
F7
F9
0E
0F
EF
F9
05
FC
FA
F8
F2
EF
FC
09
03
FC
F8
06
EF
FE
05
02
08
15
08
06
F7
FD
F0
F0
F6
FA
0A
F5
0D
0B
F7
F4
0C
F8
EB
10
08
FC
11
14
14
F1
F1
0F
12
F0
F8
0B
F9
FB
0B
F0
F5
00
02
0E
0B
F5
11
F4
0B
F9
F7
0B
FC
0A
03
01
0D
FD
FB
F6
F1
F8
F5
02
14
01
F7
03
0C
0F
09
F7
F2
EE
FE
F5
03
00
EE
F2
EB
0F
01
0A
12
03
0A
06
F3
FC
02
09
0D
FF
15
14
0E
08
FE
F1
03
0D
08
0E
FE
FD
FC
02
F1
05
0F
04
01
FF
11
14
ED
03
F2
13
05
07
F0
0E
06
04
F3
F2
0D
06
10
12
0E
F4
0A
FE
03
0D
08
0A
17
F4
03
F9
09
15
F7
06
00
04
1B
12
11
08
0A
05
F9
02
F8
04
FB
EF
0D
F5
FD
EE
FD
F4
0A
EE
FD
13
10
0B
F7
F7
11
FA
F5
F5
F2
11
01
FE
04
F9
F6
F1
0C
FA
0B
0F
F2
F9
0A
04
12
00
10
F2
FE
F8
0D
FC
FB
11
11
05
09
EF
03
EF
F1
0C
14
02
0C
F9
F8
0F
F3
F8
F4
FB
0E
F4
06
F7
ED
FB
08
F9
01
00
F4
FD
10
FC
06
FA
F1
FB
F6
FD
FF
06
FD
0B
09
07
FA
F5
F2
ED
EF
FA
12
EE
07
00
09
FF
06
F7
F5
F6
11
F1
0C
F8
00
0E
0B
0C
0F
18
F9
F6
F8
F0
FC
03
08
00
FE
EF
0E
EB
ED
15
02
00
F8
F2
F5
F7
F4
FC
0C
0B
FA
02
F3
ED
10
04
0E
EF
03
09
12
EF
04
11
09
04
01
F4
EF
EF
ED
F1
0A
00
FA
F6
00
09
00
0D
06
09
FE
01
01
F1
EB
ED
0C
00
FA
EE
FE
04
FE
FD
0A
0B
FB
FF
EB
0C
08
FF
EE
0D
05
FF
01
0A
0D
11
F5
F9
F3
07
F0
FC
F8
02
14
0A
04
FD
01
F7
EC
EF
F2
F3
07
F5
F0
F1
EC
EF
08
F2
0F
FB
15
04
10
00
0A
06
FB
F8
F7
FC
12
0A
FB
FE
FA
0D
F3
02
00
05
0F
FE
F6
FC
FF
06
09
FC
03
04
FA
00
16
FD
03
07
0B
F6
0B
EE
F4
02
F6
06
EF
06
F9
F5
F6
13
0A
0C
0F
0E
00
EC
F1
F0
F3
ED
F5
03
0B
ED
F4
04
FE
FD
FA
F0
F4
02
FF
FD
08
F0
10
06
00
04
07
F0
10
08
F8
02
ED
F9
FC
12
F1
F2
0B
F8
08
EF
0B
07
0E
F5
0C
F3
03
10
10
F8
02
0F
01
03
F4
FF
FA
F4
15
EF
FF
ED
FA
FC
F6
F7
ED
F0
FB
F5
03
10
0D
00
14
10
F4
08
01
EA
03
0C
ED
FE
FC
EF
06
0A
15
07
0F
FD
F1
F2
09
0F
00
0B
07
FB
EB
0E
F4
0C
F3
0E
FA
ED
08
F2
F2
0E
FE
FC
0B
0F
0E
F3
FA
F2
04
14
0B
07
01
F0
02
FA
04
F5
EE
10
F7
F9
11
05
04
04
FA
F8
04
01
00
0B
F6
04
F7
EA
11
06
08
01
02
F6
FC
F0
0B
08
F2
F2
FA
00
00
01
01
0A
EF
F0
F4
F7
F7
01
04
12
F7
FD
06
FC
09
F2
FD
F1
11
EE
FC
09
01
FD
F8
FC
0A
0D
0D
EF
04
0F
FE
F4
EF
01
FA
ED
F8
08
16
13
01
F3
11
04
F9
07
07
FD
09
12
F0
01
0C
EF
0E
F1
EF
F9
ED
ED
12
06
F3
F2
EA
0D
F3
FA
0C
FB
13
0D
12
0E
10
F4
0E
0C
F9
FB
02
FA
0C
FB
F3
F8
F2
F3
F0
02
F0
FC
11
10
0D
EF
F1
F0
15
0F
FA
02
F9
05
15
11
EC
09
F1
FD
EF
0D
0F
01
0A
11
15
EE
0C
ED
04
0D
00
10
FD
11
0B
0F
07
0A
FC
0C
07
0F
FF
0D
05
03
EB
FC
0E
0F
F7
09
F9
0E
F4
03
EA
0D
FC
F8
05
F4
FE
0F
0B
07
FF
F7
08
0A
08
0B
FC
F9
F5
05
F4
EC
F4
01
FF
F7
FE
F2
FC
00
12
F2
EC
EE
EF
0E
06
0F
FB
FA
F0
06
F2
EF
13
EC
F0
05
FF
0E
06
FC
04
EF
11
F7
12
06
F5
F5
07
FC
F8
EF
F5
EF
FA
F5
F5
F1
01
F4
F4
0C
05
00
EE
F8
0F
07
FA
FD
0B
EB
0B
F7
F6
10
FB
06
F6
01
17
0A
09
FE
10
12
05
0D
FA
F1
EA
F2
0C
F3
02
06
05
02
0B
F8
05
FF
F5
FF
F9
01
EC
F8
09
FA
07
0E
00
ED
EC
09
04
FB
00
05
0A
11
F6
FC
F4
04
FD
09
09
11
FB
05
F2
0D
F2
0E
FC
FA
FE
02
FD
17
F0
09
F5
FE
0B
03
05
FC
08
0A
F6
02
F6
12
0B
F2
01
FC
0D
F3
FE
F2
01
EE
17
F0
FE
0D
03
ED
08
FF
FA
03
F5
0F
01
02
10
FC
09
05
F1
F1
FE
F5
14
05
07
F8
F2
0E
F4
05
08
F7
14
FB
05
FF
0A
F3
04
F1
F6
F8
F1
0C
F8
0C
EB
07
FF
F2
ED
F4
0D
13
F8
ED
FA
14
FF
07
FF
01
0F
0B
F6
03
FF
FD
F7
0C
03
FF
FA
EE
12
0C
0F
0D
00
09
FC
01
07
F1
09
EE
F1
11
FB
F1
F5
0A
EE
00
0C
13
FF
F5
13
09
F4
F1
02
F2
FE
04
11
E8
EC
EC
F5
00
FB
F7
FD
FE
EB
02
FF
11
10
03
F8
F3
F9
0F
00
F7
10
FF
FC
F0
FA
02
FB
FD
FA
F9
09
F7
0A
EA
F0
15
EC
F8
13
FA
0C
F3
02
03
EB
F7
F2
12
01
15
10
F2
09
15
F1
FD
FA
08
01
F7
0A
16
02
EF
F8
F0
0B
F7
11
0E
11
F9
0D
F9
0D
04
EE
02
07
02
08
0E
0F
03
F9
06
0B
08
F7
0C
F4
09
03
14
0D
01
15
F6
09
F4
0A
00
F0
0E
F8
EC
10
00
F1
12
F5
06
07
07
0C
F1
0B
FC
FD
0B
07
EE
F0
FE
0D
EF
F4
0E
F6
08
EF
ED
EF
EE
F1
0E
FE
0E
02
0A
03
EE
F5
F5
F4
07
04
0D
10
EC
F0
F5
F5
0F
09
EB
06
03
FD
FB
10
FA
F6
14
0A
F1
FC
06
08
0C
05
F4
04
FA
FD
10
F2
FC
EC
FA
08
F9
FD
02
11
0C
EF
F2
07
0C
0C
15
10
EE
FA
ED
11
02
FC
03
F4
FE
0B
FA
EF
0D
05
00
10
F6
0C
07
08
F5
FE
FB
FF
EE
EF
07
F1
F9
11
EE
FD
01
0A
0B
F5
15
F3
FA
F4
F4
EE
0C
14
02
F4
FA
0E
0A
F3
05
09
13
0D
07
01
14
07
0D
09
08
07
07
17
FA
00
17
F9
F2
0A
F1
F1
0E
01
0F
03
FF
EC
EE
09
EE
F4
F3
10
FF
0E
F9
11
FA
FA
0A
FD
F0
ED
0C
00
FF
F8
F7
0A
02
F3
0E
F8
EC
0D
02
F9
F5
00
FF
F4
0F
FD
F6
02
FB
17
0E
0A
F7
08
F7
15
00
02
06
FB
12
0A
0C
F0
F3
F0
03
04
EE
07
06
0E
01
05
EF
00
0B
FD
F8
08
0B
0E
FD
F0
08
07
05
08
FA
F5
F5
F5
FB
13
F7
06
0F
FF
11
0E
04
EF
05
F4
10
04
0D
F2
F4
02
00
F3
0F
00
0B
F3
06
FE
FB
0A
09
0E
12
FB
08
F0
07
0D
FA
F2
F1
EF
F3
F7
11
00
0B
08
00
FD
08
08
13
F5
09
F6
F2
0A
F6
F4
07
FE
F3
F1
03
ED
F0
00
0F
EC
FB
00
F4
00
0D
ED
07
EE
03
F4
11
FA
F8
EE
F8
FB
06
F8
0C
F9
11
10
0D
FD
F6
12
F2
F2
09
13
F2
04
07
0B
07
12
00
06
F7
0B
F8
F0
EC
01
FF
06
07
09
0E
02
EE
11
15
05
03
0C
07
FD
FE
F3
FB
0A
EF
07
F3
F8
F6
FA
0B
09
EE
F3
07
EE
11
0F
04
04
00
F6
0C
F1
FD
06
F8
04
0E
0A
0A
FF
F0
F5
0B
FD
EF
F0
13
11
F6
ED
0E
09
EF
02
FF
09
EF
F1
12
ED
F9
EF
F7
0C
F6
0A
03
ED
F3
F7
10
FC
05
08
12
FC
F7
FE
FF
FC
F9
FD
0B
00
10
F9
FF
EB
F5
0D
F1
F3
F5
F7
15
FB
10
08
FE
0D
0B
F2
07
04
FF
02
FD
0E
04
01
F4
0B
0D
03
07
FE
FA
EE
FC
F1
07
F7
0F
10
FA
05
FC
F0
ED
0F
F8
02
ED
F6
F5
F9
11
FC
02
ED
FF
EF
F0
F3
0F
F7
08
F0
FF
F0
EE
F8
FE
01
F6
03
F5
02
09
F2
F7
F2
04
FD
08
0C
0B
FC
0D
03
02
10
0D
05
F7
F7
FA
01
FF
0B
FD
06
02
F7
FF
00
01
F7
08
FB
F1
05
FA
0F
02
02
05
FC
06
0D
00
0D
00
FF
FE
F3
F9
FD
FA
12
0B
0B
0B
F9
F6
F8
09
12
EE
11
00
00
FA
EF
FD
0D
F8
F6
FB
12
F1
01
F0
11
10
EB
0C
F0
F7
F5
F1
04
0C
F9
08
0A
FE
FB
FC
09
00
F5
08
06
11
0F
0A
F1
10
04
FC
F7
F7
FC
FA
04
06
F5
F7
0B
FD
0F
03
0E
F0
FD
13
FF
FB
00
FF
F1
FF
0A
04
F8
F9
02
00
F5
0E
EF
F6
08
0E
00
ED
F8
0A
05
EF
F7
F8
02
FE
0A
07
EC
F2
0F
14
04
01
0A
09
F5
07
0D
08
0A
0E
FF
F1
03
F9
F4
F7
FD
0E
FC
04
0B
06
0C
00
FB
02
FE
03
12
06
FA
FA
F8
0D
F3
03
F4
F2
ED
13
09
FF
EF
FE
FE
FB
EB
F6
FC
F3
0F
EB
0B
F7
0D
EB
FD
13
09
FD
06
F2
F9
00
11
08
13
F8
EC
07
0C
00
09
F9
0D
FB
EF
F8
FF
0A
FA
00
F7
0A
04
F5
EF
0D
04
FA
FE
EB
04
F2
FE
0D
12
FD
F7
F0
15
04
FC
06
F1
0D
05
FB
04
E9
12
F7
07
F3
EF
EA
F1
04
F5
F0
0A
EE
F7
F0
0E
03
FF
F4
13
F6
02
00
0A
FB
E9
F1
F7
FA
F9
FD
08
08
F6
0B
14
13
EE
0B
11
0B
F1
FA
FF
00
F5
11
01
F1
0A
04
12
F7
F8
08
05
0A
0B
0C
09
FB
EB
07
F3
08
FC
F2
FF
F5
FA
0A
F5
0A
02
0C
04
F5
01
02
07
FD
FC
F4
FE
F7
00
EF
13
08
EE
F7
0C
EE
12
09
12
0C
F1
0A
09
02
05
F3
FA
02
F3
FE
0F
F5
F4
F7
F2
EC
FB
08
09
FB
FC
10
08
13
ED
F2
FC
F4
F8
FB
14
F1
F6
FA
12
03
14
04
14
0C
F8
02
F0
02
0D
EF
0B
0E
F7
06
10
03
01
ED
FF
06
12
EF
F0
F4
EE
FF
04
FF
0D
F1
08
F3
0B
11
08
EC
03
0A
F2
0D
F9
F3
F0
FF
04
03
12
13
10
11
FF
EE
F1
08
0B
00
02
0D
06
04
EC
F0
F5
FE
F0
05
0C
01
FA
0B
06
03
FF
10
0C
06
02
FE
0C
13
0D
F1
FC
F1
FC
FD
0F
12
11
08
02
FA
14
F0
14
FA
F0
11
0E
ED
13
F7
FF
EC
FF
F7
FE
02
08
11
11
F3
06
02
F2
F3
ED
F8
0D
0D
01
F7
F2
05
11
EE
FC
FE
01
F6
10
EF
F9
05
F8
F5
10
0D
F1
13
0A
11
EF
F8
05
15
0B
FB
F1
FE
FB
F5
0F
F4
0D
04
12
FE
F7
02
0B
EF
05
12
F2
0C
F0
10
FB
09
02
EF
10
F4
FE
0D
10
0B
F0
FE
F1
EF
02
FC
07
0B
F3
0D
F7
10
0E
00
F4
06
0C
11
15
05
00
FA
06
F2
08
04
06
04
00
0B
13
0B
0C
F6
F0
FC
F4
F7
EF
00
FF
F9
F3
F1
05
F8
F3
0D
EA
00
03
17
05
F7
03
F1
FC
03
11
FE
F3
F5
FB
0C
FA
12
0A
06
0D
12
07
0E
0C
F6
17
FE
03
FD
08
ED
01
FD
F1
02
05
EB
18
FF
F7
0E
F0
0F
EC
0A
10
FD
FA
FF
F1
0E
03
04
14
03
F5
0E
EE
EC
F2
F3
F0
08
F3
FE
16
02
FD
06
16
FE
FD
F2
FD
03
10
02
0B
F6
F5
EB
0B
F0
FB
F8
11
F6
14
03
0C
01
F3
0A
05
F0
F1
08
EC
F9
01
09
FC
ED
F0
F5
FE
03
E9
FE
0C
FB
02
FC
FF
EE
06
0B
10
FB
06
FA
F9
FE
F1
03
10
0F
06
F0
F9
0E
F7
0E
FF
10
F2
F5
FC
F5
F2
09
14
F1
F9
FB
F1
05
13
0D
F2
F4
EE
10
F0
F0
EC
F2
08
0D
F4
08
12
0C
F0
08
08
FE
FA
10
0D
F7
F6
F9
05
09
15
F3
EE
FE
10
05
0F
F6
11
0A
FF
F9
F3
0A
0A
0D
07
09
EE
FC
FC
F3
F8
0F
EC
04
F0
FD
F3
F5
02
FD
EB
EE
FD
F0
02
F2
08
0A
04
0B
08
F9
F1
01
F2
FC
FC
FC
FC
07
02
F4
02
F5
F9
00
14
00
FD
FF
F9
F3
02
03
F5
00
0E
FE
F7
11
F7
F1
00
F5
0C
F8
06
11
F0
0A
FE
EB
0E
F8
EE
11
FC
0F
EB
F9
FC
13
F7
12
16
F7
F4
FD
03
09
EE
0A
04
0B
03
EF
FD
FE
F4
EF
F8
F7
0B
FD
04
09
09
EF
EE
0F
07
F6
12
FA
07
F9
0B
F0
F4
13
FA
F4
01
EA
EA
FD
04
0F
F1
F5
0F
ED
F5
06
E9
00
0E
FA
07
FA
0D
08
02
04
00
FD
0B
F8
06
FF
FB
09
EF
0A
FB
13
FC
01
F5
EF
FD
FB
F9
FD
13
FA
02
08
F4
FD
0F
0C
04
FF
00
FA
12
01
F2
F5
F1
FD
F8
FC
0E
04
12
F7
03
EC
0B
00
F7
FD
F8
FA
0D
07
07
06
0A
04
F5
02
EC
01
15
0F
05
0E
14
ED
0A
08
0E
08
F2
02
05
10
F7
FE
01
07
F4
F5
F5
F3
EF
F4
01
F8
07
F4
FF
FA
0E
F4
F7
0F
F4
11
F5
EB
F1
FD
F6
F3
00
0D
0D
15
F4
04
EE
FB
EB
06
FA
F2
07
02
0E
EC
FE
FF
0E
10
04
F2
FD
00
06
07
02
03
FA
FC
0F
F9
02
08
15
EF
00
F5
10
F4
F2
ED
05
06
F6
13
06
F7
0E
0F
F9
0B
0B
0F
06
07
F3
07
01
09
0F
FE
FB
EE
F8
02
02
0A
F2
00
F7
EF
15
0D
06
F8
0B
01
0E
EF
FB
F8
12
F7
FD
06
FB
12
EE
FA
EB
FD
00
FB
FD
0B
ED
13
FF
11
05
FB
F1
FC
0A
02
F4
F8
FD
FE
00
16
08
FE
07
05
FC
14
14
02
FE
14
14
0C
F4
11
06
0A
F3
FB
02
EF
F9
F3
F9
12
0F
0F
F0
FD
FE
FF
EA
FB
F0
08
F8
09
04
13
F0
F1
0D
F9
04
F2
00
0F
F5
01
FB
06
FD
12
12
FC
09
F4
FD
0F
FE
11
F4
FD
FD
08
0B
00
EF
F5
FE
FA
05
06
FC
F5
09
06
05
06
06
08
0A
F2
10
F6
FD
11
F8
09
10
13
FB
F2
0E
0D
02
0C
EC
0C
F1
0E
0D
10
F7
0F
12
09
09
FC
0F
F3
F1
05
F3
04
EE
F6
0B
03
F0
13
F3
12
EF
0B
EB
F9
14
FD
F3
FA
F8
14
08
0B
F3
F4
01
FE
F6
ED
FD
F9
10
01
10
16
13
F3
F2
05
FB
0A
FE
F4
F9
F5
06
F5
FC
12
EB
11
F5
0E
03
FF
00
11
0D
F0
ED
09
F7
EF
09
10
06
10
0D
F0
0C
03
0E
F5
F3
0E
FE
F2
F3
14
0B
F6
06
07
EB
0D
02
15
F6
02
F0
FD
F4
01
FD
0E
04
0F
F0
EE
0B
10
04
FA
EE
0E
EE
00
0F
F7
F3
FE
07
03
F1
0B
0C
04
14
0C
0B
F2
08
01
07
F7
F2
10
09
FC
09
0B
0E
F2
FE
ED
FB
0D
08
14
F2
F0
F8
FF
05
11
F6
F5
00
FD
F3
EE
0E
0C
06
F0
F4
0F
FB
04
F6
F7
F6
F1
0F
13
0E
F4
04
08
F2
FC
FC
EC
EF
F0
0A
FD
07
FA
F0
FD
F7
FC
F1
11
02
09
FE
00
FE
F1
F0
F8
10
0E
EE
00
FB
0A
ED
0C
10
01
03
EF
04
F5
0E
08
0B
0F
FE
09
FF
13
F0
05
0C
FA
08
0D
10
F5
FB
FB
FC
F9
09
F8
FF
0F
F6
05
EF
0A
F4
FD
F4
FE
EE
F7
10
10
FB
03
04
06
10
FE
06
FE
0F
04
F5
0A
06
07
F0
FF
EC
F1
03
0C
F0
EE
F6
13
0E
0C
12
04
FB
07
FB
0B
F8
F2
F9
0E
04
0C
03
FB
12
FC
07
ED
F1
F7
F4
11
F7
FE
00
F2
EE
02
0F
08
EE
0B
FF
05
06
12
F2
FD
F5
F1
FE
FE
F7
F8
F5
FA
ED
0B
0D
FF
02
F5
F8
01
FD
07
00
FE
F5
0B
07
13
0A
05
0E
F1
00
0B
F4
EE
0F
EB
0F
FB
FF
FE
01
FC
FB
FE
EE
0D
F6
FE
FA
0F
EE
EF
0B
05
F3
F5
0D
11
F4
FB
01
06
0D
02
FB
03
08
F7
F3
12
F5
FF
0D
07
F4
FC
F1
00
0A
0D
00
F0
F4
F6
F5
08
0D
14
FA
11
08
06
02
FF
12
FB
10
F2
F4
F1
01
12
F3
FB
00
01
FC
0C
03
04
0A
EE
FB
FB
0E
EF
12
ED
0F
FB
FD
04
0B
FC
02
FA
F3
FA
0B
12
03
0D
EC
12
0F
F8
06
EF
0A
12
0C
FE
00
ED
05
F8
03
00
01
F2
03
F3
04
FD
F7
09
05
13
02
08
F9
FC
FE
FD
F6
05
08
01
02
09
F9
03
FF
F7
F3
11
F0
FA
14
FB
03
09
11
F4
05
FE
05
02
EE
0D
F5
07
F6
F2
F9
FB
06
14
FC
F1
04
EE
FC
03
08
05
05
FE
0E
FF
FC
02
00
FA
F6
06
F2
02
EF
03
FB
EB
01
0D
0C
0E
12
06
0E
15
0C
04
F1
FA
FC
F3
13
F3
F4
F9
10
FB
EE
0B
F0
07
0C
F5
FD
F6
04
ED
F5
08
F3
F3
F6
02
FE
0A
EE
04
02
F5
F2
0B
0A
F1
0A
F2
EF
07
00
FD
16
0C
03
F2
FC
F9
FC
08
F3
FC
0A
F1
08
02
FA
FB
F8
FA
FE
00
13
F5
F7
F3
03
FB
F6
FC
00
01
10
F0
06
FE
00
F4
0F
F9
02
FB
F5
0A
EC
F4
0E
14
01
FD
F0
FC
0E
07
02
13
00
FD
F6
EF
ED
EB
FF
F1
FA
F0
0C
0A
EA
F1
13
FB
0F
11
16
F1
01
F4
0A
EB
EF
10
EF
0E
F2
F2
F7
F6
F0
0E
0C
EE
FE
FA
FA
13
F3
F0
02
08
06
FC
FF
EB
EE
FE
12
F4
EE
F1
F2
0A
F5
0D
FD
0F
F0
06
FC
FA
08
F4
07
FA
0D
EF
FF
0B
F8
14
0E
08
F8
00
05
0F
04
13
0A
07
15
00
09
08
EB
08
ED
03
F7
EE
EF
F5
FF
FA
01
FD
FE
0D
04
FE
F3
F7
0B
12
03
04
03
01
FC
E9
FC
0F
07
F3
11
11
15
EC
FE
FF
13
EE
F3
FC
00
F6
09
FB
F9
F7
07
0C
FC
11
F8
F7
EF
EA
12
FC
F5
11
0D
F3
11
0F
ED
FD
0C
0D
FA
05
EF
0C
06
08
F5
EF
F5
12
F1
06
FC
F6
0D
FC
F9
F4
01
EC
FD
F5
10
FD
04
EC
10
09
F7
FF
F4
FA
F3
12
11
F1
ED
F6
F7
0C
F3
10
F7
13
06
09
EA
ED
F3
10
0B
10
0D
03
F9
FD
EC
11
0B
03
F8
08
08
F8
13
01
04
FB
0B
03
F9
FE
F4
09
00
F7
FA
10
0F
F3
FE
08
F6
07
02
F8
09
FE
0F
09
F7
03
F6
F7
00
F9
00
01
F4
15
0B
00
07
09
00
02
EE
14
FD
03
F6
11
FF
0B
FF
FB
0C
FA
F8
FC
06
ED
06
EC
EE
01
01
00
F9
0A
12
ED
FC
01
03
F6
F2
04
0B
11
F6
F8
06
FE
F4
F2
FB
EF
F4
13
F4
F3
00
F9
F6
FF
FC
FF
06
14
15
08
EF
F0
EF
F9
F1
FE
F4
07
F4
11
F0
02
ED
11
0E
03
00
FD
0D
F2
0C
09
FD
04
FD
FC
07
EF
0C
EE
EF
10
ED
09
04
0F
F2
F5
02
F4
F7
FC
08
04
F2
ED
04
10
FF
EF
EB
FE
F0
F2
FD
F8
11
F9
F5
FB
EF
FA
ED
FB
FC
EF
0B
0E
F7
FC
01
08
F8
00
05
F8
F7
F5
F6
FC
13
02
F0
0C
0A
F3
F3
07
FB
09
EF
06
FD
02
EE
F9
12
07
02
13
12
FD
FE
F1
12
FA
F0
F4
03
05
FB
06
06
11
F6
08
EF
03
0D
EC
03
08
0F
0D
06
08
08
13
F4
0A
0D
04
03
F7
F1
F6
F2
FF
09
FC
0C
FD
ED
10
0B
FF
02
FC
F7
EE
F9
F1
02
0A
F1
09
00
14
12
F4
F0
FB
01
EF
F3
F8
EE
FF
F6
02
F8
EC
0C
0C
00
EC
F3
12
08
05
08
14
FE
F2
0D
10
06
0D
0D
0F
00
05
FA
08
02
F0
EF
01
EF
0E
05
F6
00
0F
FC
10
07
06
EE
FA
F8
F2
FB
09
FA
F5
ED
12
09
10
F6
03
05
F4
0B
F5
11
FC
11
0A
0B
F0
15
0F
F6
02
FB
01
06
15
03
02
0C
EF
F4
0C
04
F0
02
EC
FA
F6
EB
F1
14
EC
F8
FB
07
F7
0C
F2
09
03
0A
EB
F6
FC
F8
FD
02
EE
03
F5
F7
05
0B
09
11
08
07
01
EF
08
01
0A
07
0C
02
05
11
F6
FD
04
08
05
F8
0A
F6
06
EA
15
FD
04
F6
00
07
12
FF
FF
0B
07
E9
F4
07
02
F7
07
15
F5
09
06
E9
F7
FE
FB
05
09
0B
05
F9
0F
EA
11
FD
07
F0
FC
F4
0C
10
0D
EB
09
F4
F5
F3
F9
0D
FE
00
02
F2
08
FD
13
0C
F8
FF
09
F9
0C
09
05
0C
08
03
13
F1
05
FC
0A
FF
FC
0E
F4
FD
07
06
FE
FD
F8
F4
F2
FF
F9
FE
F5
F0
F8
EB
14
EC
0B
FF
EF
FE
02
07
F3
01
F9
FC
F8
0B
07
01
FB
06
00
12
0B
F4
EE
F4
14
0B
FA
05
F9
EE
10
F2
07
F8
FE
05
02
12
EE
FB
ED
F2
10
0F
16
01
FE
FD
EB
F5
09
FE
F2
08
FA
FF
0F
F7
FC
05
ED
F9
F8
14
0D
FA
0F
F3
F0
F0
0D
0A
FE
EF
0A
F7
F6
0F
09
FD
EC
0A
F2
F2
EA
F5
0E
FD
ED
FE
09
F2
F7
08
11
EF
FD
F4
F5
08
09
0A
FC
F5
17
05
13
FE
F3
F1
04
F6
07
F5
02
13
EB
09
FB
F4
04
FB
F1
FE
03
0C
ED
F4
F3
F1
F8
ED
0C
10
14
0A
E9
0B
11
0B
F9
FD
0A
F7
11
F8
04
F1
15
12
EE
0F
F9
FC
07
F0
00
04
FE
03
03
F7
FF
02
08
09
0C
F9
F1
0F
0F
F3
FA
0B
05
